#version: 0.2 - Trained by `huggingface/tokenizers`
Ġ t
h e
Ġ a
i n
Ġt he
r e
Ġ w
o u
Ġ s
o n
e r
a t
a n
i s
i t
Ġ o
Ġ b
Ġ c
Ġ m
n d
Ġ f
o r
in g
e d
e n
Ġ h
l l
Ġ d
Ġt o
e s
Ġt h
a r
Ġo f
Ġ p
Ġ y
a s
Ġ in
Ġa nd
Ġ l
Ġy ou
Ġ g
o m
Ġ Ċ
Ġ n
Ġ I
i c
a l
o w
v e
l e
o t
e t
Ġ he
u s
' s
a y
Ġ it
Ġ is
Ġb e
Ġth at
i on
Ġ on
Ġ e
i d
a d
g h
en t
Ġw as
Ġ re
a m
i m
l d
u t
a c
Ġw e
v er
Ġ S
T he
Ġw h
Ġf or
s t
l y
r o
r i
. .
i r
s e
Ġ A
k e
Ġs t
Ġ C
o o
gh t
' t
a ll
ou t
it h
Ġ M
Ġh a
Ġm e
Ġ k
u r
Ġa n
Ġ u
Ġ .
Ġw ith
c t
c h
Ġa s
c e
Ġd o
he r
an d
Ġ H
t er
Ġ 1
i ll
i f
Ġs e
Ġ B
om e
i l
Ġa re
h at
Ġa t
Ġha ve
Ġn ot
Ġth is
an t
us t
ou ld
at ion
Ġ P
Ġ T
o p
Ġg o
a in
Ġk n
Ġl i
u n
Ġ Ġ
Y ou
e a
o l
g e
t h
Ġ W
r om
u l
Ġh is
Ġ "
e ll
Ġ 2
Ġ D
Ġkn ow
o re
Ġs h
ou r
Ġn e
Ġ r
Ġ j
Ġ G
Ġd e
â Ģ
p p
.. .
u m
is t
Ġc an
Ġ The
Ġ R
es t
Ġ L
Ġthe y
ar t
Ġa l
er s
Ġf rom
Ġ F
Ġs o
Ġb y
Ġa ll
e l
Ġ N
Ġa b
a b
Ġm y
es s
Ġyou r
n t
at e
Ġ ?
i e
o s
Ġc on
Ġ J
Ġo r
e m
i g
Ġon e
all y
Ġwh at
Ġw he
ar d
i ght
Ġs u
Ġthe re
Ġc om
Ġ (
q u
Ġu p
re d
on e
' re
Ġc h
a p
r y
Ġh ad
re s
Ġw or
Ġb ut
ac k
i ve
Ġhe r
Ġ E
Ġ out
ver y
Ġh im
Ġp l
Ġ us
oo d
am e
Ġ ,
a ke
Ġp ro
Ġli ke
Ġ1 9
oo k
on g
o d
Ġ O
' m
or t
it y
Ġ v
Ġ2 0
as t
Ġwe re
in k
Ġe x
ic h
ou nd
Ġab out
c k
I t
Ġg et
in d
b er
Ġs a
Ġd on
Ġs he
r a
e ar
Ġj ust
A nd
ri ght
i es
p e
a k
H e
Ġwh o
u d
im e
ea h
Ġd id
in e
m ent
Ġhe re
Ġn o
Ġthe m
Ġm an
ou s
Ġ K
e p
Ġw ant
v en
o st
' ll
Ġw ould
Ġth ink
a g
Ġ if
ic e
ĠH e
Ġw ill
Ġs ome
Ġin t
W hat
Ġh as
h ing
ow n
id e
Ġan y
ou gh
Ġt r
us e
Ġ right
t her
Ġwh ich
it t
i an
Ġg ot
u re
f e
Ġ =
a re
Ġ U
Ġa r
Ġse e
i v
i p
i a
ĠI t
Ġa g
Ġp e
Ġwhe n
Ġt w
Ġs ay
Ġbe en
s o
Ġt ime
Ġbe c
ĠĠ ĠĠ
w ay
ac e
o ve
W e
Ġn ow
Ġs p
' ve
op le
ar y
Ġl e
is h
Ġ '
ic k
ĠS t
Ġc l
T h
a use
o se
Ġsa id
Ġthe ir
a ge
at ed
re e
Y eah
c i
Ġm ore
ou nt
u e
Ġgo ing
Ġthe n
ir st
on d
an g
it e
Ġl ook
Ġpe ople
Ġo ther
as s
N o
ot her
S o
or n
Ġg r
n a
0 0
ĠC h
Ġc ould
an s
ac t
e w
Ġwor k
Ġo ver
O h
Ġb ack
b le
an k
Ġof f
ing s
Ġ qu
B ut
p er
Ġ very
Ġtw o
Ġ20 1
am p
f ter
or d
i re
as e
Ġ ro
T hat
re at
Ġcom p
o g
f f
n e
Ġf irst
Ġ en
an ce
m er
o ll
p t
u b
- -
se l
er m
Ġb r
ion s
Ġg ood
t he
Ġto o
ad e
e nd
om et
Ġp art
Ġint o
Ġy ear
i z
ĠI n
Ġal so
o v
he d
k ay
Ġu n
Ġ V
h y
w e
Ġh ow
al k
Ġp r
Ġd own
Ġw ay
Ġc all
o y
Ġ our
ac h
c c
at er
itt le
a v
Ġ im
Ġa m
i ld
ou ght
Ġa d
W ell
nd er
o c
w n
Ġc ome
Ġon ly
Ġb l
Ġwhe re
if e
Ġag ain
Ġpl ay
re n
Ġt e
r u
ur n
c l
Ġe very
Ġb et
o h
ar k
Ġs omet
Ġl ittle
Ġd ay
is s
Y es
Ġa ct
res s
Ġwe ll
en ce
u ch
I n
Ġne ed
Ġcon t
or y
i le
Ġm ake
p l
ab le
Ġbec ause
ic t
ic al
Ġa fter
Ġf e
ig n
f ore
in t
or m
en s
t y
b e
sel f
he re
Ġs c
Ġre ally
Ġt ake
Ġd is
Ġth an
Ġg u
âĢ Ļ
a u
l and
Ġb u
l es
i ed
Ġw r
Ġsh ould
Ġa pp
oo l
Ġp re
ĠU n
th ing
Ġl et
âĢ ľ
ul t
ĠT h
n g
Ġt ell
Ġth r
Ġthe se
at her
s h
Ġp er
f t
Ġu nder
ct ion
Ġme an
o b
Ġha pp
Ġs er
o ld
Ġne w
Ġdo es
Ġm uch
on s
âĢ Ŀ
Ġre s
at es
Ġp o
Th is
he n
Ġm ade
Ġsomet hing
. "
v ed
at h
u ck
on na
Ġf l
Ġ er
d u
Ġp ut
t e
a il
Ġ Y
Ġ 3
Ġit s
Ġl ong
v ing
The y
od y
a w
Ġg onna
Ġm ay
p ort
it ion
it ed
' d
u ll
ver s
Ġt alk
Ġbe fore
a ve
Ġe ven
o ck
or s
Ġcom m
Ġ20 0
u ally
i ous
Ġre m
Ġyear s
Ġne ver
Ġdid n
ou se
i ly
e ct
w ard
ad y
Ġc ar
Ġs m
ve l
Ġre c
Ġman y
t ing
i x
i gh
Ġ ke
The re
is e
S he
i al
Ġm ost
a h
ation s
Ġse c
in ce
Ġthr ough
Ġd if
g et
l p
e c
an c
ri ed
Ġth ree
re nt
Ġst art
f ul
h o
Ġh and
I f
a ir
d ay
t ain
Ġl ife
Ġo ld
Ġth ing
y ou
Ġs pe
Ġc ount
Ġus ed
Ġd es
Ġg reat
Ġth ose
Ġc r
Ġf ound
u p
Ġbe l
Ġth ings
id ent
os s
Ġst ill
v es
l i
Ġth ought
ic an
Ġhe lp
ot h
Ġc o
g in
ter n
Ġf ind
Ġm ust
H ow
Ġcall ed
Ġ1 8
Ġas k
Ġl ast
Ġh ome
âĢ ĵ
im es
w hat
Ġdo ing
" .
Ġ You
one y
Ġl ove
he s
Ġo wn
Ġ i
Ġe nd
al s
x t
ri end
Ġsh ow
an ge
Ġa way
u g
Ġat t
Ġbe ing
an y
ation al
Ġe ar
Ġl ea
Ġn ame
Ġw on
Ġc our
g an
Ġg ive
en ed
Ġm in
ĠS he
le ase
ch ool
Ġw ent
ent s
n y
em ber
at ch
ĠB r
ĠA mer
ir l
Ġc ame
Ġf am
Ġp ol
on t
Ġs ame
o ot
m an
D o
ĠM ar
Ġsu ch
m ber
f orm
n ing
ak ing
Ġl ot
Ġm ov
ĠA r
â Ļ
way s
a it
i b
g r
ĠĠĠĠ ĠĠĠĠ
out h
as ed
Ġdif fe
ers on
m y
) .
ur ing
Ġk ind
N ow
" ,
c ed
Ġsu pp
Ġe le
ub l
Ġwor ld
Ġfe el
Ġ 4
Ġc are
Ġf in
ou p
W hy
e e
Ġpl ace
Ġwh y
Ġt ry
e ver
ow er
) ,
ĠM r
re st
âĻ ª
Ġb ig
Ġhe ad
cl ud
b ody
Ġus e
Ġch ild
Ġo p
Ġn ight
Ġn um
s ide
Ġm ar
at ing
s s
we en
Ġa cc
Ġar ound
Ġm ight
ut e
Ġin d
Ġk ill
Ġs et
en er
Ġre l
or k
u h
i o
m b
Ġw om
u nd
Ġf our
Ġfor m
Ġd ist
Ġ 5
pe ct
v ent
Ġre g
Ġp res
Ġf riend
I N
Ġs l
i ble
L et
Ġs y
Ġ !
Ġan other
or ry
a z
Ġa c
Ġc he
Ġ19 9
Ġknow n
al e
E R
p h
Ġst r
Ġt urn
ic s
Ġs ur
D on
Ġbet ween
Ġal ways
ul ar
oll ow
ĠThe y
Ġh ouse
e k
t s
as on
S t
Ġm on
ĠN ew
c es
ci al
Ġany thing
Ġle ft
u al
Ġr un
t hat
Ġsu re
Ġre al
Ġbet ter
is hed
ĠD e
ĠUn ited
Ġb it
d er
y e
ĠA l
Ġe l
ĠF r
l ed
Ġin clud
ĠA nd
Ġg irl
n ess
ĠS h
A ll
or th
g g
Ġsec ond
Ġd one
ĠTh is
C ome
Ġm oney
ar m
Ġ' '
y s
Ġdiffe rent
` `
au ght
b ut
Ġke ep
Ġwor d
t on
ak es
ou n
Ġbel ie
Ġ âĢľ
Ġd r
Ġs chool
Ġst ud
ir d
fe ct
at ive
ver n
Ġ ent
ter s
Ġpo int
Ġu nt
Ġsu b
n er
Ġre t
O kay
Ġp erson
Ġde c
re t
Ġo b
Ġwh ile
Ġto ld
Ġm et
t o
Ġcon s
ol og
it ies
M y
Ġb o
r ow
Ġin v
Ġb us
Ġc ent
it s
Ġe ver
I s
Ġm us
Ġm om
Ġp h
Ġm at
am es
Ġc ity
ar s
He y
a j
Ġb oy
Ġu h
i vers
Ġf ollow
j ect
Ġp op
ct or
ot e
y es
Ġg l
Th ank
H E
Ġ erm
n o
Ġunt il
ot t
Ġcour se
un e
Ġb ook
ĠAmer ican
ea k
a x
Ġtoo k
Ġpro du
Ġne xt
o f
o k
Ġo kay
as h
l ing
Ġm en
ĠA s
Ġin st
oh n
Ġb oth
ĠSt ates
Ġs ing
in s
i er
ce pt
Ã ©
Ġl ar
Ġin c
is ion
u res
, "
Ġ -
1 9
Ġas s
Ġe ach
Ġw ater
ĠW hat
Ġl ater
Ġf ather
W hen
A N
Ġc re
Ġst op
st and
Ġc le
ĠA n
Ġp ass
ĠE ng
e g
Ġse em
Ġl ist
Ġb est
Ġnot hing
Ġ19 8
Ġc ap
er n
N ot
op e
Ġs w
Ġnum ber
Ġst ate
om m
ble m
Ġ 6
ro ss
Ġact ually
Ġsm all
Ġim p
Ġd ied
ut h
un g
is ter
2 0
Ġb re
ĠG od
in ess
Ġh igh
os ed
ĠI nd
Ġch ar
i red
c ess
Ġh ard
in es
Ġdoes n
Ġf un
Ġagain st
Ġy eah
Ġf ive
Ġad d
if ic
ĠN o
w here
Ġe m
O n
r ic
Ġf r
Ġfam ily
Ġte am
Ġbec ame
Ġpro blem
Ġsa w
an e
e red
Ġl oc
Ġp ubl
ur y
Ġre p
Ġen ough
Ġy es
al f
Ġel se
at t
r al
u c
ab ly
Ġb orn
Ġ 7
g er
Ġw ar
Ġm other
Ġd ire
a pp
Ġto get
in a
Ġtoget her
Ġd uring
W ho
Ġse en
b all
Ġto wn
ro p
Ġon ce
a red
J ust
Ġwith out
l ess
Ġf act
Ġ19 7
i et
le t
ment s
Ġf ew
st em
M m
Ġw ait
Ġwe ek
r ist
Ġs ince
p art
Ġsay s
Ġs orry
Ġre st
00 0
O U
Ġs ix
ct ed
i k
W here
Ġ Z
u ff
Ġdis c
t en
er tain
Ġs ide
Ġwant ed
Ġhe ar
Ġs ign
it al
Ġc oll
e x
Ġs im
Ġ 8
Ġyou ng
Ġme et
Ġim port
ie ld
ĠB ut
Ġro om
s on
Ġint e
e b
Ġevery thing
is m
re am
ĠI s
Ġst and
Ġb ad
Ġt ri
Ġli ght
Ġle ad
Ġst ay
a id
re w
Ġ id
ĠS p
m e
Ġli ve
Ġre ad
Ġe v
The n
Ġm ind
A re
Ġunder stand
Ġlea ve
Ġqu ite
en se
ant s
Ġm ove
r ict
Ġcom ing
Ġs on
Ġop en
U h
Ġin ter
C h
L ook
Ġmus ic
ĠP r
Ġh um
orn ing
is ed
Ġne ar
ĠC l
Ġto day
IN G
Ġex p
Ġs ort
ivers ity
Ġt imes
us s
Ġl and
i ke
S h
ist s
in ed
Ġbelie ve
. âĢĿ
Ġday s
ie w
Ġ19 6
en e
Ġg ener
Ġtr ans
Ġ ed
Ġex t
Ġqu est
ĠJ ohn
b r
o ber
et s
Ġchild ren
ĠC ount
il m
Ġbu ild
id d
Ġar t
R ight
Ġt ra
Ġf ar
Ġc ol
Ġs k
Ġgr oup
Ġm ain
c y
ut ion
Ġm ed
re ady
Ġs it
Ġhapp ened
Ġth ough
Ġup on
Ġis n
ri es
e y
Ġlook ing
Ġn ice
Ġsy stem
Ġ1 0
am ed
Ġp oss
Ġ Q
ain s
Ġre f
Ġ âĢĵ
iv es
Ġ 9
er y
b y
Ġinte rest
iz e
Ġcount ry
A T
Ġwho le
Ġp lease
Ġgo vern
r ap
a ut
g t
iz ed
Ġe as
Ġc ur
Ġget ting
u es
Â ł
it her
Ġh our
Ġp ower
Ġm od
Ġhe art
Ġhim self
o kay
Ġf ace
Ġd ri
ĠG r
Ġpre t
Ġstart ed
A s
f ess
le ep
Ġimport ant
F or
Ġhe ard
at s
an n
Ġj ob
Ġbe h
Ġde ath
ow s
ĠM ay
Ġy et
ar r
Ġare a
Ġb ro
Ġ --
a i
Ġh alf
Ġm orning
ĠG erm
is on
il ity
Ġp ay
an na
d d
Ġha ving
an u
Ġs ong
Ġw in
as ter
Ġe yes
f l
Ġal ready
ĠW e
at ure
al ity
Ġrec ord
Ġplay ed
Ġm il
d o
Ġd ra
O N
Ġ ri
vel op
Ġa ir
Ġpro b
l ish
t ed
Ġpro v
Ġmon th
G ood
ĠH ow
Ġbr other
Ġrem ember
Ġal ong
um p
Ġ [
Ġsay ing
Ġwom an
Ġkn ew
Ġg ame
id ed
ĠK ing
ic es
m ost
D id
Ġh old
A l
Ġpol it
Ġme ans
Ġg ave
ur al
Ġret urn
Ġs ir
y eah
Ġtalk ing
ep t
Ġc ase
Ġm iss
ĠThe re
ward s
ag es
ap s
Ġwr ong
er ing
on y
ab y
Ġt y
ĠCount y
Ġa ge
Ġj o
Ġin s
h m
Ġser v
G o
Ġw alk
Ġl aw
Ġp rom
ound s
Ġf ull
Ġg i
Ġto p
t a
p le
n ot
ul ation
re en
e ad
ĠA t
Ġbus iness
ic ally
ion al
Ġid ea
Ġe at
Ġso on
g y
it er
Ġk id
aught er
Ġe qu
y ing
Ġask ed
ĠS o
Ġde ad
u ly
un ic
A R
sh ip
Ġh ur
E r
Ġf oot
c hed
p r
C an
ak en
Ġm ill
c le
le ased
b orn
at or
Ġcont in
ate ly
Ġan s
ec ause
Ġtry ing
Ġhis t
anu ary
ĠO h
Ġex pl
ĠBr it
Ġcl ass
Ġ1 5
Ġw ife
ĠO n
u ro
Ġch ang
Ġ1 7
c ri
er v
le y
d y
u red
Ġdo or
pe nd
Ġbr ing
ur ch
am a
ar l
Ġof ten
Ġbe gan
c on
n ow
Ġb as
Ġf ore
ren ce
Ġoff ic
Ġsp eak
ĠP ro
or ld
ic a
en n
Ġmat ter
Ġl ear
Ġ19 4
Ġp ri
Ġc ertain
id es
ĠA ll
A t
ap e
Ġ19 5
ĠR e
Ġab le
Ġm aking
ĠB l
Ġch ange
ĠCh rist
f fect
o ice
il t
us h
Ġd et
Ġp ain
ĠF or
Ġf ilm
Ġw ind
Ġs ent
Ġl ost
ĠJ anuary
o le
ĠUn iversity
Ġl ess
ĠH is
Ġsome one
G et
Ġpl an
Ġg one
ar ch
Ġde velop
or row
Ġf ight
O R
You r
i ver
Ġde f
Ġr ound
et h
Ġgu y
Ġhapp en
Ġth ank
Ġlar ge
i am
Ġpart ic
Ġst ory
ĠS c
ri gin
Ġmom ent
in c
Ġsh all
O ne
r act
ie f
? "
Ġw ond
ĠT HE
st er
Ġ âĻª
ug ust
gr am
Ġwom en
ĠC on
Ġw atch
ain ed
Ġad v
Ġwas n
Ġl ine
ac es
are nt
ĠY ork
w ell
A n
Ġear ly
Ġor der
Ġcon c
ian s
p ri
g ue
Ġ es
Ġm ark
ent ly
Ġ _
ell o
Ġprob ably
Ġgo es
Ġsh ort
Ġle g
ĠT hat
pp ed
h ip
ept ember
Ġp os
Ġf all
ent y
al th
Ġbec ome
Ġpret ty
en g
aj or
Ġbe aut
E S
He re
Ġ ;
Ġwork ing
Ġt er
ĠW ar
Ġex amp
Ġhand s
Ġb ody
re et
a us
Ġre ce
Ġtr ue
Ġex per
Ġf ell
Ġt erm
Ġspe c
T o
Ġe ight
Ġv ar
Ġd iv
r on
Ġyour self
Ġs leep
Ġcon st
Ġmov ie
ang u
und red
om p
M ay
m ed
Ġv is
Ġo cc
Ġf ree
Ġcom es
ĠC an
L L
Ġp at
Ġs ol
Ġcomp any
Ġgi ven
Ġ1 6
iv ed
Ġcl ose
Ġha ven
Ġwould n
Ġcont ro
ent ion
Ġgovern ment
m p
Ġag o
ap er
et y
e al
, âĢĿ
v ious
ĠS outh
ard s
er t
Ġf ine
Ġor gan
Ġf uck
Ġt re
i um
Ġc ut
ĠA ugust
Ġc or
ĠS eptember
Ġl ate
e or
ne y
w h
Ġo per
ĠW orld
Ġ19 3
Ġcomp le
et er
ĠEng lish
Ġpubl ic
cc ess
Ġp ar
Ġ1 2
Ġw anna
w er
ĠT r
ĠC omm
el s
Ġquest ion
Ġdr ink
ou ble
ĠA ust
p s
ĠĠ Ġ
Ġo rigin
h uh
B ecause
Ġde al
Ġf ire
Ġb ed
o on
Ġre leased
Ġ est
Ġh ope
âĢ Ķ
Ġser ies
Ġle ast
Ġpres ent
Ġgu ys
m m
ĠB e
Ġal most
W h
Ġs qu
b um
Ġre ady
olog y
ĠJ uly
Ġbe gin
Ġh or
Ġh undred
os p
d e
Ġlook ed
f or
Ġ &
Ġb aby
Ġbre ak
Ġse ver
o int
l er
um b
Ġo pp
ut es
Ġ ...
Ġt en
ĠP res
sel ves
E N
her n
c o
Ġword s
Ġmay be
Ġmy self
A h
Ġp ick
pri l
Ġbl ack
Ġcon f
if ul
Ġp ie
Ġnew s
Ġkill ed
ĠE uro
Ġmar ried
Ġpro gram
Ġan im
Ġo h
Ġfriend s
Ġse ason
Ġde m
Ġn amed
Ġ Yes
Ġbl ood
Ġt aken
it ing
ĠMar ch
Ġan n
Ġa w
Ġsever al
og rap
on es
Ġf ood
ap an
z e
ĠN orth
ou d
Ġpr ot
e ge
ct ober
Ġm akes
el t
R e
he ad
Ġsh ip
Ġd ad
ĠJ une
Ġ201 9
at ic
Ġre ason
ud e
un k
Ġdes ign
ac ed
Ġre port
o ke
es e
anc es
le v
Ġen g
Ġpop ulation
b ed
c he
Ġcle ar
Ġexamp le
ren ch
res ent
Ġgu ess
ĠM in
i or
Ġsupp ort
m in
Ġh on
ĠW h
n ed
en cy
b o
g ed
ce mber
al es
ĠP h
Ġp ast
ur s
Ġwh ite
Ġbr ought
ĠA d
Ġtr ain
b s
o ad
P lease
Ġl angu
am ent
Ġmill ion
Ġele ct
ĠĠĠĠĠĠĠĠ ĠĠĠĠĠĠĠĠ
Ġal bum
ĠP ar
Ġf ig
Ġfr ont
om an
ĠG o
c ome
Ġt aking
Ġhapp y
ĠBrit ish
i ent
ĠL e
ĠA pril
E very
Ġm ag
f ic
Ġal one
Ġall ow
Ġme mber
Ġst uff
ĠFr ance
Ġhum an
ĠS w
ĠC al
Ġs we
od e
Ġpart y
Ġchar ac
Ġli ving
Ġbeh ind
ove mber
un ity
Ġres p
Ġsu ccess
! "
o ver
ĠO r
Ġv al
ĠN ational
ĠO ctober
w ork
ĠEuro pe
ull y
Ġhe ld
Ġdist rict
Ġin form
Ġ Yeah
h aps
Ġinclud ing
Ġh ot
Ġd aughter
Ġar m
Ġe ither
f ord
Ġ201 0
Ġb and
itt en
ra z
Ġgr ow
Ġs at
oun c
Ġper form
c hes
Ġv ill
Ġb ar
M r
Ġother s
b and
m en
s y
id ge
Ġqu ick
Ġstr ong
ĠDe cember
Ġfor mer
Ġt em
Ġatt ack
Ġwith in
ĠJ apan
Ġhe ll
r ing
ĠC ity
ĠM iss
ĠC ar
z er
Ġpro fess
id er
i ence
Ġ ve
Ġc amp
ĠD o
Ġli ved
Ġsing le
Ġr ather
w o
B e
ous and
ĠR ep
ĠW hen
Ġso ld
Ġbu ilt
a im
Ġ1 1
unic ip
Ġ X
Ġres ult
l t
Ġro ad
ru ary
Ġre d
an a
Ġlist en
eb ruary
Ġapp ear
Ġs um
ĠF l
iv ing
A S
T H
as k
Ġle vel
r it
Ġmin utes
am b
ĠP l
E x
Ġ $
ci ent
ĠC ol
Ġthink ing
au gh
ot s
Ġlook s
ĠN ovember
l ic
Ġn orth
p ar
Ġst ation
ch n
I S
Ġ1 4
Ġwork ed
Ġcomm on
or ies
ang er
S ome
a ul
o e
ond on
g est
Ġth ird
Ġfollow ing
Ġs ound
ĠPres ident
Ġst ru
Ġt ou
Ġb all
Ġdo g
p ed
Ġwant s
u ed
Ġp ict
Ġcould n
ke y
Ġ1 3
Ġme mb
ore d
Ġwond er
ĠS e
Ġbeaut iful
Ġspe cial
ou b
i pp
o or
ĠW ill
act ly
Ġsomet imes
Ġturn ed
R E
Ġre pl
Ġm ajor
uth or
O r
Ġplay ing
ĠF rench
Ġex pect
un t
Ġto t
Ġde part
qu e
Ġt est
H ello
Ġmin ute
Ġ |
h a
Ġth ousand
h ow
Ġh it
Ġus ing
Ġc e
ff ic
Ġm ess
g o
Ġbuild ing
c an
I I
ĠF ebruary
itt ing
a ur
Ġmonth s
air s
Ġac ross
in o
Ġapp ro
Ġind e
att le
f ully
Ġc ir
al d
Ġin side
Ġposs ible
Ġd ie
the re
Ġhist ory
tern ational
Ġc ost
ĠG eor
h am
Ġse ven
as es
Ġam ong
ur g
ĠG u
a e
Ġk ing
Ġout side
Ġe ffect
Ġus ually
us band
i od
ove red
c ent
l f
ĠH er
re ad
Ġs outh
ĠM an
Ġmemb ers
H ave
Ġre qu
th ough
A fter
Ġd ream
m a
li ke
ĠL ondon
A ny
Ġto m
p or
Ġoff ice
f ort
Ġ ill
it ions
r ation
Ġte ac
ĠA f
un ch
ac hed
Ġche ck
om in
ĠE d
Ġ3 0
Ġd est
ou l
Ġhour s
Ġa v
so ci
Ġro ck
ĠA b
ea red
y n
Ġ ĠĊ
c om
ĠIt al
Ġg un
Ġre v
Ġcomp et
Ġst e
Ġwork s
if ied
Ġa f
Ġr a
c er
idd le
ĠC ent
ĠB ar
Ġpol ice
May be
Ġb ased
ir on
s c
Ġh usband
Ġn ational
ar ing
Ġse a
W ith
Ġcur rent
at a
o x
em ent
Ġs il
ay s
Ġf if
Ġr ad
Ġcon d
Ġv iew
ro du
an i
it ch
Ġcl ub
Ġis s
Ġbu y
ĠW est
Ġcent ury
Ġse nd
Ġp ost
Ġpro per
e en
Ġany one
Ġmov ed
Ġcomple te
ĠI f
Ġde ar
f er
Ġf av
Ġf ield
Ġf elt
Ġcontro l
ĠEng land
lev ision
Ġd ark
1 0
Ġm unicip
Ġt ried
Ġf re
ar a
Ġm ur
Ġpartic ular
k s
Ġwr itten
art y
Ġv ide
Ġgo ld
Ġc op
ĠA fter
Ġget s
Ġex c
Ġloc al
ir th
Ġp arent
Ġcre ated
es tern
ic ian
id ence
ag ed
ress ed
m ore
Ġst ra
iss ion
Ġpo or
Ġha ir
Ġf a
Ġinc re
Ġd am
Ġtw enty
Ġc al
ĠT H
Ġper iod
ounc il
con om
Ġl ow
Ġwr ote
L E
Ġab s
Ġ19 2
u k
Ġm er
Ġgot ta
ra id
ov ed
Ġe vent
um ent
Ġs n
Ġevery one
O f
Ġwhe ther
Ġdes cri
Ġlangu age
Ġc oup
Ġs un
is ing
Ġor d
Ġpr act
ĠL ea
Ġcare er
our n
a ff
ord ing
Ġde v
1 8
Ġgener al
Ġv oice
Ġli ves
hy s
Ġbo x
ĠY OU
Ġfoot ball
Ġans wer
Ġc aus
ĠU S
ct ions
ri e
Ġt on
Ġgr and
ĠT e
Ġch ance
ir ty
Ġeas y
Ġcan not
ĠGerm an
Ġw ish
Ġs ense
Ġfor g
Ġchang ed
ain t
Ġ2 5
Ġrece ived
iz ation
Ġh ig
Ġserv ice
ĠMr s
it ive
Ġde fe
id ing
l ight
u le
Ġwor ry
Ġf ur
Ġm ot
Ġinv ol
Ġl ay
ad a
ri but
Ġdif fic
d om
og n
ĠJ ack
Ġcount y
E D
re m
Ġknow s
ro om
Ġt able
ci ence
Ġfe et
Ġm ine
Ġrep resent
i en
Ġw all
u ation
Ġinform ation
Ġa uthor
Ġtom orrow
Ġde p
Ġn at
Ġseem s
Ġb ird
Ġon es
ĠA m
ul a
Ġgr ound
âĢ ĺ
? âĢĿ
av y
Ġpro p
Ġsu per
Ġp ull
Ġd in
ĠT O
Ġ201 6
Ġpro cess
s he
in ation
Ġf ail
Ġst ep
end ed
u ri
ill e
Ġph one
the y
t le
em y
ĠD r
ĠP e
ĠO ne
Ġswe et
Ġcharac ter
Ġcoup le
Ġp ur
ĠH ar
ci ally
Ġt ill
Ġtr ad
Ġb ott
ens us
if t
as ure
l ook
Ġh y
ed er
us ed
ĠAust ral
w ith
ĠM c
g es
Ġwr ite
oc r
Ġp ress
Ġdra w
Ġaf raid
Ġp aper
ac y
a el
Ġrun ning
Ġs ister
Ġed uc
ĠThe n
H is
Er m
O M
S ee
Ġte levision
oo se
Ġvill age
Ġt it
Ġm ount
ĠSt ate
land s
ill s
Ġhow ever
Ġlong er
Ġpres ident
ro g
Ġab ove
Ġst ar
le x
b ers
I C
Ġ ]
it ary
Ġser ved
osp ital
ĠD on
iv il
ĠAmer ica
Ġr an
Ġte chn
Ġthem selves
Ġty pe
ir m
Ġkid s
Ġc old
I T
Ġex actly
l in
Ġde ep
ar th
amp ions
st it
ĠC oll
Ġcon ne
ener al
Ġinv est
ĠInd ian
Ġc ross
al t
Ġf air
Ġcle an
Ġ vers
Ġr ul
Ġhur t
ir t
il ar
Ġreg ion
Ġc ry
Ġc os
Ġ2 4
Ġplay er
ĠE x
Ġpos ition
Ġsupp osed
ĠS chool
f fe
Ġsh ot
Ġ201 3
Ġl a
Ġwh ate
pt ion
Ġinclud e
Ġg en
Ġwhate ver
Ġseem ed
Ġf ast
Ġtr ouble
ĠP ol
Ġ 0
ĠH ouse
av id
Ġar ri
vious ly
T ake
ĠC ap
Ġtr uth
ĠW ell
Ġl ed
Ġton ight
Ġneed s
A r
W ait
Ġser ious
Ġf ut
w ho
Ġse x
Ġ201 8
Ġvide o
Ġa ff
C l
ĠQ ue
Ġb irth
i ally
Ġcap ital
Ġin fl
ol ution
Ġdire ct
ubl ic
Ġpop ular
Ġl im
ent le
Ġsh oot
Ġpri v
Ġac cept
Ġdepart ment
O W
Ġc at
Ġw ood
Ġ201 4
Ġwait ing
i ol
Ġl ab
ct ure
ĠHow ever
Ġent ire
Ġp ort
Ġbl ue
Ġfor get
am m
ĠM e
th is
Ġli k
Ġd ue
r or
j oy
L ike
Ġit self
Ġinst ead
ĠT o
om b
ĠM y
Ġke pt
if orn
Ġfin ished
Ġc reat
pl oy
Ġp en
Ġsome body
ro y
o ff
ĠM ich
u z
re g
te en
Thank s
Ġb ank
Ġtou ch
Ġl uck
ĠS ec
Ġproblem s
fe rence
Ġ201 7
ĠLea gue
Ġse ll
Ġt ree
Ġst ri
Ġt reat
Ġsp ace
ru g
ĠS y
Ġpro ject
Ġe conom
Ġ201 5
ĠGerm any
Ġparent s
Ġc ult
Ġres pect
C H
Ġboy s
ĠR uss
ĠE l
iforn ia
Ġsec ret
and er
r an
ress ion
er gy
ĠThe se
Ġv ol
Ġes c
Ġhe alth
Ġcount ries
b it
r ay
Ġdec ided
Ġd i
Ġare n
Ġ201 1
Ġcour t
Ġsu gg
l ine
Ġsugg est
Ġh uh
is c
Ġpie ce
Ġre se
T ell
e v
Ġdo ctor
Ġper haps
Ġn orm
he l
Ġcr it
Ġm ist
iv al
Ġcar ry
Ġstra ight
Ġ201 2
Ġ( "
Ġfam ous
S orry
Ġdiffic ult
ĠP arty
Ġfin al
Ġrec ogn
ĠN ot
c ause
Ġn ine
in al
Ġim ag
at ter
Ġex ist
Ġspec ies
Ġse at
Ġgr ad
dd en
i us
G H
ci ety
Ġ20 2
Ġfut ure
Ġ z
Ġt akes
ĠL ord
ol ute
Ġan g
Ġtr ack
Ġsur pr
ag er
Ġpr ison
Ġph ot
Ġmunicip ality
it or
Ġhor se
Ġp le
Ġs us
Ġevery body
Ġpict ure
s p
v al
Ġty p
w as
ĠS m
ill y
Ġsa fe
ĠGo vern
Ġf ly
Ġweek s
ĠCal ifornia
Ġe ye
a f
Ġgirl s
Ġlear n
Ġtr ust
em pt
Ġf ix
Ġ2 1
y le
Ġc ook
Ġeng ine
im ate
Ġfeel ing
ow ers
Ġso cial
Ġro le
Ġsu dden
op s
Ġbook s
Ġany way
ĠS ome
Ġco ver
Ġsp ir
pe cially
Ġp hys
Ġe p
Ġlet ter
Ġl ady
Ġfur ther
Ġne g
Ġeven ing
Ġex cept
Ġper fect
Ġ1 00
U S
Ġad m
Ġv ict
Ġu m
ud d
itt ed
am er
Ġwor th
b or
Ġd ro
k y
re l
Ġn on
Ġprot ect
Ġmeet ing
Ġm ult
Ġcomp ut
ĠP ark
W ill
U n
o es
k en
H i
ampions hip
Ġop ened
St op
re y
Ġp ot
ĠR oman
Ġam ount
se e
Ġpolit ical
Ġm outh
ist en
Ġ20 20
Ġfig ure
raz y
Ġc ast
um e
ĠE m
ce ed
ĠT om
iv id
1 5
" )
Ġpubl ished
ir gin
om es
Ġf ear
as hing
he m
Ġob ject
ĠO F
ĠS an
ri age
Ġrel ig
Ġd oub
Ġtot al
Ġme m
The se
Ġm ass
Ġhapp ens
Ġc orn
Ġear th
Ġsh it
Ġc ell
Ġact iv
Ġgo d
Ġme ant
ĠD ist
Ġr ing
Ġsa ve
Ġan t
Ġg ames
Ġd anger
Ġpass ed
O K
Ġa ut
Ġri ver
ĠPh il
Ġfun ny
Ġc ensus
ĠS u
Ġest ab
Ġpol ic
Ġtell ing
p ing
Ġc ause
Ġen ergy
ĠH igh
Ġt ax
Ġa in
Ġfe at
Ġ2 3
t ime
Ġreturn ed
Ġcir c
Ã ¡
Ġloc ated
ĠS er
ĠE ast
Ġacc ount
ain ing
Ġch urch
A L
Ġj ud
le ct
l a
ĠGeor ge
1 7
1 2
b our
Ġm iddle
re me
M ar
Ġl ad
ĠM ary
Ġa head
ans as
Ġfor ce
Ġsim ilar
Ġsl ow
im ent
N D
i ers
Ġh ost
Ġdo ll
ĠG l
Ġorigin al
ur b
ĠCh ar
Ġter ri
Ġ ident
ĠR iver
Ġrel ation
is hing
Ġstud ents
med i
ad es
Ġann oun
Ġcom b
| |
ĠWill iam
Ġ *
ĠM ed
il ed
ĠInd ia
Ġpart s
Ġfuck ing
ĠP er
Ġm atch
Ġspe nd
M e
Ġst ick
Ġ200 6
Ġh op
Ġh ang
Ġm ater
o ly
Ġ ``
Ġse par
ra ft
Ġse lf
Ġprodu ct
Ġh ospital
is es
Ġn in
Ġst at
Ġen joy
Ġ2 2
Ġcl ot
Ġpolit ician
D e
Ġc ool
Ġv iol
os ing
re ed
Ġpl aces
Ġg reen
Ġwh om
ort hern
Ġd a
E T
Ġso ft
ri ll
Ġfam il
1 4
ĠJ ames
Ġm ad
Ġ âĢĺ
Ġde g
Ġwho se
Ġbegin ning
Ġf ill
Ġdis app
c ast
Ġfollow ed
u ge
! âĢĿ
min ist
A M
ĠC or
Ġne cess
Ġresp ons
Ġal right
Ġcomm unity
Ġin n
Ġf em
Ġsub ject
Ġint rodu
Ġg entle
Ġne igh
Ġs ick
Ġteac her
Ġfor ward
ri an
Ġ ide
Ġst ood
Ġc razy
oy al
om ing
Ġquick ly
Ġlea ving
am s
Ġher self
Ġ200 8
Ġh oney
Ġf ac
Ġb ill
ens ive
Ġto wards
p ut
ĠG eneral
Ġm ach
ag o
Ġ ver
Ġ `
Ġsupp ose
Ã ¼
Ġmod ern
Re ally
Ġinterest ing
F rom
ĠM ark
Ġf ish
ing er
ĠI I
Ġapp eared
ĠP aul
c her
Ġcl aim
Ġbe at
ce ll
2 00
Ġind ust
ĠJ e
i res
Ġg iving
Ġb ene
Ġbel ong
Ġb ag
out hern
Ġmark et
Ġinfl u
Ġ200 7
ĠDist rict
ell ow
ĠG ood
ĠM us
ĠP eter
p ly
Ġl augh
Ġm is
Ġsh ut
Ġthr ow
Ġ2 6
ĠG reat
ra ve
Ġpe ace
Ġch air
Ġvar ious
Ġis land
Ġdri ve
Ġw est
Ġmov ing
Ġar ch
ber t
Ġb urn
Ġlar gest
er ve
Ġin f
ĠMin ister
5 0
h ood
is k
ition al
Ġob s
Ġnat ural
v iron
ru ction
Ġprofess ional
Ġc atch
Ġst ore
G ive
ab ility
ĠW hy
ĠM on
Ġcons ider
Ġm ention
Ġear li
ĠL ou
r ican
Ġst age
Ġr ace
in n
Ġre ached
Ġstud y
Ġqu iet
Ġconc ern
V E
ĠĠĠĠ Ġ
Ġcol or
B y
j ust
il es
Ġfl oor
T ER
Ġp ark
T r
Ġanim als
w ood
Ġh ar
. ,
ut y
ort s
st r
Ġway s
E ven
he t
in ite
ic o
Ġf arm
h od
Ġs itting
Ġyour s
Ġp erm
Ġp aid
Ġsit uation
v ille
ĠC o
1 6
Ġqu ar
Ġc and
Ġ et
Ġsim ple
Ġcertain ly
et t
ĠD em
Ġj ump
Ġtra vel
A Y
Ġjo ined
Ġ200 9
in ary
A P
Ġ )
Ġl ose
ĠC up
ĠIt s
ar i
Ġd rug
Ġa part
Ġmil es
Ġb reat
Ġe ast
ĠC ouncil
Ġele ction
in y
Ġquest ions
n ight
Ġ ice
Ġinclud ed
Ġr ail
f ield
ĠB y
Ġm id
Ġde cl
Ġsur v
Ġp al
Ġpoint s
ĠG ree
d id
Ġequ al
es us
c ul
Ġvis it
f ace
Ġmil itary
ĠN e
B l
ĠA re
ist ic
ĠSt e
Ġke y
Ġ #
Ġe mb
Ġapp oint
ĠW ith
ĠR ich
oll y
in ing
Ġterm s
Ġallow ed
id a
il s
ci ous
ĠE n
g ar
if f
Ġoffic ial
Ġexper ience
P e
Ġp ack
ĠD ep
m ing
ĠI N
wh ich
ĠC r
Ġpl ant
Ġneed ed
re r
ĠS ch
Ġinvol ved
ĠSt reet
Ġmater ial
3 0
d ing
g u
ĠQ u
ĠB o
ĠV irgin
Ġfin ally
Ġind ivid
b l
y a
Ġst reet
Ġany more
Ġh ung
Ġe gg
Ġdin ner
en ces
ĠBl ack
ĠColl ege
ock ed
eng th
sh ire
Ġw ide
Ġs ad
Ġbu ll
ĠS en
ĠH en
Ġro ll
Ġn et
f riend
o id
an ish
pp er
O T
Ġfav or
Ġprodu ced
ĠR ed
Ġal ive
Ġshow s
it es
Ġ x
ur ity
ĠB ro
ra v
ĠJ ust
viron ment
a ven
olute ly
Ġen c
an ch
Ġbro ad
Ġli e
Ġact ion
Ġem ploy
Ġde pend
Ġstr ange
Ġsp ent
Ġgl ad
Ġ5 0
Ġdest roy
N e
S omet
ear s
ĠUn ion
en a
Ġes pecially
I D
Ġb ase
ist ory
Ġf und
Ġbo ard
ĠR eg
k n
Ġb ought
Ġatt empt
Ġcoll ege
A C
Ġp ers
Ġde l
Ġgl ass
Ġc ivil
Ġnum bers
Ġ2 8
Not hing
Ġwind ow
ĠA nt
Ġ2 7
Ġwr iting
AN D
Ġdevelop ment
u el
op h
ĠJapan ese
Ġd ress
Ġcon v
Ġper cent
A D
Ġs our
Ġadd ed
k i
L isten
Ġref er
Ġsh op
anc y
c use
Ġpr im
res h
Ġdisc uss
Ġc ried
v an
ĠW ho
Ġh ate
Ġsee ing
ib ility
Ġany body
Ġstop ped
b ye
as ons
Ġn ature
v iew
Wh ich
Ġw at
O ur
l s
Ġbo at
Ġval ue
n es
il ing
ĠM ad
Ġcomp an
ĠFr ank
ĠM or
r is
if y
Ġh ous
it ude
Ġbe ar
ĠC omp
Ġ19 0
Ġl o
Ġf ool
G od
as ing
Ġre du
f act
Ġc y
ĠE arth
Ġpur p
ĠT V
Ġim medi
ed y
Ġd ate
up id
ĠP al
Ġ20 00
ĠTh ank
Ġg ives
ric a
ograp hy
Ġsum mer
h ouse
Ġcon side
Ġconside red
f it
Ġk iss
ĠA ir
Ġtit le
Ġl iter
Ġc aught
er ry
Ġsome where
Ġhist or
Ġpriv ate
Ġcomm une
ol ic
Ġs cience
inc ip
Ġar my
Ġfor t
Ġa ud
ĠD avid
Ġr id
Ġm ix
u x
Ġd ance
ard en
Ġb ud
ĠCh urch
ograp h
.. ..
Ġal though
Ġperson al
B r
in cess
Ġeduc ation
Ġw ild
d on
Ġcomm and
Ġs ize
Ġform ed
it zer
soci ation
Ġa ver
in ct
1 3
ober t
b ack
Ġare as
P ro
ĠS am
ound ed
ĠQue en
W ould
Ġcoll ect
ĠC our
Ġc ard
H er
Ġn ames
ĠAn ge
sy ch
i que
ĠEurope an
A b
ĠC he
ĠP ort
Ġs al
ter day
Ġcont ract
ust om
ĠL et
Ġspir it
om as
ines e
ĠCh ina
ict ion
Ġask ing
Ġpre p
ive ly
ĠT ur
Ġdiffe rence
Ġcomplete ly
Ġav ail
Â ´
Ġdis e
Ġr ain
Ġg rew
T wo
Ġw arm
g ing
y r
Ġwe ar
Ġlead er
Ġar r
we red
G r
S ure
ĠJ im
m as
gr ound
Ġrelation ship
Ġchar ge
ĠA g
ĠHe y
ĠL a
Ġcl os
Ġannoun ced
Ġsh are
ra w
ĠN ow
Ġbott om
w ise
no on
Ġrad io
g ress
ĠL aw
at ors
ĠP ri
p en
id ay
bo ard
ail s
Ġbro ke
J ohn
h i
u nder
Ġv ot
ashing ton
Ġ2 9
Ġ :
Ġhig her
P l
Ġp ounds
Ġfound ed
Ġa ward
ock s
T HE
Ġdo c
ant ly
Ġinde pend
Ġimp ro
Ġstand ing
Ġcaus ed
he st
Ġre act
Ġf oc
ĠC ong
Ġarm s
olog ical
est s
ri a
ĠB er
Do es
Ġatt ention
e ction
Ġnear ly
ch ie
s et
Ġs ite
Ġb ow
Q u
Ġf le
Ġmod el
Ġdoub t
h is
le br
ĠO kay
Ġrese arch
Ġh at
pl ay
led ge
p ro
Ġs cient
Ġd rop
se c
Ġim m
Ġl ength
k a
et her
Ġhelp ed
Ġev idence
Ġinde ed
w est
ĠK h
re ct
V ery
al y
us ion
ĠM ex
Ġs oul
ĠS ir
st on
Ġext ra
ĠAustral ia
1 1
Ġcontin ued
ĠJ o
Ġhe avy
Ġt our
om en
at ives
F r
c ing
ĠH all
Ġsim ply
Ġg as
Ġmean ing
Ġvers ion
os ition
Ġsu ff
Ġs ens
ĠA c
Ġ Â
ĠI ll
Ġro b
ĠPro v
w in
Ġar rest
Ġdad dy
ĠJ ew
Ġthank s
Ġse arch
ĠChrist ian
U m
Ġd ata
ak er
Ġclot hes
ĠVirgin ia
Ġe ff
Ġtrain ing
ic le
Ġno vel
Ġdem and
Ġcomput er
S p
u ke
ĠMich ael
Ġb attle
as ion
Ġact or
n ers
Ġtem per
Ġth irty
Ġ200 5
ah a
P er
Ã Ń
anc ed
Ġmar riage
b urg
i j
a ud
ber g
Ġtalk ed
Ġmar ry
a ign
Ġin it
ent ial
ĠM al
Ġfore st
Ġestab l
ed s
Ġgroup s
Ġman age
ous ly
te red
h ab
Ġdire ctor
ain e
av es
ast ic
Ġsong s
b on
Ġex ec
Ġcap t
ĠRep ublic
Ġmur der
ab les
Ġc up
ĠIn ternational
Ġshould n
a res
Ġserv ices
Ġearli er
ord er
Ġans wered
ant ic
Ġcar ried
ic ed
Ġt end
Ġch ief
Ġte xt
se qu
Ġwatch ing
ĠB el
Ġ18 6
Ġwonder ful
Ġd ig
itzer land
ĠP at
Ġr out
Ġche m
ĠN or
Ġwe l
Ġst upid
Ġopp ort
n s
Ġplay s
Ġde b
ĠIs land
Ġass ist
Ġt ea
ar ies
Ġcl osed
as c
Ġco ast
ĠDem ocr
ĠO ly
Ġacc ident
Ġmult ip
U T
w r
Ġl ower
ĠF rom
m hm
ĠCh ampionship
t r
ren g
ĠItal ian
M an
ĠCap tain
se y
all ey
ord s
ĠD ad
Ġar g
Ġ4 0
Ġchang es
g l
Ġpr ay
Ġin ternational
ĠK ansas
Ġinterest ed
ĠW here
Ġwere n
Ġl oved
Ġen vironment
Ġreg ular
y ear
ĠA ward
Ġbl ow
im s
S E
Ġm aster
Ġre ach
Ġstart ing
Ġafter noon
el ve
Ġd en
ĠGr and
ce an
in i
Ġele cted
Ġnorm al
Ġs ight
Ġocc ur
Ġs ounds
Ġc ant
Ġfell ow
Ġwe ap
Ġr ich
Ġoff er
Ġin j
ib ly
Ġw ed
ĠSw itzerland
ĠC ome
Ġbro ken
Ġu nd
id s
Ġr ate
Ġacc ess
ĠCan ada
Ġth reat
ĠAf rica
app y
il ities
ast e
Ġ200 4
Ġshow ed
Ġprom ise
s u
am n
ĠS al
k ing
Ġch oice
Ġl ines
ĠA lex
ĠR es
ens ion
Ġdet erm
ap ers
ĠI T
itt ee
Ġst ars
Ġbel ow
Ġavail able
h old
Ġst ates
ĠCh inese
_ ,
ro ll
Ġschool s
Ġad minist
Ġcre ate
e ep
Ġep is
; &
ific ation
h ib
Ġf it
Ġtr ade
Ġexpl ain
Ġ18 9
ĠW ashington
cc ording
rie f
Ġoffic er
Ġlear ned
ĠPar is
Ġfun ction
Ġb i
Ġp ath
ĠR ob
ĠO f
Ġmove ment
Ġaver age
Ġf at
ĠHen ry
Ġdevelop ed
Ġs and
Ġce lebr
ar ily
ose ph
Ġhappen ing
Pe ople
Ġa p
ĠT ex
Ġev ents
Ġend ed
Ġprodu ction
Ġh uge
D r
Ġhe ro
ĠL i
Ã ¶
. '
Ġb ur
ĠM art
Ġmov ies
Ġtre es
Ġfin ish
Ġdire cted
Ex cuse
Ġc red
Ġdist ance
ĠItal y
c hen
Ġsudden ly
S T
ĠA ct
ĠM ount
li ament
b ing
Ġmet hod
Ġst yle
ĠP et
us hed
Ġdec ision
Ġc ases
ĠM ac
Ġyes terday
R O
Ġt ired
e ch
Ġpr incip
ĠS um
Ġso ciety
ap t
ĠS l
Ġ199 0
Ġright s
ip s
Ġ18 8
Ġreg ard
ut s
ĠYou r
Ġput ting
ol f
ĠOly mp
b es
ffe e
Ġde li
Ġst ories
ĠM ag
Ġ( )
az ing
ra g
S c
ĠFl or
e es
Ġbr ain
ate g
ap ed
W as
Ã ³
em s
Ġsp read
Ġse vent
use um
ick s
ĠD uring
ap h
t t
or ing
ac ing
A m
Ġp un
Ġsc ared
F irst
Ġr ide
Ġag ree
qu es
ĠAr my
Ġfif ty
ĠO K
ĠK ore
ĠWh ite
Ġr u
Ġcent er
er ved
i ation
Ġst reng
Ġsc ene
Ġh ol
Ġpr ice
w are
w hy
Ġl ying
Ġlike ly
at ory
Ġsign ed
Ġanim al
Ġra ised
ourn al
z a
Ã ¨
ĠM il
ĠB en
er c
Ġco ffee
ur t
Ġcall ing
Ġf irm
Ġestabl ished
d en
oss ible
Ġset tle
C on
Ġst orm
kn own
S ir
Ġwor se
Ġh arm
ĠD an
Ġcon du
Ġpl us
ĠChar les
ch an
Ġmom my
Ġcorn er
Ġh un
Ġne ck
ĠFr anc
ar n
Ġn or
per or
ut ch
od ay
ov es
Ġfamil ies
ĠO N
ĠR oad
Ġimmedi ately
Ġp sych
Ġfa ith
i ar
Ġsing er
Ġinvest ig
S e
ĠB ay
Ġjo in
Ġsqu are
Ġbus y
Ġhon est
Ġcamp aign
um ents
Ġcare ful
k et
ĠPr ince
h ad
Ġcontin ue
Ġnet work
ĠCour t
ĠTex as
y er
Ġof fe
Ġsu it
Ġlove ly
Ġb right
H istory
Ġcom fort
Ġs now
Ġl oss
ors es
ĠS un
Ġcan cer
ĠO ld
Ġset t
Ġfour th
inite ly
Ġnecess ary
I R
Ġmess age
Ġd ouble
Ġmost ly
Ġb es
Ġl og
Ġdist ribut
Ä ģ
Ġl if
ot a
ol s
om s
Ġv ac
Ġsuccess ful
ent al
ul f
Ġno body
ict or
Ġbirth day
ER E
Ġr ule
Ġspec ific
Ġb ath
iz ing
Ġt all
Ġrul es
ĠS T
Ġc ab
ol k
Ġag ed
Ġpract ice
B C
Ġthe ory
Ġre n
Ġbelie ved
Ġpurp ose
D ad
Ġspe ed
m on
Ġc ities
Ġr ank
Ġsp oke
Ġadd ress
on a
g en
Ġdisc overed
Ġfa ult
ru pt
c raft
Ġfor ces
Ġbird s
Ġarri ved
C he
Ġa chie
i ot
Ġc ustom
ick et
Ġpie ces
Ġint ell
ĠG reen
Ġo il
Ġa ffect
ĠA ND
Ġk ick
Ġthrough out
g a
ĠB E
Ġsh own
ĠSc ott
k in
it ation
Ġd ry
Ġp age
ru it
ĠKing dom
Ġmount ain
Ġre b
ĠBr own
Ġe mer
Ġterri ble
ad emy
ĠR oyal
Ġdise ase
I M
Ġc ode
ic ro
ight s
Ġiss ue
ic ago
Ġthere fore
Ġform ula
ol a
Ġpress ure
ac hing
Ġ200 1
anc ing
Ġcont act
Ġpolic y
L D
Ġplay ers
Ġgo al
Ġread ing
Ġmil k
i ents
ar ling
ĠĠĠĠ ĠĠ
On ly
it a
ĠAr t
Ġimag ine
se mb
Ġide as
k m
ĠSm ith
y ond
Ġinclud es
Ġw it
ĠS at
Ġob viously
Ġc ow
Ġspeak ing
eder al
i ant
it ar
Ġmed ic
Ġst aff
ĠSec ret
Ġang ry
Ġmach ine
4 0
et ic
Ġ202 2
Ġen emy
ino is
Ġ ir
Ġst one
Ġcl im
Ġsl ight
Ġm um
ri g
Ġfem ale
Ġy ellow
y l
Ġc amer
Ġh all
Ġr ange
Ġlea ves
f ast
Ġsp ot
ar p
Ġtell s
Ġteam s
Ġp red
Ġn one
al a
ve re
Ġ200 3
Ġ ..
U N
Ġold er
le cted
ri al
ill a
Ġs ac
om a
ĠAr ab
Ġ198 0
Ġgrad u
Ġatt ract
Ġacc ording
ĠLou is
is ions
ĠS im
os es
h and
Ġc overed
Ġm or
Ġbe ll
Ġfight ing
l am
Ġre pe
Ġcurrent ly
Ġdescri bed
U R
Ġt ro
al ed
Ġe ating
Ġr isk
Ġlet ters
ĠSp anish
ut en
Ġent ered
Ġlik ed
Ġc oun
W E
ĠC ath
ĠW il
ĠM a
Ġknow ledge
Ġfe ed
Ġop in
Ġstud ent
Ġw a
Ġcomp l
Ġrev iew
ĠRuss ian
Ġsign ific
w ould
Ġp et
Ġtw ice
Ġsur face
ĠSc ot
ĠE r
Ġpos itive
ore s
pp ing
Ġwel come
Ġ ut
Ġfor ty
Ġext reme
ver t
Ġdeg ree
ĠFlor ida
v a
iver se
Ġg e
ist ed
our s
Ġpl aced
Ġv ote
ign ed
Ġcap tain
Ġ ought
Ġsp l
Ġsk in
Ġlot s
ent h
oo p
Ġprov ince
Ġcr ow
Ġhig hest
ĠS ing
Ġpr int
av ing
ann el
re es
Ġhold ing
ad ian
ĠCar ol
Ġdanger ous
n ie
Ġre lease
Ġsur r
Ġ 00
it z
l or
Ġnews p
m ark
it iz
ub e
I GH
Ġpartic ip
ar ly
Ġ200 2
N A
Ġac qu
m s
ro l
Ġbe yond
Ġdire ction
ĠCent ral
en ny
iet y
Ġcompet ition
ĠR obert
ĠRich ard
Ġg ar
Ġelect ric
all ed
ĠCh arl
p ir
art ment
A K
E n
Ġ ess
Ġf resh
ĠJ esus
Ġcent ral
Ġopen ing
Ġrecord ed
ĠD el
Ġl ink
Ġsm ell
Ġocc up
on el
Ġhe y
ĠS ar
ĠG old
as tern
Ġsystem s
ro ad
Ġk it
Ġus es
Ġ18 7
G u
ĠE mp
Ġcall s
Ġde but
A d
Ġun cle
Ġprom ot
ĠM ont
be cause
ĠCong ress
stit ute
Ġcon vers
od es
Ġwalk ing
Ġconst it
ĠProv ince
ph one
Ġcond ition
Ġwr iter
Ġcomm un
ĠB oy
Ġ197 0
ve ll
Ġindivid ual
ĠIll inois
gy pt
Ġc ru
um ber
el ess
A LL
Ġch all
Ġhas n
C ould
Ġh ide
Ġabs olutely
Ġsec urity
Ġt ar
Ġas soci
ĠH ill
Ġbr idge
ĠSu per
Ġg arden
ĠD es
os h
r am
19 9
Ġn omin
st e
Ġt aught
Ġs le
Ġbrother s
Ġdro pped
Ġ Ã
Ġb le
est ival
Ġtw elve
o om
Ġt ail
ian ce
ĠI r
Ġwe ight
Ġcar s
ĠL at
Ġun iversity
Ġem ot
Ġth us
ĠM any
ant a
H el
Ġch oose
ian o
Ġqu al
Ġun c
Ġexpect ed
ott en
Ġrem ain
L A
m ar
Ġmiss ing
Ġl oad
Ġdes p
ĠCh icago
Ġh orses
Ġsmall er
A mer
Ġadd ition
Ġd er
2 5
Ġmed ia
Al right
ĠAf rican
ĠAs sociation
Ġdesign ed
Ġwed ding
Ġy e
Ġre ve
Ġsp ell
ĠTh omas
ĠPe ople
Ġesc ape
ann ed
Ġin tern
ash ion
idd en
S ince
ĠB ob
ĠF in
d own
ĠJ er
Ġph il
Ġbre ad
ĠC a
Ġwe ak
Ġ3 1
Ġrem ained
L e
Ġcr ime
Ġeas ily
Ġperform ance
Ġwalk ed
B ye
Ġco ach
Ġmiss ion
ĠD ay
Ġleg s
and a
Ġpain t
ĠCh ief
Ġb oss
Ġch ick
ist ry
Ġsk y
Î ¿
ut ive
Ġcent re
Ġprov ide
Ġgrow ing
W ow
Ġnot ice
Ġdoll ars
Ġappoint ed
8 0
w hen
ĠD iv
ĠR ail
Ġmed ical
P ut
Ġfor ced
Ġno se
h ave
Ġrem ark
Ġsw im
fess or
Ġcompan ies
Ġlead ing
ĠO x
Ġ196 0
Ġyou th
Ġmist ake
Ġin vent
ic les
ab or
Ġany where
ĠChrist mas
ĠB ur
ro at
Ġship s
g ood
Ġevent ually
Ġlar ger
Ġposs ess
ĠGree k
Ġform s
Ġcrit ic
Ġb ound
ĠW estern
Ġtr uck
N ew
az ine
Ġcomm unic
Ġfre qu
f rom
Ġo x
st airs
Ġdis p
ĠGovern ment
Ġwin ter
Ġfoc us
ĠM et
Ġsp ring
Ġbig ger
Ġm ir
Ġpo et
u it
Ġs ides
the n
Ġreport ed
Ġstud ied
Th ose
Ġhous es
h ost
tain ed
Ġan cient
Ġgener ally
ĠM ost
Ġindust ry
Ġbig gest
Ġdefe nd
ĠR ec
ĠF irst
pt y
Ġ âĢĶ
Ġo pt
Ġproper ty
Ġiss ues
F uck
is l
Ġstreng th
Ġch ap
V ER
ĠS und
ĠJ oe
Ġrel ated
Ġincre ase
ĠT own
Ġsold iers
ast y
Ġbas ket
Ġblood y
Every thing
u pp
Ġm oon
Ġopport unity
z en
Ġ rom
au g
Ġtri p
ani el
I ON
Ġpower ful
ĠB ill
Ġte ach
Ġact ress
Ġter rit
ul ations
is ters
Ġp ush
igh s
Ġparticular ly
Ġfl at
Ġtyp es
O oh
6 0
Ġs en
Ġro se
as ant
Ġv an
K eep
Ġs ch
Ġn orthern
ag n
Ġcant on
N ever
ro s
ĠM at
Ġrun s
Ġhon or
G ot
ic ated
et te
Ġpr ote
z y
ist an
Ġorigin ally
ĠS and
ig g
uten ant
it an
ĠC arl
Ġkind s
ĠAc ademy
ic ans
Ġun less
Ġmem ory
Ġlead ers
ĠSp ain
Ġdiv ided
Ġcomp let
A ct
Ġmention ed
g n
Ġcor rect
Ġag reed
ar ry
Ġw ine
Ġn ation
ag ing
Ġcand id
Ġf rog
le ction
ĠL ee
ĠJ ul
ĠE gypt
m es
is co
Ġpl ans
ck et
Ġbl ock
Ġpre c
oot ball
I F
Ġbe g
Ġnot e
Ġsour ce
Ġpl ants
ĠCan adian
Ġr ough
ĠGovern or
Ġwor ried
ck s
Ġstud io
Ġhe at
Ġsa ved
ĠV ictor
r ough
-- --
Ġ iron
be red
Ġpr oud
oc ol
Ġfeat ures
Ġquar ter
Ġsat is
ĠI S
ĠS erv
ĠA pp
Ġpre vious
P r
ĠM er
Ġbec oming
ar row
ce nd
Ġse ction
Ġent er
ĠL os
Ġart ist
Ġwe aring
Ġst re
Ġsh ape
Ġbec omes
ĠHe re
Ġrepl aced
ĠC om
ĠC le
Ġpl at
Ġp an
ve y
ĠSecret ary
Ġsc reen
Ġcharac ters
Ġfor th
Ġgreat er
Ġdri ving
Ġarch ite
Ġthink s
on ed
ĠP ac
Ġaw are
Ġs outhern
Ġcond itions
ĠB u
Ġimp ossible
Ġam b
Ġspe ech
Ġpict ures
l aw
ct ors
ul ous
Ġcom mer
Ġex am
E L
Ġm ut
Ġact ing
an cial
ĠW al
ist ics
Ġrelig ious
Ġapp l
ish op
Ġresult s
Ġsus pect
G reat
ch ange
un n
od ies
Ġbeh av
Ġforg ot
Ġ199 9
im ately
ag on
Ġgu ard
Ġdam n
i pe
m it
Ġpr ince
Ġfore ign
Ġjud ge
Ġegg s
Ġtrans l
ĠM ass
Ġbr own
ra el
Ġte eth
Ġcult ure
I nd
g ent
he ast
Ġr ub
Ġstand ard
Ġy a
Ġpick ed
Ġinflu ence
Ġc itiz
ad ed
Ġret ired
o z
ok en
c ies
im in
Ġte le
Ġbas ically
Ġapp re
eal and
at o
Ġl aid
Ġl unch
Y OU
y an
ĠM el
Ġtot ally
Ġ zer
Ġst ream
Ġhot el
, --
P h
Ġbr and
Ġfl owers
R em
en ing
Ġprodu ce
ĠBrit ain
is se
Ġcre w
Ġr ap
Ġstru cture
Ġwe e
Ġgr own
Ġgreat est
Ġcomple x
ĠMex ico
Th ree
wh ile
Ġleg al
Ġp ound
Ġman ager
Ġcomp os
H uh
T e
Ġ199 2
ĠAustral ian
ĠDep artment
s es
ĠAt l
Ġluck y
Ġkit chen
Ġcrow d
Ġp ig
Ġstart s
Ġkill ing
ĠCath olic
Ġres our
Ġperform ed
Ġm m
Ġf inger
av al
r ated
Ġlaw yer
st ood
Ġfail ed
b re
ad o
Ġser ve
ĠDo ctor
Ġsy mb
Ġl ack
ĠC ont
ang ed
Ġinst r
Ġrepl ied
ac hes
Ġplan et
H old
l o
Ġa h
ir ing
D uring
Ġth ou
Ġsa il
Ġatt end
Ġb rief
T om
Ġbl ind
ĠF ather
cl ock
Ġhand le
2 4
Ġpre vent
im a
Ġc ouncil
Ġreal ize
Ġneg ative
Ġdoc ument
d a
Ġfill ed
Ġtar get
Ġsu c
M iss
ĠI ran
Ġsh out
Ġbuild ings
Ġconcern ed
our ney
ĠF ore
Ġact ive
r at
Ġad ult
Ġfl ight
Ġple asure
ĠB est
Ġour selves
is hes
ur ance
Ġli es
ĠR ad
gg ed
ĠZ ealand
b ur
Ġon to
ur day
ond s
Ġteac hing
ĠComp any
Ġm ale
uck y
os en
ĠF red
Ġmain ly
fort un
w ill
ĠH i
Ġam azing
al i
ĠW H
ĠL ittle
ak ed
Ġ18 5
Ġm a
Ġme chan
ou ri
ĠC H
ĠC ons
Ġtrans fer
ĠD utch
um n
ĠDemocr atic
Ġopin ion
en ge
Ġhur ry
or ough
Ġwas te
Ġex cl
Ġdef initely
he red
ant ed
ĠTH AT
Ġdirect ly
Ġslow ly
Ġb al
Ġsurpr ise
ĠAnge les
Ġoffe red
b ook
Ġh ill
ĠS ea
Ġpl ane
are n
Ġad op
Ġsuc ceed
Ġme re
ĠPr ime
Ġtechn ology
Ġr are
' .
Ġdr unk
Ġlisten ing
E C
u an
Ġorgan ization
Ġnin et
Ġh ole
es ar
il i
cept ion
h im
Ġf right
ĠG irl
ig an
i os
Ġdec ide
s m
Ġst ock
Ġinter view
Ġtrans port
Ġj ournal
Ġsepar ate
C os
r ate
ren ces
L ea
c omm
Ġwe ather
Ġdem on
Ġmag n
Ġsm ile
S ay
ĠM om
ĠT wo
Ġprep ared
ĠH ol
ĠP enn
est y
ĠJ oseph
ĠH aw
ĠO ther
k er
Ġstru gg
Ġcal m
Ġsecond s
Ġepis ode
2 3
Ġc a
Ġrem ind
ĠPr incess
ĠOx ford
ourn ament
an o
ĠM ur
ĠH el
are t
uc le
Ġlik es
Ġcont ribut
ul ty
ĠJ ud
Ġgr ass
Ġlea gue
Ġbreat h
ĠC ast
Ġrespons ible
Ġindepend ent
Ġfav our
u ries
Ġre asons
ĠB ell
ab b
res p
Ġmin us
19 7
uz z
Ġwit ness
Ġwe ird
Ġun it
Ġoffic ers
ĠI re
al ys
ur ry
as y
ard on
EN T
Ġt ape
Ġexper ien
O D
ĠD ou
Ġcont r
Ġsm art
M om
Ġd uty
ol ar
Ġcont ent
Ġb omb
ĠM ike
Ġadv ant
Ġcop y
Ġintrodu ced
Ġem pty
Ġpat ient
Ġwill ing
Somet hing
Ġro of
Ġlear ning
O ther
ĠD ire
r s
Ġp air
oc key
ĠEmp ire
W H
ĠT or
v is
Ġturn ing
Ġord ers
p re
ig er
Ġfre ed
L Y
ad ow
Ġ199 8
Ġrecord s
Ġrec ently
Ġn ative
Ġord ered
in ter
Ġhe aven
k ins
Ġ199 4
Ġhung ry
Ġsh oes
or ial
en ced
ĠC at
ĠP an
ĠSt ud
2 7
Ġ ign
is her
ĠH on
ĠM E
os op
Ġpro ve
Ġcont ains
ĠS ov
Ġturn s
Ġ199 6
Ġneigh bor
ious ly
Ġdestroy ed
l im
Ġmag ic
Ġcirc um
Ġb an
as hed
ĠThe ir
arent ly
Ġt al
Ġst uck
ĠSov iet
Ġme asure
ok ing
Ġchem ical
ĠE ll
m ay
im um
Ġjob s
Ġzer o
Ġun its
Is n
Ġhard ly
j a
Ġj oy
ĠCl ub
ĠGeor g
Ġl oud
ĠG et
ĠF er
Ġmiss ed
Ġconst ruction
Ġdog s
Ġbit ch
ĠH y
ĠRuss ia
ĠCl ass
ĠGr oup
T w
j i
ar ian
Ġ199 5
at re
ĠD O
ĠD id
le g
ĠL ake
H a
p ic
oo per
ĠT ri
Ġapp lic
Ġphys ical
Ġmus ical
ab ad
Ġed ge
Ġme as
Ġmet al
ĠTr ans
Ġs ake
Ġto ward
ĠS qu
Ġpre m
semb ly
rop ical
Ġpart ner
ĠIs rael
a ult
ĠPar liament
Ab out
Ġcamer a
ĠK ent
im p
Ġal t
Ġclear ly
Ġsurpr ised
Ġprov ided
Ġtrad itional
Ġbud get
ĠA ng
ĠU K
az z
f ied
Ġw estern
Ġme at
ĠYou ng
Ġhead s
Ġeas ier
Ġdet ect
he art
Ġreal ity
y our
Ġeconom ic
f ather
el come
uri ous
M hm
ĠM ajor
Ġj ack
Ġsing ing
Ġstate ment
Ġtri al
Ġwin ning
Ġbeaut y
Ġhy d
ĠSw ed
Ġ202 1
um an
Ġfin ancial
ct s
ĠCent er
N ice
o ch
Ġbreak fast
ĠB et
Ġkeep ing
Ġin hab
Ġqu ality
Ġmin or
Ġrest aur
b oy
ing u
AN T
Ġsil ver
Ġenc our
Ġman aged
Ġact ual
Ġprom ised
or ter
Ġl ic
ĠF ootball
Ġman u
c ol
r id
ĠW ood
2 1
Ġsa f
Ġfig ures
Ġfavor ite
b ury
u ous
Ġc ash
Ġf ashion
Ġt ight
os ite
Ġrel ative
Ġrelig ion
Ġlad ies
Per haps
ĠSund ay
Ġf ought
ĠR ock
idd ing
s ome
Ġth ick
Ġwor st
Ġinst it
M ost
Ġne ither
Ġposs ibly
Ġsc ore
ĠT w
Ġal tern
Ġfix ed
Ġdra g
Ġtemper ature
ĠScot land
Â ¶
Ġd are
us hing
ian a
Ġ199 7
Ġth rew
ch ing
Ġrem ains
Ġe ld
O k
u a
w ater
Ġf ruit
ĠS ince
Ġfore ver
Ġgentle men
Amer ican
ĠS il
ĠW E
Ġj ourney
ick ed
Ġfind ing
Ġstay ed
l ig
ĠL uc
Ġ6 0
Ġvar i
Be fore
w ing
Ġfly ing
am il
ĠD or
ab eth
Ġsp orts
Ġappear s
Ġb other
Ġpat tern
Ġet c
Ġaward ed
Ġlaw s
Ġlangu ages
Hel p
m i
Ġp il
Ġli br
pl ace
IGH T
A pp
B et
ĠB ecause
ut ions
Ġj u
Ġcom ment
Ġpre fer
Ġhear ing
Ġsleep ing
ĠIre land
ĠA h
Ġev il
Ġoper ation
ĠB ig
stit ution
i pped
ac he
un ny
ĠSt ep
Ġend s
Ġrequ est
Ġcr ack
Ġplan ning
Ġr at
Ġbut ter
Ġwork ers
Ġappre ci
Ġb ab
van ia
ĠDiv ision
Ġmanu fact
Ġstud ies
Ġdream s
i ques
ĠD ar
Ġsc ream
On ce
Ġaut om
Ġcontro ll
Ġl oves
ke ep
ĠIn stitute
ĠV al
Ġloc ation
S m
Ã ¤
Ġb order
Ġst eal
anc he
Ġcomplet ed
og ether
Ġbl ess
ĠWh ile
Ġrepresent ed
Ġp it
um my
Ġass um
Ġwall s
à ¤
Ġwh is
Ġcomp lic
Ġrem em
Ġown ed
Ġcons um
ge l
OM E
Ġt aste
Ġl ock
Ġyoung er
Ġtro ops
Ġt ask
ov ing
raz il
on se
i as
u als
Ġ( ;
amp ion
Ġs illy
ĠO k
Ġsp r
Ġele ment
Ġfeel s
Ġsw ear
Ġve h
Ġra ise
cl es
Ġdrug s
an ing
ĠP ak
Ġpro gress
Ġdiv ision
ĠM ah
Ġsm oke
Ġhum ans
Ġd om
19 8
le ment
ĠS pe
ĠJ ane
ond isse
Ġfl ow
ĠAmer icans
Ġprogram s
Ġprofess or
w an
R I
ĠD ick
ĠR ome
Ġrequ ired
" ?
Ġc art
ing ers
ir a
ĠR ay
ap es
Ġp apers
Ġas leep
ĠSo ciety
t ies
Ġus ual
Ġappear ance
Ġme l
Ġbu ried
Ġd ying
ven ue
Ġsc rew
Ġtreat ment
Ġf al
Ġd rew
ke nd
Ġexp ress
2 9
Ġt im
cell ent
Ġeff ort
z z
Ġl osing
ell y
ict ed
ĠMart in
O ver
Ġ199 3
Ġmot or
Ġp oll
ĠS aint
Ġmag azine
Ġthousand s
Ġch art
ĠSat urday
Ġres ident
sy l
Ġgun s
ĠEm peror
ĠN orthern
An other
2 8
al m
ab out
ubl ican
Ġtra ffic
por ary
h an
Ġm icro
Ġg ro
ĠF ar
Act ually
ad d
Ġcon fl
Ġex hib
ĠSum mer
Ġmultip le
Ġstre ets
Ġse qu
du c
Ġear s
ĠPro fessor
o is
Ġdam age
Ġeconom y
Ġhad n
Ġappro ach
Ġb odies
Ġp urs
ĠD en
Ġno ise
Sh ut
o ices
G E
M any
st ances
ĠW I
ĠO ff
ĠRe v
Ġocc asion
Ġa st
Ġim age
al right
Ġnot iced
ĠT y
Ġadv ance
Ġpl ain
Ġ199 1
ĠCarol ina
Ġconc ent
erv ation
T oday
Ġc ous
Ġaw ful
M ake
Ġw ake
Ġro y
Ġrequ ire
Ġrail way
Ġintell ig
alys is
ĠW omen
Ġproduct s
ell a
Ġnum er
s aid
Ġm aid
Any way
D amn
a is
w orth
ĠSt ar
t wo
am ing
ĠM ore
syl vania
ĠB ang
il a
ĠG O
ou red
ur a
Ġan x
h ar
ĠC amp
Ġshow ing
A g
ĠM aj
Ġgrow th
ĠD is
Ġex erc
Ġ-- &
st ead
ĠM other
Ġopp osite
Ġpal ace
Ġmedic ine
m n
Ġbring ing
Ġaccept ed
Ġbroad cast
we et
ĠL ook
Ġcast le
2 6
ad or
st ra
Ġman ner
aur a
Ġstep s
w ar
es sel
Ġstru ck
k es
ar ge
ce l
em ic
F ine
r ain
ĠL ab
Ġfall ing
Ġcry ing
Ġg ay
Ġag ent
vent ion
Ġant i
Ġimpro ve
f all
Ġde light
ĠL ady
Ġfeel ings
Ġking dom
Ġentire ly
r d
Ġcol on
Ġr ise
c oh
Ġrec ent
Ġpret end
Ġfull y
Ġdrink ing
ĠSen ate
b el
Ġp ure
Ġhelp ing
Ġnewsp aper
j o
Ġr ow
Ġsupp ly
Ġrece ive
Wh ile
ut ed
Ġadv ice
ĠComm ission
Ġd ed
Ġfl u
O ut
Ġ eth
Ġo cean
ĠL ife
qu ar
Ġ198 9
Ġmanage ment
ĠM ax
Ġexc use
Ġpull ed
R A
o ir
ĠJack son
r ick
Ġm ate
am in
Ġab ility
Ġwhe el
ĠCol umb
ust ration
Ġd irty
Ġg all
if orm
Ġrem oved
Ġauthor ity
Ġsaf ety
Ġsp oken
Ġmajor ity
Ġconvers ation
Ġadvant age
ic ide
Ġwe bs
ob al
Mr s
Ġg ift
ĠF ilm
Ġ( ,
v est
ad ium
Ġuse ful
n am
er al
Ġwat ched
Ġcred it
ter ing
ĠB a
Ġmot ion
w estern
ĠR ight
em an
Ġun ion
Ġw et
am ber
ĠF ort
iz abeth
Ġsignific ant
e ed
s pect
... ?
Ġevery where
ĠMus ic
ol es
Ġstri ke
ĠPac ific
Ġbe ach
oo s
Ġco at
Ġbas ic
, ,
ĠM ill
ĠB razil
Ġbill ion
H mm
us es
ĠS ee
Ġrout e
ĠPenn sylvania
ĠS outhern
Ġcon cept
ĠSt an
Ġninet een
v in
ou ch
at i
ur d
Ġpri or
Rem ember
m us
ing ton
Ġre nt
Did n
Ġc ards
ĠL ove
Ġpro f
Ġag re
be y
Ġe h
og er
ĠUn cle
Ġvict ory
Ġt iny
ri ble
ĠM aster
un es
ol ks
Ġcl imate
Ġear n
Ġ195 0
Ġconne cted
Ġm ax
Ġd arling
Ġn ucle
Somet imes
ste in
Ġg host
Ġkn ock
ĠK e
ult ure
Ġdr ama
Every body
Ġm o
St ay
. ]
he ll
Ġaff ord
Ġaud ience
Ġf ired
ac hel
Ġsc ar
Ġpay ing
Every one
ĠMiss ouri
Ġdecl ared
Ġm ole
ĠE very
Ġcl oud
ĠLat in
Ġgu itar
Ġpo cket
Ġmat ters
Ġexp ression
Ġexp ensive
Ġdiv or
C K
Ġd iam
Ġsc r
Ġem p
or a
Ġ8 0
Ġeffect s
Ġb ast
l oad
Ġst ret
th ank
Ġknow ing
uck les
Ġresp onse
Ne xt
Ġo dd
Ġc hat
ĠK im
ost on
ond er
Ġad vent
Ġfif th
p a
Ġro les
Ġbelie f
ie utenant
C ause
Ġpres ence
E P
st one
ail ed
ĠAr ch
Ġspl it
ĠB ank
Ġsc ale
Ġele ments
Ġcre am
Ġarr ange
un a
Ġplat form
. )
b a
i est
O S
Ġincre ased
C all
ar io
ĠI m
ĠM ic
Ġlevel s
Ġu lt
Ġres ist
Ġprodu cer
Ġwee kend
Ġc ro
port s
il ty
ip l
Ġent ertain
S u
ent ed
Ġkeep s
en ger
Ġsc ri
erm an
Ġind ic
E M
c ont
Ã ¢
Ġd yn
Ġli ber
Ġcap ac
Ġshoot ing
ocol ate
r ative
on ic
Ġun iverse
Ġfl o
Ġthought s
S er
b ow
or por
Ġas h
Ġsub s
ĠIs lam
Ġextreme ly
r ant
w a
re al
Ġde lic
Ġ3 5
Ġarrest ed
G e
L ove
ĠH ot
fe ction
Ġcare fully
Ġav oid
ĠJe ff
Ġt ong
ĠB ern
iv ity
Ġconne ction
Ġslight ly
Ġd im
ge ant
ord in
ĠIn ter
Ġphil osop
Ġp urch
Ġse es
Ġup set
Ġce rem
Ġap olog
Ġlim ited
Lea ve
O P
ĠF ox
Ġinv ited
Ġhigh ly
ĠEd ward
Ġg rave
M ore
er a
Ġf ro
ly n
Ġv essel
No body
Ġcir cle
J e
Ġb at
Ġf ant
ĠW AS
ĠJ un
Ġsol ution
Ġcost s
Ġdefe ated
is a
ell ed
ĠV alley
ĠPl ay
Ġf aces
ly ing
ĠH ello
Ġres c
Ġ198 7
ffic ient
Ġbott le
aug hed
i ven
Ġthe e
ĠF OR
Ġcom edy
Ġconfl ict
3 7
c a
Ġp iano
Ġtr ick
Ġbl ank
ĠAs ia
Ġexp and
ct ic
Ġp ra
Ġu ne
Ġmet ers
Ġachie ve
we re
Ġfl ag
ĠRep ublican
ĠW ales
os a
Ġinhab it
ĠA ccording
ĠV en
Ġmin ister
Ġmat ches
Ġd ressed
ĠH E
Ġ198 8
ĠComm ittee
Ġfail ure
Ġinn oc
Ġprim ary
th ur
ĠO s
L a
w ide
Ġt ough
ĠA ss
ĠC am
2 2
Ġf ingers
se ll
Ġbr anch
Ġm ort
Ġli ps
Ġch osen
Ġtra vell
Ġgovern or
Ġpolit ics
Ġcoun ter
v y
in et
Ġu pper
Ġeas tern
ul ated
Ġcell s
is p
Ġg ate
Ġli qu
the m
ĠL and
ond ay
Ġrec omm
y o
âĢ İ
ru ct
Ġche st
Ġclos er
Ġresour ces
ĠG e
Ġnot es
ĠW ind
ĠA N
ish ment
Th ink
Ġpart ies
Ġsett led
4 5
Ġt ur
Ġs li
Ġth in
ic y
ĠA wards
Ġdet ails
Ġchick en
im inal
ac le
ĠH A
Ġter ror
Ġlab or
Ġcommer cial
Ġw id
ar on
cri pt
Ġweap ons
ĠCa esar
Ġroy al
Ġrap id
he y
ell ing
, '
a fter
Ġf urn
Ġsign al
Ġt ournament
en es
ĠL ike
ins on
ĠPort ug
" ).
o very
Ġw ave
Ġn erv
Ġqu ant
aw a
Ġcarry ing
ĠP re
ĠF e
Ġfield s
Ġgentle man
Ġterrit ory
E arly
Ch rist
E l
Ġt ick
Ġcoll ection
Ġfilm s
Ġcitiz ens
Ġsu gar
ĠFor ce
Ġest im
Ġattack ed
Ġmur d
ac her
ol ved
ĠFr iday
Sh it
Ġmain tain
Ġm ap
Ġh omes
ol n
Ġf ederal
ĠPri ze
on ia
Ġl aughed
iz es
Ġfif teen
al ities
ĠL ong
it ors
Ġth y
Ġpl anned
Ġsp ort
ild ren
Ġfl ower
How ever
Ġsw ord
Who a
M AN
ĠR om
Ġafter wards
Ġunder stood
Ġdes ire
ĠDe v
Ġlaugh ing
ed ing
Ġother wise
C ap
J ack
Ġinc ome
Ġlight s
N OW
p ret
Ġst ated
ang ers
Ġexc ited
Ġforg ive
Ġapart ment
Ġarg ument
Ġal coh
Ġdri ver
Ġdistrict s
w ich
Ġsil ence
ak i
aim ed
ĠIr ish
Ġsh ore
Ġab and
Ġpro ceed
m other
Ġpre viously
br idge
Ġpain ting
ĠĠĠĠĠĠĠĠĠĠĠĠĠĠĠĠ ĠĠĠĠĠĠĠĠĠĠĠĠĠĠĠĠ
m ond
Ġf an
ul s
and y
Ġj ail
Ġcal cul
Ġmix ed
ul ate
ack s
Ġweap on
Ġfreed om
Ġm ob
Ġinst ance
Ġ198 6
Ġactiv ities
O L
Ġsh arp
Ġby e
ĠSt r
Ġart ists
. [
er k
ĠB udd
Ġcol our
Ġb are
Ġp leased
Ġk idding
un ched
ach us
Ġcaus es
Ġfair ly
C E
E d
Ġf aster
ow ed
Ġold est
ĠAl an
Ġbas is
ĠH arr
ĠL ater
Ġjo ke
c ar
ot i
ĠE v
Ġactiv ity
B ack
w ick
un s
ĠG ar
ĠL y
Ġun ivers
wr iter
ĠKore a
ow a
ĠAn n
Ġ9 0
Ġ193 0
Ġsuggest ed
Ġdeterm ined
w ers
Ġwe alth
ĠOlymp ics
b ably
or se
ĠC y
ĠM useum
Ġsu ffe
Ġpass ing
eg al
Sh ould
Ġmount ains
ri f
oo ps
Ġk il
Ġsh r
What ever
Ġdra wn
B E
is ation
Ġgu ilty
W elcome
g ency
ĠB as
Ġj un
Ġunderstand ing
ĠJew ish
Ġsome how
oc al
Ġatt ended
ĠAl ab
am my
ĠU nder
ĠLi ber
D avid
ĠG ames
Ġcons ist
Ġmed al
Ġair craft
enn is
Ġa x
st ant
Ġsa v
19 6
C ar
Ġl at
Ġha bit
Ġmat hem
Ġpresent ed
Ġneigh bour
C A
Ġd uck
Ġn arrow
ea u
Ġown er
Ġst ations
ound ing
ĠAr k
Ġinc ident
ich ael
Ġsupport ed
Ġreact ion
ĠH a
um s
ĠR am
Ġsex ual
St ill
Ġ198 5
inc oln
s ay
ad s
Ġpro of
itt y
Ġpass ion
Ġstay ing
Ġed itor
Ġnin ety
d es
Ġs ons
Ġb rave
Ġpl enty
Ġhy p
Ġw ings
Ġc ateg
Ġincre asing
Ġd iss
ĠI II
ist or
Ġinte gr
ver se
Ġve get
et ts
ill ed
Some one
C le
Ġco al
eak ing
ĠY ear
Ġfle w
ĠGeorg ia
m osp
Ġsc ored
Ġgirl friend
ĠAn ne
Ġjo int
I ll
Ġgr ab
ath an
Ġexper iment
Ġstat us
ĠAlab ama
Ġh iding
Ġwond ering
Ġforg otten
ĠT im
ĠT ime
ree k
Ġser ving
Ġreal ized
Ġ198 3
Ġchang ing
Ġprop osed
ang le
Ġvar iety
Ġdeg rees
duc ation
e z
Ġp owers
rop ri
Ġb ub
ĠT er
Ġfe ature
Ġsold ier
Ġappro x
. _
3 5
k o
he im
Ġp ool
ro ke
ĠC ivil
Ġdo ors
Ġjust ice
act ion
Ġcont ain
Ġpre gn
W atch
ur se
ĠG al
Ġperfect ly
n Ã©
Ġs in
Ġs amp
ĠB attle
age ment
Ġgi ant
ĠCon f
Ġrespons ibility
Ġscient ific
ad ing
Ġwas h
Ġ198 4
Ġserious ly
Ġbasket ball
ĠO ut
Ġ198 2
Ġnorm ally
G eor
s ur
Ä ĩ
Ġd omin
Ġd ancing
Ġre form
ri ff
Ġcomm ission
Ġimp act
Ġoccur red
u ce
Ġg ang
ess ion
Ġhelp s
T ry
Ġon line
ur ally
Ġkn ife
ĠL ine
Ġsell ing
Ġ /
Ġt ears
ot ed
am i
Ġdis play
Ġhapp iness
Ġas pect
Ġwind ows
augh s
am ily
Ġv irt
do es
Ġviol ence
achus etts
h in
in ent
Ġd u
Ġn ea
c ons
Ġch ampionship
Ġcontin ues
ĠOh io
Ġsettle ment
A ccording
ĠN at
Ġ197 9
het ic
H urry
e h
ĠJ an
Ġun ique
Ġfollow s
Ġgold en
Ġfal se
p et
Ġpr ime
Ġlist ed
rog en
b ly
Ġun known
stand ing
Ġcomfort able
Ġt ie
Ġg ather
ĠH ave
est ic
T S
Ġb oo
ĠH an
ĠJ ac
Ġgr aph
Ġdraw ing
Ġsuffe red
Ġfall en
Ġrestaur ant
es ides
Ġp ill
ĠS us
Ġear ned
ĠRep resent
Ġf ile
Ġwith d
. âĢĻ
O pen
Ġhang ing
Ġda ily
Ġb unch
st ance
ĠW ay
Ġremem bered
s ure
Ġh idden
Ġgo dd
Ġinst ru
Ġclass es
f ive
g or
ri er
Ġpat ients
Ġtre ated
Ġhell o
ĠFranc isco
C ol
E F
S te
r ical
er ves
ĠA T
olog ist
Ġtrad ition
re ll
Ġsix ty
Ġfamil iar
p oint
Ġbes ide
l N
Ġt ank
Ġsc hed
Ġ7 0
Ġt or
ĠMich igan
Ġvict im
Ġprote ction
on ly
Ġim pl
ĠSec ond
p o
3 3
ĠW all
ĠO l
Ġcons cious
Ġbegin s
Ġfeat ured
Ġnerv ous
U nder
ing ham
ĠM em
Al though
Ġord inary
ĠBer lin
Ġt one
el a
Ġbl ame
Ġconst ant
Ġassoci ated
Ġsen ior
D es
P aul
Ġhon our
ĠServ ice
Ġcon fess
Ġcon sequ
Ġspe ct
Ġfind s
Ġ198 1
Ġelect ron
b les
s l
Ġth roat
Ġch ocolate
ind a
Ġ4 5
Ġset ting
Ġh ook
Ġl atter
Ġis lands
Ġshe ll
Ġtown s
Ġleg isl
J ames
im al
Ġse asons
ell e
ak a
ĠSh ow
Ġent r
US T
Ġteacher s
ĠB us
Ġat e
ĠT imes
Ġa im
Ġp in
ĠB oston
ven ge
Ġcl ient
Ġcont est
E ng
i ber
Ġsh ame
Ġsymb ol
i ac
Ġ ur
Ġd ial
ĠM iddle
Ġnot ed
Ġmy st
Ġapp eal
ĠAr gent
ger y
ĠH u
ĠB re
Ġwr it
for ce
Ġrock s
ge nd
ab bit
Look s
ĠJohn ny
Ġinhabit ants
AP TER
l ong
ĠMass achusetts
Ġcous in
M other
Ġcon ference
Ġcor resp
Ġat h
Ġche ese
r ich
Ġsh irt
Ġref used
al ing
Ġcl ock
Ġkill er
rill iant
P E
R B
Ġn urs
ĠF estival
Ġint ended
Ġ0 1
ĠWil son
Ġinstr ument
Ġins urance
c est
Ġt ied
ĠI nt
ĠB ull
os c
em ies
ĠS ur
ĠJ ones
ĠU p
urb an
F l
ĠB oth
Ġpri est
ĠJe an
Ġl ake
Ġl oose
ĠT ony
rop ol
Ġ197 6
Ġnear by
Ġoffic ially
Ġsee k
ĠTur k
fortun ately
B A
U p
b ar
ĠS ol
ĠĠĠĠ ĠĠĠ
Ġpot ential
Ġrefer red
Ġcapt ured
P eter
ĠF re
ĠE astern
C om
Ġc ig
Ġre ck
Ġun f
Ġpo ison
Ġstr ing
Ġinc red
Ġadd itional
ĠM od
Ġfl ood
Ġat mosp
ĠN ick
Ġup stairs
; /
S ec
Ġmay or
Ġbre aking
ĠJim my
Ġtong ue
9 0
I G
P ol
b ell
Ġl ord
ĠL u
ĠN az
Ġshould er
sh all
arr ass
n ic
is is
Ġhe ight
Ġroom s
ĠDire ctor
Ġqu it
Ġgu est
Ġl ocked
Ġassist ant
Ġc ake
Ġh am
Ġor ange
ĠK ar
ĠK enn
Ġresp ond
Ġdisapp oint
ĠMaj esty
5 00
M ove
S it
e er
Ġse lected
Ġch ain
Ġ5 00
ipp ing
Ġf old
Ġcon qu
Ġtr oub
Ġqu een
Ġ197 8
Ġdisapp eared
Ġlibr ary
er o
Ġch ose
ĠE ven
Ġpo ly
app ing
Ġdeli ver
l ife
us ing
ac ter
Ġex change
Ġun iform
ĠAnd rew
Ġsol ve
Ġcircum stances
e xt
ather ine
Ġ197 3
Ġadm it
1 00
ir al
ep s
Ġcomp ared
Ġapp arently
ĠAs sembly
Ġhe av
ĠT re
ok es
erv ative
Ġgood s
Ġstand s
Ġwin ner
Ġequ ip
Ġsol id
H as
ot te
ĠR ose
Ġret ire
ĠIs lands
Ġtra il
Ġbene fit
F L
al o
os aur
av a
al so
ĠR on
Ġele ven
Ġhouse hold
Ġreport s
Ġsoft ware
Ġp eak
ĠN E
ĠN avy
Ġsuff ering
i h
Ġd ies
ĠM en
os al
Ġ197 5
a ire
end er
Ġl it
all s
ĠW at
Ġch annel
ĠU N
Ġhistor ical
U GH
Ġb oot
Ġ18 0
Ġart icle
ĠCol onel
7 0
u ing
ĠB on
ĠTh ree
Ġrel ax
3 6
ot o
ĠB ook
ĠT em
ĠE ach
Ġpl ate
ĠAl ice
Ġ197 4
ĠSo cial
3 8
M A
g ie
Ġhe l
Ġ196 8
Ġexamp les
i ro
ent ially
if fe
Ġso le
ĠK ong
ĠCh air
Ġrecogn ized
Ġdro ve
" ),
L ast
P res
e f
Ġm useum
st ers
ir k
ĠE st
Ġun us
Ġtrans form
Ġrev olution
a wn
own ed
Ġback ground
hm m
ĠWilliam s
C are
Ġd ust
Ġse vere
the ir
Ġval ues
Ġperm an
Ġscri pt
Ġc ute
ĠM onday
Ġan alysis
ul pt
Ġthem e
Ġhundred s
Ġtem ple
Ġwa ited
ĠLab our
Ġagre ement
' ,
Ġpart ners
ark s
g ment
Ġto wer
Ġtr ains
Ġrecord ing
Ġla unched
Ġexist ence
m iss
un te
nt il
Ġapp le
ĠDe f
ĠL ib
Ġ197 1
Ġsign s
Ġsil ent
K E
o oth
er g
Ġcrit ical
oo f
and om
Ġcomm itted
Ġrecogn ize
Ġf olks
ĠK en
Ġ197 2
Ġoper ations
Ġdem ocr
Ġcommon ly
Ġchall enge
ĠW ork
che stra
Ġestab lish
b ased
ap a
ink ing
Ġproper ly
Ġsevent y
Ġl one
rican e
Ġs ales
ar o
ĠJ r
Ġcandid ate
m et
Ġw ise
Ġh orn
ut her
ĠR aj
Ġacc omp
Ġ196 7
ĠBl ue
ondisse ment
a o
f r
Ġg ain
ĠP L
ĠD uke
ĠV an
Ġcr iminal
3 9
ar ant
ĠP art
ĠIn tern
Ġeng aged
Ġrid ic
Ġbud dy
Ġb orrow
Ġgo als
Ġdec or
ĠA sh
ĠC ross
our se
Ġch ampion
Ġcomm ittee
ing ing
ear ch
Ġid iot
Ġsk ills
al og
ĠH ung
if ying
Ġrem aining
it o
ĠA v
ĠT ai
Ġgood ness
Ġcar bon
ĠBo ard
Ġh om
as p
ĠS cience
Ġad vert
ĠBr other
eal ous
ĠThank s
ra ham
Ġsome what
Ġdist inct
Ġprot est
w ait
ĠN ether
ult ural
Ġboy friend
Ġsurv ive
Ġr ot
ĠL E
Ġshe ep
Ġpre par
Ġgod s
Ġmy th
ER S
bur gh
ĠS ub
Ġsent ence
ĠColumb ia
3 4
c r
im ents
Ġcle ver
ĠStep hen
Ġ18 4
ĠMar g
Ġfr ame
Ġhop ing
Ġdistribut ion
Ġnomin ated
Ġnumer ous
Ġequip ment
I E
d ad
Ġ194 0
Ġd read
Ġp ink
ĠAb out
ĠJer sey
F our
Ġw rest
Ġv ent
Ġtr uly
sh ould
g le
ĠI owa
ĠS H
Ġcomp osed
Ġdescri be
Ġdepend s
Ġp ump
ĠH ome
... "
Ġpro ced
Ġsw itch
ĠHar ry
Ġspend ing
ĠRec ords
J esus
P re
i at
m o
s k
ĠV iet
Ġmov es
Ġele v
Ġsy m
Ġhor rible
Ġinnoc ent
Ġo k
Ġn ut
ang ing
omet imes
Ġprogram me
iz ations
Ġju ice
Ġwe b
Ġstru ct
f le
Ġto ols
ot hy
Ġpl ot
Ġapp ly
ĠAl though
Ġgener ation
ĠEl izabeth
Ġvol ume
ĠOff ice
Â °
Ġf ancy
or gan
Ġme al
Ġemb arrass
quar ters
ĠA p
ĠD aniel
I L
g ly
g ues
l ers
Ġsh ock
Ġbre ast
ĠJohn son
Ġwebs ite
Ġf ate
Ġfriend ly
Ġalcoh ol
p ass
Ġl in
Ġag ric
Ġdes per
bo x
ĠD et
Ġex cellent
Ġbr ings
Ġphot ograph
M ad
Ġm ail
Ġr ac
Ġsp in
Ġ3 6
Sh all
Ġconc er
Ġann ual
Ġhun ting
ĠBe fore
Ġelect ions
eder ation
Ġgradu ated
Ã ±
ĠM id
ĠO ver
por ation
ri z
ĠG all
Ġle gend
Ġthr own
Ġadminist rative
Ġg ained
Ġpro ved
Ġlab el
Ġbase ball
U M
f its
et ch
Ġsub sequ
F ive
g ive
Ġw itch
Ġan cest
Ġlim it
Ġappl ied
F ather
in ity
Ġs alt
Ġsh ared
ĠL incoln
ie ce
B S
at hy
Ġo w
Ġcons ists
Ġeight y
Ġcreat ing
ĠF our
Ġall ows
Ġpr incess
Ġsus pic
i y
ĠS ant
ĠHe alth
ĠU k
aw s
ĠSte ve
Ġadop ted
Ġc as
ay a
Ġex act
Ġdisc over
Ġpain ted
Ġorgan ized
G l
n i
ab el
Ġch arm
Ġimport ance
Ġtou ched
ĠScott ish
E m
U L
ĠS ong
ĠH ong
ok ed
Ġ196 9
Ġ194 5
Ġrepe ated
ag ue
Ġcons ult
ades h
Ġindust rial
Ġemer gency
ĠW ater
ov a
Ġdr am
un ning
Ġen emies
Ġcr isis
Ġac id
Ġconne ct
Ġexec utive
Ġbast ard
c omp
Ġbe er
ust ed
ub a
Ġob vious
ĠTH IS
ĠÂ £
Ġinvestig ation
ĠPak istan
9 9
l ah
Ġmark ed
Ġobject s
an z
Ġg rav
ow ing
pe red
Ġact ions
do or
Ġbelong s
C omm
Ġc urious
id ae
op p
Ġco vers
Ġfall s
Ġappreci ate
ir it
ON E
ĠPol and
Ġmaterial s
p ool
Ġf olk
Ġp ow
ile y
Ġ197 7
C T
om ach
Ġdes cend
Ġclose ly
M us
Å į
Ġal arm
ive red
ĠU h
hes s
ĠBro ok
ĠNether lands
S l
o cc
ge on
Ġeff orts
ĠKore an
T ime
b u
Ġev olution
Fr ank
is er
Ġm ile
Ġ196 4
look ing
ĠCharl ie
Ġd ish
ĠI d
Ġover all
19 5
Ġfact ory
Ġcomplic ated
y p
3 1
Ġt ort
Ġc ock
Ġv ia
Ġreg ions
go ing
Ġiss ued
Ġmer ch
Ġ196 6
Ġins p
Ġste el
Ġsle pt
3 2
M ark
on ent
Ġgot ten
Ġclub s
Ġdisapp ear
ak ers
orn ey
Ġset s
Ġneg oti
Ġobs erved
c os
t urn
ep ing
Ġest ate
Ġview s
Ã³ n
ĠRev olution
ar ia
Ġcon ce
ĠJ on
Ġsc ulpt
Ġcol ors
ĠHA VE
A ye
T urn
b an
b al
e rest
ir med
Ch ar
Ġexpl ained
ĠOr der
Ag ain
n ce
om y
ch ief
ol en
od d
Ġoper ating
B ig
I V
Ġl ift
ol t
um ph
ĠO ffic
Ġshe l
ĠAr ts
Ġche er
ĠBro ad
Ġspirit ual
I m
The ir
ĠH ind
un ts
Ġdef in
Ex actly
ĠDis ney
L ife
M ichael
Ġb atter
Ġre fe
ĠS up
ĠL eg
em on
ap ore
ĠV er
Ġown ers
Ġwide ly
Ġvot es
N O
c ould
Ġn est
ĠA unt
ĠC O
iz z
ĠMar ia
ĠCon stitution
T oo
ens ity
ĠPol ish
d ney
Ġt ropical
Ġr iding
ĠN ic
Ġmy ster
Ġcour age
ĠPhil ipp
Ġhol iday
Ġatt itude
ĠBr idge
Ġexpl os
enn es
an ny
ĠN orm
Ġcon cl
ĠO cean
Ġliter ature
Ġexerc ise
lah oma
ĠH ea
ĠN et
arr ing
Ġburn ing
Ġsucceed ed
Ġcorresp ond
M on
S C
Ġscient ists
r as
Ġo we
Ġm ood
Ġh o
Ġp ushed
Ġhold s
cri ption
m outh
Ġb ite
ĠT ra
ĠF el
AC K
Ġcommun ities
os l
Ġcre ation
Ġa id
ch a
Ġ196 1
eng ers
Ġb en
Ġbut ton
ĠE le
ollow ing
Ġclaim ed
Ġwat ers
Ġbath room
j an
m ade
ot ic
ĠP ope
Ġr hy
Ġeat en
mm a
ask a
Ġmer ged
T O
W he
i Äĩ
s it
Ġin se
ĠA k
Ġst ress
un ting
ĠE ducation
Ġbad ly
. --
Ġs ust
ing ly
ĠS anta
th ree
in ces
ĠL ieutenant
ĠKh an
F in
Ġm ental
Ġgl obal
ES S
Ġfright ened
J im
f our
it ure
om er
ĠA ny
ĠC orn
ĠP rem
int end
U s
Ġst ole
Ġtalk s
Ġsy n
Ġdev il
gl as
Ill ustration
Ġapprox imately
y ard
ĠS on
ĠE s
Ġrel ations
Ġche ap
Ġsim pl
Ġdeal ing
ĠAd am
Ġindivid uals
Ġinit ial
T A
w ow
y m
om pl
Ġn ick
Ġcent uries
Ġsit u
Ġconc ert
ĠAust ria
Ġnorth west
Ġtrack s
he me
Ġn ort
ut ies
ĠR h
Ġ3 2
Ġsort s
ĠOn ly
Ġball s
y gen
Ġs ale
Ġin qu
Ġse ats
ĠT ay
ĠĠĠĠĠĠĠĠĠĠĠĠĠĠĠĠ ĠĠĠĠĠĠĠĠ
Ġatmosp here
b i
Ġf uel
se x
Ġall eg
ie ve
Ġv alley
Ġdes k
Ġreg ret
Ġmon ster
Ġsqu ared
Ġcult ural
Ġswim ming
Ġneighbor hood
and s
el ph
ild ing
Ġb rilliant
um mer
Ġv ision
OU LD
Ġsix th
Any thing
ĠM oh
ĠH oly
Ġour s
CH APTER
Ġident ity
ĠOk lahoma
G O
um es
Ġar med
Ġsupp l
ĠIndian a
Ġbull et
ĠT op
Ġr andom
ĠF air
c ase
t i
re nd
am an
ro se
Ġas ide
ĠP ers
Ġed ition
Ġburn ed
ĠP en
amp s
Ġro ot
Ġun able
Ġbu ying
Ġair port
Ġexper t
Ġeffect ive
Ġpresident ial
ĠEn ter
Ġcompos er
B oy
Ġh ired
Ġst omach
Ġr ug
Ġpar ish
com ing
ĠAtl antic
e very
Ġdark ness
Ġcomm it
ĠAl so
or i
Ġd iet
ri b
Ġsl ave
Ġ196 5
e qu
re ts
Ġke ys
Al so
ad u
Ġdist ingu
Ġche ek
Ġsure ly
ure au
Ġacc ompl
Ġsur gery
Ġwood s
Ġadminist ration
Ġreve aled
ĠArk ansas
B ill
g ian
Ġre ign
Ġcondu ct
g reg
v i
Ġcon ver
Ġsp o
man n
Ġdi agn
J o
l ock
Ġ194 7
Ġdet ail
Ġprofess ion
Ġroad s
ropol itan
Y ep
b et
Ġw ing
ke l
ĠP ost
ĠP lease
Ġinterest s
Ġconstit ution
Ġarchite ct
s en
Ġt ear
ĠD i
Ġr um
Ġso ci
ĠVictor ia
Cap tain
B oth
out heast
Ġgu arant
Ġ3 00
Ġexpl an
at ics
Ġan ger
ĠP op
Ġr is
Ġde ck
ĠL ight
Ġsu icide
ik a
Ġmill ions
I LL
f ish
en ess
Ġcon clud
Ġpoint ed
Ġvis ited
Ġinvest ment
Ġdistribut ed
Ġpregn ant
Ġp uzz
ĠB ra
Ġsec ure
ĠBr ad
Ġsuff er
Ġnucle ar
ĠA mb
ĠC ab
ĠK NOW
Ġcr ash
Ġhands ome
ĠSy stem
Ġsurr ounded
Ġridic ulous
P S
Ġt ip
Ġw aves
ĠN ap
per ial
ord ers
Ġun h
Ġexp ed
Ġpri ze
Ġmere ly
Ġw ished
en cies
Ġre ference
Ġj ealous
ĠMay or
ĠCo ast
Ġunus ual
B rit
Ġt a
Ġf ishing
Ġbut t
ak h
Ġwhen ever
Ġle cture
Ġdisc ip
Ġadv anced
Ġhealth y
B ring
Ġp ir
ĠS el
ri x
Ġ3 7
h as
Ġdo ctors
Ġinst ant
Ġesc aped
Ġl ung
out s
app ed
At l
Ġdefe at
Ġaffect ed
Ġa unt
re ck
Ġs isters
ĠF ound
Ġsu ck
Ġele ph
Ġph r
ism s
Ġext ended
Ġcomb ined
S ix
r ane
Ġdel ay
ot ton
ĠS E
ĠW y
ĠR oll
Ġcomp ar
the w
Ġac ad
ĠWal ter
L ittle
R Y
ĠS k
all el
Ġer a
Ġpass age
ĠPr ot
Ġredu ced
ĠSing apore
ab s
ĠCh ris
Ġfun eral
Ġcross ed
ĠRad io
Ġbal ance
Ġcapac ity
ĠH ay
ĠHe ad
ĠV ill
gg ing
Ġlead s
Ġsour ces
Ġchall eng
Ġaltern ative
in em
Ġf ra
ĠM ot
Ġsy mp
Ġcreat ure
Ġenjoy ed
Ġrecomm end
B O
b ird
l ittle
Ġ196 2
Ġauthor ities
Ġsweet ie
Ġlo an
Ġdeb t
A H
Ġd ipl
ons ense
Ġhard er
Ġcoll ea
Ġrul ed
Ġbank s
I nt
d is
Ġw ore
Ġh ast
Ġp ale
le nd
Ġbene ath
Ġcerem ony
d Ã©
ĠP ublic
Ġphot o
A F
u er
Ġw ire
Ġto ys
art s
ĠN ight
Ġcont em
ĠMc C
Ġrom antic
ropri ate
c alled
Ã §
ĠW ed
Ġso il
ĠU r
Ġreg ional
Ġdra ft
ut ation
ĠH am
ĠN ob
Ġcoll abor
Ġdri ven
Ġsepar ated
ĠS av
ĠNew s
_ .
Å ¡
Ġre ward
st ate
ens es
Ġend ing
ier ce
Ġlone ly
it age
Ġb ones
ĠM Y
Ġr ings
Ġal ph
ĠV ice
Ġcy cl
ĠWI TH
t ell
Ġw ounded
ĠI ra
ĠH oll
Ġcap able
ĠSup reme
he w
Ġw and
Ġdes erve
Ġ196 3
Ġsqu ad
Ġconf idence
Ġvict ims
orpor ated
Ge ography
E h
Ġa wards
Ġs an
Ġin du
ĠD un
ig r
Will iam
Ġdemon str
C ont
i i
Ġp upp
ĠL ew
ĠN ations
Ġreturn ing
Ġstrong er
Ġapplic ation
ĠD av
ĠD ave
ne ver
Ġperm ission
T en
m om
ch ar
ffic i
Ġla unch
ĠSer ies
a a
ac on
ĠD NA
Ġass ume
ĠHow ard
Ġcut ting
Ġsend ing
Ġcook ing
ĠJew s
Ġelectric ity
Ġmurd ered
c us
i ri
Ġy o
as ters
ont o
Ġbur st
ĠFore st
ĠKent ucky
p ite
Ġb att
Ġf ans
Ġd ump
ĠB C
ĠT urn
Ġj ury
Ġsp are
int o
Ġheart s
Ġcommunic ation
at hered
Ġf o
im b
Ġsh adow
ĠR od
ĠO b
Ġbr ide
ĠAs ian
Ġcamp us
Gr and
B el
o be
Ġh i
Ġn urse
Ġdo zen
Ġsc heme
t ake
st al
ĠB ad
ord on
Ġwar ning
ĠTe am
Ġdesp ite
ĠT ok
Ġtr ained
ĠCh uck
anc hes
ĠAn other
Ġimp ress
ĠInd ians
Ġtyp ical
ĠCast le
L aughter
Ġit ems
ĠS a
ĠH ospital
ain ts
um in
Ġcomm ander
Ġprob ability
Ġ194 4
Ġfle et
Ġenvironment al
Ġmethod s
r ons
ĠE p
âĻ «
Ġmass ive
4 7
ĠA D
ĠP yr
Ġpr ide
Ġchar ged
AR T
ĠAnt on
Ġhous ing
ĠPal ace
u i
Ġbe ating
os is
Ġgr ade
Ġdep th
Ġpers u
Ġpers ons
ĠIntern et
Ġu gly
Ġv oices
ES T
Ġcompet ed
Ġmunicip alities
Ġengine ering
an es
Ġwh ist
ĠH ans
ĠU s
ci ences
Ġmom ents
ĠCon ference
Ġpos itions
Ġill ust
ĠOlymp ic
Ġc ou
Ġre ject
ĠS om
Ġbl ocks
ĠAr thur
Ġbit s
fect ure
may be
Ã ´
on ents
Ġf il
and al
Ġ19 20
Ġbet ray
Ġinter rupt
r ad
re te
Ġattack s
Ġident ified
Ġg al
bs olutely
ĠYOU R
Ġintrodu ce
Ġliqu id
M c
ĠA S
Ġmark s
Ġprison ers
Ġsac rif
c ut
Ġb ul
Ġbe ast
az e
Ġmon key
ship s
ĠGold en
e pend
Ġc ats
ĠN ever
Ġacc ur
Ġrel ief
Ġcomb ination
ĠJust ice
th an
ĠR oger
Ġhigh way
ĠInd ones
ĠCar ter
Ä «
en ly
Ġst olen
cl ass
Ġfe ather
ott ed
Ġext end
Ġless on
Ġoper a
Ġoper ated
Ġcontroll ed
g reat
oo h
ĠSt ory
Ġchar ges
Ġmind s
Ġ195 2
Ġshort ly
Ġprep are
Ġcru el
S im
n el
ĠO z
Ġdec isions
ĠAt t
amm ad
Ġox ygen
B ar
O H
ĠS ure
th ose
ĠCent re
Ġpoet ry
Ġsch olar
Ġ ing
Ġact s
Ġstat istics
Ġchair man
Su per
p ea
at ically
es ome
ĠB or
ĠB ow
Ġro de
ĠAn th
Ġcheck ed
Ġindepend ence
ĠS aud
ĠB BC
ost er
ĠSt ation
Ġrepl ace
ĠUS A
Ġbehav ior
u able
Â ²
Ġ Î
Ġb on
Ġp ity
ĠB os
Ġar ts
Ġimp ression
Ġcol umn
H L
Ġp ages
ic ing
velop ment
Ġsol o
ĠComm on
Ġhor ror
Ġarr anged
Ġpromot ed
us ive
og ue
Ġhead ed
az ed
Ġprov ides
Ġalbum s
Ġgen us
ĠPol ice
Ġaff air
Ġple asant
ĠAlex ander
Ġveh icle
ĠKenn edy
ĠA ff
Ġan aly
ĠB ru
ate ful
Ġgr anted
IS T
cher s
A ren
w oman
Ġs oup
Ġv ir
Ġv ast
Ġrem ove
Ġste am
Ġcop ies
ĠSy dney
f ly
Ġthe atre
Ġl ion
Ġn uts
ic ity
ĠH ard
ĠT our
Ġgu ests
Ġchild hood
Ġperson ality
Ġposs ibility
Ġpil ot
r ary
Ġc rop
ang es
ĠCh annel
Ġinter pret
Ġalong side
Ġtre m
Ġbed room
ograp her
Ġtele phone
w ant
int on
Ġ194 2
urs day
ament al
A lex
T V
Ġd ea
Ġp iss
pr ise
Ġocc as
Ġfig ured
Ġill ness
IC E
Ġliter ally
Ġeld er
it ter
Ġm ent
Ġy ard
ac c
ĠK at
Ġ195 6
Ġcontro vers
Ġdev ice
Ġvol unte
Br other
ĠÂ ¶
Ġdom estic
) ;
B esides
Ġh ockey
ĠD ie
Ġr ising
ĠR a
Ġsp ite
Ġans wers
ĠTe chn
4 8
N E
Ã© nÃ©
Ġdef ined
Ġdiv ide
Ġquiet ly
ĠF ire
ĠJ am
ĠBe ach
Ġconf irmed
A nt
t ical
Ġt orn
it led
Ġto ile
Ġsh ift
ie v
omet hing
av ed
Ġpo em
Ġ7 5
Ġproject s
Ġdoc uments
ĠMex ican
Ġp ed
ĠK y
Ġhead quarters
Ġnight s
Ġland ed
Ġvill ages
Ġinj ury
Ġphilosop hy
Geor ge
Ġb ike
ĠM o
ĠB at
Ġstr anger
Ġtri es
Ġconf used
Ġappoint ment
ĠChampionship s
ĠH ug
Ġte en
Ġact ed
Bl ack
ĠReg ion
Ġredu ce
ĠA lp
ĠH olly
ig en
Ġun like
ru cted
Ġsit es
Ġequ als
Ġnat urally
H en
f in
f red
t an
Ġas sociation
if er
ĠO pen
ĠIn c
Ġ194 1
ĠRe ally
Ġjournal ist
S O
Ġf estival
Ġse lection
Ġdes ert
Ġob lig
Ġlist ened
Ġexc iting
Ġdiffic ulty
Ġtax es
Ġmach ines
Ġprincip le
C or
C ong
if ts
Ġpro fit
Ġun s
Ġfound er
aught ers
Ġfort une
Ġoccup ied
m ission
Ġl oyal
We re
Ġfact s
Ġentr ance
Ġmyst ery
b ie
ar ah
as er
Ġse mi
op her
Ġr ice
Ġopp osed
Ġsum m
Ġang le
nes day
or us
Ġg or
us ter
ĠH amp
ĠB ase
Ġreg ist
Ġass igned
OU T
ĠAir port
Ġinit i
4 9
c are
k now
Ġd umb
om i
Ġn arr
ĠC all
ĠB ah
Ġput s
Ġinvent ed
Ġestim ated
Ġaband oned
Ġc ore
Ġp hen
al em
F e
ĠF ederal
Ġded icated
n at
Ġs ed
Ġdisc overy
Ġ194 8
Ġ195 9
Ġtransfer red
Ġintellig ence
ic ians
et ime
Ġperson ally
ik i
ze ch
ĠTom my
Ġviol ent
Ġstrugg le
Ġbab ies
Ġf iction
es c
Ġg rey
ag ger
ĠDe ath
Ġbo ats
Ġfact or
Ġreview s
, âĢĻ
Ġb om
Ġc ert
ith m
ĠH im
ĠR el
ate gy
ort on
ĠCh ap
ĠGu ard
Ġsecret ary
it able
ĠH appy
ĠO ur
Ġmusic ian
Ġmod els
Ġprison er
Ġmax imum
4 6
R ich
S am
a way
Ġs ought
ĠW alk
ĠW ild
Ġpl astic
Ġstr ategy
Ġbit ter
ĠAl bert
Ġmet res
Ġdrink s
Ġcaus ing
Ġaff airs
L ong
on oun
er able
Ġd ating
Ġst able
ard ens
Ġmor al
ĠB ible
ol i
ord inary
Ġass ign
7 5
M a
b ra
ant ing
ĠG i
hing s
Ġsym pt
9 5
A dd
I A
Ġh ills
ĠL O
ĠK l
Ġmight y
akes pea
Ġjump ed
Pro bably
) :
M art
O ld
Ġp ants
ĠR oss
Ġepis odes
âĢİ .
akespea re
G eneral
Ġy ards
ĠS her
ĠC D
ea ble
Ġsh ake
Ġsh ook
em et
ag ers
ues day
Ġdevelop ing
Ġbene fits
ĠGree ce
Ġdrag on
R obert
Ġf asc
Ġd ude
Ġe ager
ĠB al
Ġkn ees
ĠR yan
ĠL es
ĠE arl
ĠRail way
ĠDou glas
Ġinsp ired
ĠW in
Ġj ew
ĠU P
Ġgr ay
Ġ15 0
Some body
ĠSwed en
st an
ĠA li
ul se
Ġr ush
ĠF ord
ick ing
Ġim ages
Ġfour teen
pect ed
Ġdeep ly
Ġregard ed
Ġperman ent
p ress
Ġw ound
Ġb one
th m
Ġatt ached
Ġland s
Ġpract ical
Ġprincip al
Ġbehav i
ĠHaw ai
ĠIra q
A w
R ed
Ġp up
Ġg athered
Ġst ab
Ġst airs
ĠT ell
ĠR E
ab e
AR D
Ġnecess arily
Ġbeg un
B ob
C omp
D own
l ast
Ġt unn
om ed
pl es
Ġlet ting
Ġcr own
Ġmar gin
Ġdef ense
Ġdiscuss ion
ĠRepresent atives
ennes see
G R
at ures
Ġc ooper
Ġd un
and o
ĠG er
Ġno ble
ub s
Ġsm ooth
Ġsw all
Ġref lect
ĠHon or
id el
ĠA venue
ol ves
ĠN OT
Ġlea f
Ġ195 4
Ġaw ake
Ġtend er
d r
g ot
ic it
ĠT ake
ak s
Ġsp ons
Ġins ult
Ġre ar
se ction
ur ches
ĠW ait
ĠO per
Ġwant ing
-- "
Ġthr one
Ġcr icket
Ġ4 8
ĠNot hing
Ġintell ect
Ġconstit u
Ġre venge
Ġri vers
ony m
Ġfootball er
Ġbow l
r ine
Ġd at
ad elph
ĠC reek
ĠSt and
Ġstud ying
Ġvide os
Ġinit ially
c il
Ġst ir
be en
hen s
Ġvers ions
Ġcy cle
Ġmir ror
Ġth ir
Ġin fect
Ġro pe
Ġpr ices
Ġ195 7
Ġill egal
Ġinj ured
Ġpaint ings
ĠHol mes
W est
f oot
ĠG re
ig ration
ug g
Ġ4 00
Ġresc ue
W ork
ist ol
ĠR os
ĠSt one
Ġ195 5
Ġfair y
bour g
Ġsubject s
adelph ia
4 2
R el
Ġt icket
Ġth rill
ĠS id
Ġfor b
Ġen orm
Ġfun ctions
Ġserv ant
Ġappear ances
Ġfrequ ently
ĠMarg aret
Ġst ones
ĠD am
Ġcont ext
ask et
Ġengine er
Ã©nÃ© es
B LE
M um
Ġf art
al ia
ĠH art
ĠK u
Ġimp lement
Ġeight een
Ġ193 9
Ġtechn ical
Ġkil omet
Ġ urban
Ġd ates
ab et
Ġout put
Ġrec on
li ver
TH AT
Ġdep os
S pe
ri p
Ġproper ties
Ġz one
Ġexperien ced
Ġnick n
emet ery
f irst
n ote
Ġst arring
ĠC op
Ġr acing
Ġsl aves
AT E
ĠSer b
Ġrelative ly
ĠConf eder
ĠChair man
a ft
h h
â Ķ
ĠC ir
ues e
De ath
ĠFound ation
d og
ĠI ce
ĠJ os
ast ed
St and
Ġlarge ly
Ġvis ible
b ro
d ist
d ale
Ġd aughters
ick y
hed ron
Ġhistor ic
Ġmanufact ure
anche ster
Ġfant astic
P ar
r ace
th rough
ĠO UT
Ġel imin
Ġsouth western
Ġsn ake
Ġadm itted
Ġfac ilities
Ġprec ise
Atl ant
ĠH o
ĠW as
ul ed
ĠG ame
ph as
Mm m
Ġclaim s
ĠTur key
Ġast ron
f ound
in ced
Ġo ption
ĠC ost
Ġform al
ĠMary land
E ach
f ire
g as
j e
Ã ¦
Ġre in
ĠW eb
row s
Ġrest rict
Ġequ ation
Ġann oy
II I
With out
Ġport ion
k ind
ĠP ot
ul es
ĠG ro
we ight
Ġcr ap
ret t
Ġpar liament
augh ing
Ġinn it
Ġbes ides
keep er
ĠPyr Ã©nÃ©es
H ar
Ġm ama
Ġf ed
ĠT s
ĠPet e
Ġexplan ation
j ection
Ġp our
om ic
ĠC ard
ĠF inn
ĠN i
ĠComm un
ĠCol or
Ġdel ivered
g un
ĠC ro
Ġacc used
ĠCor poration
F oot
Ġl t
ort ed
Ġnew ly
dd ie
Ġglass es
Ġscar ce
F ind
er ted
ĠT ennessee
Ġ" "
ĠG il
erson al
Ġworld wide
Ġform ation
Ġwar ri
Ġsoon er
ĠAust rian
Ġstar red
Ġstore s
Ġsurv ived
or age
ce ler
Ġwor ship
ĠO nt
ag ain
ens ions
Ġcop s
Ġphot os
dÃ© part
Ġb id
ĠS n
ĠA LL
Ġwor n
Ġsm iled
up on
ĠAn na
Ġ193 8
Ġgrand father
ĠRes earch
Ġpun ishment
S w
ĠT ed
pe ople
Ġrepresent ing
Ġcondu cted
p ol
Ġc attle
Ġtr unk
ord an
Ġsm iling
Ġask s
form ation
Good bye
Ġannoun ce
Ġshop ping
Ġheav ily
C r
Ġw o
ll y
Ġin ner
ut t
ĠO tt
Ġv ice
Ġmed ium
Ġ195 8
ev in
Ġvot ed
Ġb ond
ĠM m
Ġne ut
Ġsc enes
Ġstri p
K ing
U D
Ġc ave
ĠP ict
un ter
ĠL ead
Ġconf ident
Ġprim arily
iffe rent
K ill
ĠF C
ĠF orm
Ġcon ven
de rer
ĠLe on
ask ed
Ġstra w
bour ne
Pres ident
u y
Ġh m
Ġp ipe
Ġl ately
ĠW el
Ġcan n
Ġnow here
Ġbu g
Ġent ry
Ġorgan izations
ipp i
Ġclim b
osc ow
A V
H appy
S on
or f
id en
ĠH ad
ust ing
ber ry
Ġbr anches
Ġ194 6
B en
b urn
Ġb old
Ġh unt
ĠA M
ĠC E
ĠM ir
ter y
For get
ĠDad dy
Ġleaders hip
IF A
h um
p an
p ur
ĠW he
ĠO w
ĠV ol
Ġass ault
ertain ly
ĠBar b
Ġash amed
B I
W ant
Ġb ra
Ġto ol
Ġnot able
ul gar
hed ral
U ntil
m ill
ĠB alt
ild a
be c
ĠSh ut
Ġtest s
Ġabs or
Ġacqu ired
Tw enty
P at
Ġt ap
ĠC zech
ĠP ower
Ġstop s
Ġapolog ize
Atlant iques
ĠB ea
ĠB rian
ĠR o
Ġgr ace
Ġdis g
Ġshould ers
Ġsl ide
Ġdeath s
Ġjo ining
Ġ195 3
Ġve ctor
% .
d am
r ors
Ġf ulf
ĠT est
Ġr ates
ĠF le
Ġcor por
rag on
Ġsac red
R ob
n et
ie ur
Ġint ention
ne ath
Do ctor
Ġext ent
Ġofficial s
ĠLaw rence
r ison
on ies
ĠC AN
ag s
ĠU t
Ġ3 8
arr ondissement
Ġconv inced
Ġthreat ened
Ġdivor ce
Ġup d
Ġsing les
Ġconf irm
ĠPhil ip
A bsolutely
Ġbe ings
ĠC ensus
ĠH istor
ĠB all
ĠG reg
Ġ194 3
Ġdescri ption
Ġexist ing
Ġsurr ounding
---- ----
Ph il
Ġath let
r m
Ġb ot
or ious
Ġto w
Ġto y
ĠA RE
ack ed
Ġwho a
ip ed
int s
Ġgu ide
d in
r im
in er
Ġs ang
on ze
le te
ir ts
ĠM oo
Ġkn ocked
rom ise
Ġref ers
Ġhur ts
Ġpossess ion
Ġresident s
Ġretire ment
ĠOnt ario
M S
Ġm ud
ĠS C
Ġal gor
ĠK er
Ġ195 1
Ġgen ius
Ġlic ense
Ġemp ire
Ġincred ible
p ent
es se
ĠR us
os ity
ĠJ ay
Ġob tained
Ġpass engers
Ġinstru ctions
S H
w ind
Ġm al
Ġin put
ĠC e
ĠD a
ig a
Ġpre cious
Ġdiffe rences
Ġpass es
Ġsix teen
Ġhop ed
ĠJac ob
dÃ©part ement
Ġf oss
Ġn ations
ĠB aby
ĠL ind
ĠJ in
Ġoff ers
ĠAnd y
Ġtyp ically
ĠRob in
lN G
h us
Å «
Ġ +
it ched
Ġm amm
Ġf aint
Ġn aked
ĠG a
ag ne
Ġdist urb
Ġart icles
Ġopp osition
Ġinvol ve
Ġcapt ure
Ġru in
' ?
M ary
b ach
Ġse lect
Ġsk ill
ĠPl an
Ġphys ics
ĠPhil adelphia
D O
o a
it als
Ġp i
Ġl over
et ers
ri ve
ĠA dd
Ġde ce
Ġch amber
Ġag es
the less
Ġland ing
Ġhost ed
Ġident ify
Ġide al
Ġemot ional
Ġexped ition
s pe
Ġthe rap
Ġf aced
Ġin cl
ĠA ut
iss ippi
Ġgreat ly
Ġrep utation
Ġallow ing
Ġexpect ing
Ġcrit ics
Does n
Ġdeb ate
Ġcustom ers
ĠSaud i
R S
R OM
or ation
ĠR ober
ĠK r
Ġstr ateg
Ġcons id
Ġpray er
o ard
w he
Ġw icked
ĠC ape
el ine
res ents
Ġsm oking
Ġmeet ings
Ġtest ing
Tr ans
ĠSim on
Ġarchite cture
I P
L ES
R un
re c
Ġf ab
ĠI V
St ep
Ġachie ved
ĠP ad
ĠP ra
ĠL A
ĠN ik
od ge
iss a
Ġcar riage
Ġev ident
Ġ193 6
Ġ193 7
ĠMin nes
Ġexist ed
lect ric
ĠMed ic
Ġearli est
Ġren amed
u v
an while
ĠB illy
ĠF IFA
Ġag ency
Ġpur ple
Ġda wn
Ġjack et
Ġanx ious
Ġdelic ious
Ġrapid ly
Ġdefin ition
Ġm ales
ant ry
Ġass ass
Ġem peror
ĠComm ander
Ġarri ve
Ġspir its
Ġlat est
ĠViet nam
N orm
Ġto oth
ĠB ush
os ure
Ġshe et
per t
oll ey
Ġfl ash
Ġfr ank
Ġgrad ually
Ġgar age
Ġrough ly
Ġexcl aimed
4 1
ĠM oon
ĠF ield
Ġad just
Ġkind a
Ġadd ing
om ot
Ġst adium
ĠG ET
Ġcl osing
Sh ow
Ġsat ell
Ġwood en
Ġintern al
ĠTor onto
Ġadvent ure
ĠPrem ier
Ġdipl om
Ġne at
the se
av ia
gin es
St ar
Ġyoung est
isc ons
Ġcollect ed
ĠTurk ish
l ar
r aine
re nder
Ġwhe els
ud es
Ġinter act
Ġpick ing
bor ough
Ġfoc used
Ġadult s
Ġreck on
Ġtoile t
O b
ĠB ud
ĠN O
Ġgr ateful
Ã¡ n
Ġfem ales
" ;
L ou
T alk
Ġth orough
ĠJ oh
ĠE ve
Ġus eless
Ġpro port
ra it
Ġco ordin
Ġob tain
Ġstrong ly
Ġtem porary
Ġemploy ed
Ġcab in
Ġsamp le
Ġacad emic
iscons in
C o
N one
ĠA y
ind er
les h
Ġapp ropriate
ĠTh ursday
tain ment
pect ive
Ġsub t
Ġprom inent
Ġthrow ing
Ġfarm ers
Ġfool ish
Ġtal ent
ĠHarr is
ĠMinnes ota
e enth
Ġf ake
Ġser ves
Ġ3 3
Ġlast ed
ĠSp irit
Ġexp ressed
iver pool
ĠMount ain
Ġwrit ers
H oney
b age
Ġt iss
Ġbe nd
Ġse ed
ĠE nd
anc er
As k
ĠFranc is
R es
f a
Ġs na
on i
Ġn ap
ĠM oscow
Ġse ized
ĠN ag
ab a
olog ists
ĠSp ring
Ġpull ing
ĠSpe cial
ĠPortug uese
4 3
z ing
Ä ±
ĠK ings
ĠSh akespeare
Ġexpl ore
Ġearth qu
Ġfac ility
m aster
p ers
s ix
Ġis ol
gh an
un ities
ĠW ag
ĠR em
Ġv en
uck er
Ġstr ict
Ġdec re
Ġste pped
Ġpolic ies
ĠSar ah
ĠBang l
âĶ Ģ
O w
ĠE conom
ons ieur
ĠSh ah
Ġinv asion
Ġrep ly
Ġ193 4
Ġprotect ed
ĠMed ia
ĠSen ator
Ġcelebr ate
Ġrepe at
Ġsatis fied
ĠHea ven
Brit ish
Q ue
d le
m iral
w orld
ow nt
ĠR u
Ġsp lend
ever al
Ġop ens
ĠMin istry
Ġrecogn ition
Ġdoll ar
c ia
Ġ ic
Ġw ard
Ġc oc
Ġf er
Ġy ield
ur rent
ĠB urn
Ġfact ors
ĠGr ant
ĠTok yo
9 7
r idge
Ġt ub
Ġto ast
ac les
ĠH as
Ġr ural
Ġpro sec
Ġfl ed
Ġpar allel
Bet ter
re ally
Ġg ra
Ġwh ale
ip er
cc a
Ġunder ground
ĠAr m
Ġac celer
St art
ins ula
Ġreason able
Ġexcept ion
cul es
ĠAre a
ĠTay lor
H ad
m ont
Ġp ension
ĠA riz
ĠP o
op ter
ĠD own
hes is
AR R
Ġ194 9
Ġwond ered
Ġconst antly
Ġval uable
Ġaccount s
Qu ick
ĠSwed ish
Ġsympt oms
Ġr aces
ĠG ib
ĠG ene
Ġcl in
Ġstand ards
Ġprov iding
ĠSer geant
Ġclot hing
Pl ay
spect or
ĠArgent ina
ut er
ry ing
Ġoff ering
Ġer ror
iam i
Ġanim ated
Ġabs olute
ĠOffic er
! !
E v
S uch
f are
Ġd ign
ĠS ard
ĠP a
Ġex ha
Ġmove ments
Ġparticip ated
Ġf ond
ĠThe atre
Ġpart ly
ho ot
Ġhand ed
Ġmin imum
Ġform at
Ġair pl
Ġtit les
Ġpurp oses
Ġlif ted
Ġsli pped
Mus ic
H ang
Ġb ars
ĠB ishop
ĠE ric
ĠAr men
ĠSw iss
Ġclean ing
ĠMus lim
Ġconsider able
Ġbreat hing
H on
e ven
or ia
le ts
Ġre aching
ĠB and
ia h
Ġen gines
Ġext ensive
Ġadv oc
Ġconst ructed
Ġamong st
Ġru ined
Ġexperien ces
Care er
ĠNet work
4 4
Ġf rag
al ph
Ġsh ops
ĠF ree
Ġint ent
ĠSt op
Ġdis ag
Ġob st
Ġkid na
Ġp or
ow ell
ad i
ad ies
ir y
It s
Ġtw in
Ġcont ained
ye h
ĠEng ine
Ġserv ants
Ġspecific ally
j ud
r ot
s uch
Ġb ay
Ġin her
Ġl oving
il st
ĠT uesday
ol ve
um a
sh it
Ġsupp er
Ġsur vey
ier re
ĠBe at
ĠAd minist
Ġmole c
Ġnort heast
Ġsacrif ice
g ers
h al
w alk
Ġb oring
Ġh its
ĠH al
ĠW isconsin
Ġoff ices
ect ive
Ġrep resents
ĠTr ump
sc ape
Ġess entially
Ġphr ase
E s
Ġw ow
ĠP itt
be fore
Ġlong est
Ġcr imes
Ġem phas
ĠCon ne
Ġrail road
ĠMount ains
Ġconcl usion
S ub
r in
he astern
Ġthe ater
Ġb ass
Ġp ushing
ĠM u
Ġtr ap
Ġdist ant
Ġ6 5
l on
at oes
ĠT oday
ist ical
Ġgr ant
ĠTh us
sh ot
Ġres ign
ĠGerm ans
Ġcomput ers
Ġinflu enced
6 5
Ġ urg
Ġn onsense
ĠD ON
ass ador
Ġbel t
Ch arl
Ġdam aged
ĠMat thew
rat ulations
Ġaccomp an
M ust
M ike
n ew
u ct
Ġa ired
Ġb acter
ĠH or
ĠL I
ber y
end ment
av an
Ġph ase
ĠSte ven
Che ck
Ġh oly
ĠD ak
Ġr abbit
ĠR un
Ġpro s
so ft
iz ard
sh ine
Ġclass ic
Ġappro ved
Ġpen al
Ġbeat en
Ġvari able
ĠHolly wood
Ġenorm ous
D ear
S ch
Ġo oh
Ġm ath
ing le
Ġl ap
ĠC ON
Ġgo sh
ĠW ars
Ġevery day
IN E
Ġbusiness man
for mer
Ġmur derer
Ġinn ov
Ġgradu ate
Ġnewsp apers
er ick
en z
Ġh ated
ĠB ol
Ġch urches
Ġtri be
ĠCl ark
Ġbox es
Ġextra ordinary
ĠWed nesday
D P
F F
r un
Ġ vel
ut iful
ĠS O
ĠP oint
ig s
ung le
Ġband s
ĠMor gan
h ard
Ġh ug
we alth
tern al
ĠInd epend
Ġrese ar
Ġbreat he
B ad
in clud
an ed
ĠM ain
ur ation
ur ther
ĠB an
Ġkn ee
ĠG oo
Ġch a
Ġsl a
ret ty
Ġprodu cing
Ġequ ival
TH ER
udd enly
ĠTai wan
d i
o ons
Ġ Å
ĠM att
ĠH it
Ġunder neath
Ġ5 5
angu age
Dad dy
Ġmob ile
Ġdesper ate
ĠColor ado
st ar
ĠM anchester
ĠH orn
ĠW olf
Ġag ents
ĠSt at
Ġrep rodu
Ġvol can
Ġprint ed
Ġalt ogether
mus ic
Ġunh appy
R ep
v ation
Ġt ale
in us
Ġw ra
ĠG ulf
ĠF a
ĠF ederation
el ing
ĠE X
Ġv oc
Ġfl ows
ib ilities
Ġ6 4
Ġ193 3
Ġd uties
Ġl ob
ru its
AT ION
Ġwind s
ĠDan ny
AK E
Ġemot ion
ĠWH AT
ĠAriz ona
B i
Y o
ac ement
Ġsol ar
Ah a
Ġdeterm ine
Ġvac ation
ĠCharl otte
E LL
Ġs ke
Ġb ang
ch air
ĠK elly
Ġint end
Ġad apt
Ġwhere ver
Ġshow er
ĠMar s
Ġwar n
Ġ193 5
Ġaw esome
Ġarri val
Ġbag s
Ġsevent h
ĠAff airs
Ġsla very
m itted
Ġbe aring
ĠF ame
ate ur
Ġsu fficient
og an
Ã© s
Ġvessel s
h u
st ream
ĠA th
ĠM P
um ble
ĠN ev
Ġv oy
Ġsa iled
Ġhead ing
Ġent itled
ĠSqu are
Ġveh icles
PE AK
ĠProt est
g il
Ġm ouse
Ġvis ual
ĠMill er
Ġcateg ory
w all
Ã £
Ġw ins
Ġs orrow
ĠH ockey
ĠG ive
Ġsa ving
Ġwork er
ĠMiss issippi
Ġremark able
Ġsatis fact
ĠDor othy
Ġbehavi our
Ġthir teen
B UT
d ie
v ol
ĠM ember
ĠM az
Ġrequ ires
Ġimag ination
Ġmyster ious
F ort
p ower
ot ion
Ġsh oe
Ġdis miss
Ġdec ent
ĠComm unity
Ġsupport ing
Ġvac c
ĠEgypt ian
WH AT
U CK
d s
Ġ âĢĻ
es h
Ġth read
se a
Ġse eds
Ġr aid
ĠL im
Ġgr ounds
L ist
g on
l ay
Ġd well
Ġan ch
ge ous
Ġcl oth
Ġass ess
Ġpass enger
Ġsw ift
Ġprincip les
ĠBudd h
A ah
n or
s ong
v or
Ġw olf
Ġb ent
Ġb ump
Ġm os
Ġg reet
le ton
ĠB i
ĠL uther
Ġcon vent
ah o
ĠFr ances
Ġcreat ures
Ġchap ter
F C
L O
Å Ł
ack ing
Ġtre asure
Ġmess ages
Ġet ern
Ġdemand ed
r ade
w w
ĠA B
hat tan
IN D
Ġfar mer
TH ING
ĠQue ens
Ġmist akes
Ġfac ing
Ġattempt ed
Tom orrow
Ġeth nic
S y
at tered
it ement
Ġp itch
ĠI D
all ing
Ġmem ories
Ġassum ed
ĠTem ple
Ġw ishes
ĠA z
ĠW end
ul ating
ĠG ot
Ġex ists
ĠBr and
Ġfriend ship
Ġexp osed
ĠOn ce
Ġprogram ming
Ar t
Ġimmedi ate
Ġregard ing
Ġune x
Ġbare ly
Sec ond
s ighs
an ne
is y
Ġd irt
ĠH ur
ol as
ĠG h
Ġus er
te enth
ĠDe velopment
ĠAd ams
Ġcompet e
Ġhol es
ĠLouis iana
iven ess
Ġnea rer
ĠLew is
l ie
m ail
n old
Ġg ross
al u
ad os
ĠS ab
ĠS ometimes
ĠB ureau
ĠP ass
Ġmod e
Ġbusiness es
Ġrece iving
Ġ193 2
Ġperform ing
Ġdev ices
Ġdig ital
En ough
k ed
r ings
in ations
Ġw ars
Ġm ask
id ency
ĠG R
ĠG ordon
ĠL iverpool
qu is
ĠSt adium
Ġ192 9
Ġemot ions
Ġo bey
Ġli ed
Ġsh ares
ĠR oy
est ion
ĠL o
ĠJ ordan
Ġpre ced
Ġdri ll
Ġoper ate
Ġtit led
] .
at ers
Ġin ch
un ction
ĠD omin
iv a
Ġgr ows
Ġres igned
Ġke en
Ġbeh alf
Ġdep ression
Ġdyn am
8 6
P ardon
S ighs
Ġto mb
ar at
Ġwho ever
ag u
Ġsc ary
Ġcirc uit
ĠCor ps
ĠCr own
Ġliter ary
Ġrelationship s
Ġqual ified
Ġfurn iture
k ward
Ġst im
ĠR y
ĠL ist
Ġtr ace
ĠV eg
Ġcour ses
ĠSp ace
unicip ality
J ul
Ġwas hing
ĠN ative
Ġus ers
ĠAll en
Ġrepresent ative
ĠDon ald
LA UGH
Ġsequ ence
rib ute
c ers
p at
Ġb ishop
Ġc raft
Ġm ic
ĠS em
all e
ĠL yn
ĠN AS
Ġinstr uments
Ġinstit ution
ĠC ass
Ġse ctor
Ġbr ush
Ġbu ff
Ġsy nt
Ġdepend ing
Ġgodd ess
C arl
P oor
d iv
ĠS ix
ĠC art
Ġout er
up s
Ġinc hes
less ly
Ġvisit ors
Ġopport unities
Ġren ew
r um
is dom
ot y
ĠH uman
ĠR O
ink s
Ġpr onoun
ĠGr ay
Ġocc urs
ĠDep uty
0 7
b ors
v ia
Ġst roke
ch i
ĠW ANT
ĠV ery
Al ways
Ġperform ances
Ġhop es
cul iar
bre ak
Ġmeas ures
l ause
w atch
at ical
ic ate
op es
Ġv ic
Ġref uge
Ġdri ves
Ġri val
pr ing
Ġemploy ees
Ġeleph ant
L ater
m ates
us alem
Ġwas hed
ell er
ĠD u
Ġdis aster
Ġfound ation
Ġcle ared
Ġcol ony
Ġlad der
Ġfund ing
ĠTown ship
hell o
ĠEnter tainment
= =
b us
t ure
in ction
Ġth ief
Ġn ic
Ġhe lic
Ġst ages
if est
Ġfin ishing
uss y
Ġbar rel
Ġtick ets
? '
M ed
P P
S al
l ow
Ġa ston
Ġb ore
Ġab oard
Ġsc are
Ġrem ote
ĠWh it
R T
t w
ou ston
Ġth under
ĠS ax
ĠA uthor
Ġr ic
el son
ik o
ĠSp eak
Ġref use
Ġbreak s
ĠPe ace
Ġut ter
Ġprem ie
Ġproced ure
9 8
S S
s er
Ġb ark
ac ious
ĠC arr
th a
Ġper ce
ĠDe an
Ġequ ally
Ġdest ruction
Ġconcern s
Ġess ential
Ġcloud s
Ġwithd raw
Foot note
ĠMoo re
ownt own
Ä į
Ġw reck
or ters
Ġe c
ĠH istory
ĠL eb
ĠF ace
Ġdown stairs
Ġwhere as
Ġfl our
gg er
Ġinst inct
Ġclass ical
cent ury
Ġmer cy
Ġprop osal
Ã¼ r
F ire
c ount
p op
t es
all as
ĠT el
ain ted
ĠY ug
Ġsur render
ott a
Ġhor iz
Ġsouth west
Ġabs ence
C ut
R ec
ri ent
ĠM i
Ġas sh
ĠD og
Ġab st
ĠJ ess
ag a
Ġsl ip
Ġins pir
N orth
Ġm oth
im ore
ĠR ural
ĠF ive
Ġcount ies
Ġreturn s
Ġlim its
Ġkiss ed
Ġinstit utions
Ġexpand ed
l ad
t own
ĠC ooper
her ry
Ġfe e
Ġsc rap
Ġrec overed
Ġintern et
ĠBus iness
z ed
Ġc ares
Ġv on
Ġfl av
Ġelse where
Ġmil it
Ġcover ing
Ġresist ance
Ġentertain ment
Ġdyn asty
ĠSus an
Ġsubsequ ently
S il
l og
st op
ĠC roat
ian g
Ġsur f
gg y
ĠYork shire
com fort
Ġmid night
Ġcustom er
Ġdocument ary
" ...
Ġt act
Ġd ensity
Ġit em
Ġab road
em ploy
ĠSt ill
ug s
Ġless ons
Ġkick ed
Ġdram atic
5 6
g ro
r ome
Ġk itt
if ted
ĠP ress
Ġsh ar
Ġsh ark
ĠShe l
Ġstop ping
ĠTr ust
umb ling
Ġtem pt
Ġsuper ior
Ġtechn ique
Ġcoun sel
ĠStan ley
is ible
Ġto ler
Ġse as
Ġimp ressed
Ġins ist
Ġresult ed
reg on
Ġring ing
Ġmaid en
S outh
ĠJ erry
Ġfe ver
Ġtri bes
arr ator
OR E
Ġdef ence
ĠHamp shire
C C
G irl
Ġf iles
Ġh al
ic ation
ri el
Ġsh ield
ĠL anc
Ġch ances
Ġdire ctions
Ġtri umph
Ġinform ed
Ġfund amental
Char les
ĠAnton io
B aby
E ight
in ated
Ġc raw
or al
Ġp ardon
ĠA the
ĠB uck
ud ge
ĠUn ivers
az a
Ġsecond ary
cri bed
Ġ192 7
Ġsearch ing
Ġmum my
Ġvir us
Ġtrem end
M aster
Ġf lesh
ĠS OME
ro it
Ġj azz
ĠMar sh
eg ro
Ġfund s
Hen ry
ĠDak ota
C oll
g ate
m aking
or ous
al ie
Ġst amp
Ġk ings
Ġan gel
ch o
ĠB h
ia o
ans ion
Ġbelie ves
Re ady
che ll
Ġfavour ite
ĠHot el
M Y
p lease
Ġs outheast
it i
le m
ĠC as
ĠM un
ĠB ack
ĠR ain
Ġcom ed
cc er
oc a
Ġact ors
ĠChrist ians
Ġpar ad
Ġfaith ful
6 6
C R
ĠA L
ard o
Ġsw ing
Ġgrand mother
aval ry
Ġencour age
Ġscream ing
ĠVen ice
Ġt ube
ivers ary
Ġri b
Ġadv is
Ġsweet heart
Ġcross ing
Ġreb u
U E
l ims
ri k
ĠT ar
ĠD E
Ġor chestra
ick en
ĠSt ew
Ġro ots
ĠTh ose
Un less
Un cle
Ġopt ions
ĠJud ge
M ic
T ING
T hings
Ġc am
ĠS P
ĠS uch
ĠM iami
ab led
em ed
Ġcount ing
riend s
ĠAnd erson
ounc ill
Ġamount s
Ġpolic eman
Ġcand y
Ġdisappoint ed
Ġc otton
ĠS A
ĠM O
Ġde leg
ĠO ak
Ġar gue
ons cious
Ġrec over
Ġfound ing
Ġbelong ed
Ġcompan ion
ograph ic
Ġimpro ved
ĠArab ia
Ġjun ior
Ġconscious ness
Ġdread ful
5 5
w ord
Ġt ons
Ġf ence
ke ys
her s
ĠT a
ĠW es
ĠR hod
ĠN a
em en
ĠO t
av ig
Ġprom pt
Ġhur ried
Ġdescri bes
ĠNor way
Ġcontr ast
Ġb orders
or ph
et e
Ġint ense
Ġ3 4
Ġdec ades
Ġins ane
Ġhur ricane
Ġpar am
Ġforest s
ĠAlex and
Ã¨ re
Ġcandid ates
Ġexhib ition
L uc
r ac
u its
Ġt in
on ight
Ġ1 20
el f
fe rences
Ġwr ites
Ġgl ance
ĠSec urity
Bl ood
Ġroll ed
Ġblow ing
Ġdivor ced
ctic ut
Eng lish
Ġdemocr acy
Ġsuppl ies
C L
M en
M ind
S aint
S weet
Ġt une
Ġch ase
Ġv ary
ount ain
iz er
ru ption
ob ile
AT OR
Ġelect rical
Ġsound ed
Ġra ising
Ġeduc ational
Ġsens itive
achel or
Ġscr atch
Ġmerch ant
Y et
Ġf ert
Ġconc rete
ĠOr gan
rel ated
Ġassist ance
Ġdiam ond
Rich ard
Ġpenal ty
y ep
an as
ĠW ould
ĠD er
ĠG en
Ġsee king
Ġ4 2
Ġ4 7
Ġexc itement
Ġmis erable
Ġble eding
Ġfrequ ency
Ġt ables
Ġs ession
ĠJ ose
Ġsec rets
io let
Ġpres ents
inc ent
Ġ193 1
Ġ192 6
Ġattempt s
ĠPat rick
Ġcelebr ated
Ġrank ed
Ġult imately
C O
W ar
m ake
Ġc odes
ver ty
Ġsp aces
ĠServ ices
ĠSil ver
Ġstruct ures
Ġgrav ity
Ġfart her
9 6
A A
k h
l aughs
m ight
is le
Ġl yr
ill ing
Ġsp ark
Ġorgan ic
Ġrare ly
Ġwhis pered
Ġcontem porary
Ġc uri
ot es
st ruction
th ink
ĠG ary
ĠF amily
Ġcon sec
em ents
Ġen sure
Ġbr id
ee k
Ġent ering
Ġinv ite
eg es
OU GH
Ġcur ve
Ġtechn iques
W r
m at
le vel
ĠS ay
ĠA le
ĠA st
ĠT ower
ĠR en
ĠN ar
Ġch rist
ĠK al
Ġbr onze
Ġ192 8
Ġdise ases
ĠAnth ony
p erson
s ky
Ġw oke
ad ows
ut or
ĠB ear
ab l
ck now
ag le
Ġatt orney
Ġpay ment
ract ion
Ġpriv ile
ĠEm ily
Ġactiv ist
Ġcomb at
Ġviol in
Ġdiscuss ed
ĠBel g
Ġf ox
Ġto x
Ġl ux
Ġne p
ĠSt aff
HE N
Ġswe at
ĠFore ign
ĠCam bridge
Ġcollea gues
olley ball
g irl
l en
m ate
Ġ Ä
Ġ Ð
nd a
as hes
Ġl amp
Ġst orage
ĠH old
ĠR ea
ĠL arry
Ġso ap
Ġab use
ĠJ UST
Ġpe culiar
Ġpo verty
Ã© e
arch y
Ġformer ly
Ġsus pend
Ġpark ing
Ġquar ters
Ġble w
Ġshout ed
Ġsust ain
Ġb unny
ĠK night
So on
ĠCh ile
Ġbo om
ific ations
ĠCons ervative
ĠCommon wealth
Ġequival ent
ĠM and
ĠM ove
ĠH ope
ĠJ u
Ġad j
oun ce
Ġent hus
Ġloc omot
Ġmeet s
Ġspeak s
Ġcut s
ĠIslam ic
ĠLib rary
Ġtunn el
m orrow
r ound
v ard
z es
ĠA R
Ġj erk
Ġsa uce
Ġsuccess fully
Ġlay er
ĠPet ers
Ġpromot ion
Ġtroub les
ĠNob el
H ope
I VE
p resent
Ġg ear
us hes
ĠG OT
Ġcom ic
ĠO regon
ĠK n
amp ton
oy d
St r
Ġwar ned
Ġgovern ments
Ġprov inces
ĠMed ical
Ġdeli ber
Ġcritic ism
ĠDav is
C al
c as
Ġf ict
ĠB ye
ĠP ur
Ġsh aring
est ly
ig hed
ud a
ĠK oh
ank s
be h
ft en
Ġcol ours
Ġ192 5
Ġlab our
Ġnovel s
Ġinse cts
Ġse ctions
ĠPh ill
Ġeduc ated
Ġroll ing
Ġscient ist
H y
m ind
Ġn a
ĠT ol
ab ilities
Ġcomp ass
Ġgood bye
Ġrel atives
Ġchar ity
ĠPro du
ron ic
Ġsafe ly
Ġintrodu ction
Ġadop t
EF A
Ġelectron ic
8 9
Ã º
ĠB our
ĠP R
ĠW OR
Ġshe d
Ġcreat ive
Ġlif etime
Ġshout ing
Ġpow der
i el
Ġbe ars
ĠS ports
op y
Ġsh ining
ĠL l
Ġyour selves
oc ated
Ġ4 6
Ġinc orporated
Ġcheck ing
Ġver te
Ġlink ed
Ġoccasion ally
ĠTer rit
Ġdun no
. &
A G
P ersonal
Ġc inem
Ġto ss
Ġp unk
Ġg est
ĠC L
ĠSt ock
Ġgr ain
ix on
Ġdr ank
ĠChrist opher
Ġsuggest s
Ġunc onscious
Ġconcent ration
Ġsched ule
ĠIndones ia
ĠWend y
in ea
re cted
Ġc ure
le e
ĠC amer
ĠM as
ĠD yn
ra k
ous es
Ġlet s
Ġstay s
Ġdri ft
Ġgen etic
Ġpack age
ĠChristian ity
Ġbub ble
B Y
on ne
Ġh id
You ng
Ġr ude
Ġv ain
ck ets
Ġsp y
Th omas
AR S
ĠAm ong
Ġhun ter
Ġcab inet
Ġattract ive
ĠConne cticut
p rodu
Ġt ack
it is
ĠP ic
th od
ell s
Ġcur ren
ged y
Ġpers pective
Ġnep hew
8 5
n ia
p her
Ġa uth
ri l
Ġsh y
Ġcom ments
au nd
work s
ĠRep ort
Ġmount ed
Ġjump ing
Ġtravell ing
Fin ally
ĠRober ts
L S
b its
Ġt iger
Ġm ild
Ġf are
ot al
Ġhe sit
ĠH ERE
ap se
ud ible
urn ame
Ġsub stance
Ġrep air
ĠZ e
ĠAb d
ĠFin land
Que en
ĠYug osl
v als
Ġ â
Ġthe ore
nd s
im m
ĠL ane
Ġher s
end ar
Ġgu ards
ON G
Ġtre mb
Ex cept
Ġpurch ased
Ġconsid ering
b ound
f ree
s omething
Ġl oop
Ġst y
Ġbr ick
Ġ3 9
Ġreg ister
Ġfollow ers
OU ND
Ġeight h
ĠPl at
sc ar
AC E
ĠON E
Ġhonest ly
rig ade
sm ith
Ġdetect ive
Ġben ch
Cong ratulations
Ġsatell ite
A ss
B ea
D S
o i
Å Ĥ
Ġa cknow
Ġp unch
ĠH op
ĠH unter
ĠO liver
Th ough
Ġres erve
uh ammad
AN S
Ġmusic ians
Ġins pect
ĠPro gram
ĠMal ays
Ġhyd rogen
ĠBudd ha
ĠNaz i
Ġguarant ee
ĠHawai i
f y
ou st
Ġg ently
Ġe ase
ri fic
Ġst aring
ĠM icro
Ġpl ates
Ġspeak er
Ġrul er
Ġmeas ured
Ġnea rest
P art
Ġb ored
Ġc ub
Ġh ire
ve land
ĠS orry
Ġch uck
ĠV ar
Ġdis hes
rop hy
ĠComm and
Ġgrand ma
Ġunivers ities
Ġaspect s
Ġfra ud
Ġgal ax
ĠBase ball
D a
i ary
u art
ĠM aine
Ġsh ots
Ġex ceed
Ġinst all
ĠInd ust
ĠMan hattan
OW N
Ġsch ol
ĠMel bourne
Ġapplic ations
Ġdat ab
Ã£ o
r ont
Ġf ierce
am med
ut ter
ĠL ag
Ġcl ay
au x
Ġsub urb
Ġimp rison
Ġfr anch
ĠMay be
Ġcook ie
Ġjud gment
Ġign or
Ġpattern s
A ugust
V D
an or
ĠT ang
Ġgo lf
pp ers
iz za
Ġhope fully
Ġsoft ly
Ġrom ance
Ġpurch ase
Ġcas ual
Ġalgor ithm
Ġsplend id
P op
Ġd ull
Ġg rief
Ġre le
ĠS ciences
ĠC ru
ĠM ess
Ġse ated
ĠN ature
Ġcomp osition
ĠY et
ock ing
Ġrec all
Ġdifferent ly
At t
Ġelect ro
Ġden ied
su ccess
ALL Y
Ġrug by
S ur
s ch
Ġn it
ic ip
Ġu na
Ġse al
ag an
Ġad ap
Ġcour ts
Ġsmall est
Ġwalk s
Ġaw kward
lev ant
Ġ192 3
Ġrespect ively
ĠPal est
Ġpred ict
Ġdesp air
Mart in
0 5
ĠA ld
if ty
Ġj e
Ġsu p
ear ly
ĠU EFA
Ġbl ast
Ġcont aining
Ġ4 4
ĠPro ject
Ġval id
Ġappro aching
ien na
Ġneigh bors
Ġobs erv
Ġpercent age
B re
i ate
t op
ĠC uba
ĠWar wick
Ġdesign ated
bo at
Ġparticip ate
ĠJer usalem
Ġbrief ly
Ġhyd ro
Ġbatter y
S ounds
m il
Ġt ennis
in ia
Ġc ord
ed e
ĠD C
ĠG rey
ĠF u
Ġle ct
ire ct
Ġun fortunately
Ġcur tain
Ġperiod s
Ġexec uted
rane an
K now
S an
ic ular
Ġbe gged
ĠM ong
Ġr it
Ġex cess
Ġri fle
Ġpain ter
Ġappro val
Ġcontrol s
uk i
Ġhistor ian
ĠAg ain
Ġregular ly
ĠCont in
ĠJun ior
Ġblank et
Ġdea f
C AR
v o
Ġh osp
ĠR oc
Ġ19 19
aw l
IN K
mm et
Ġconsequ ences
Ġshel ter
intend o
Ġoccas ions
Ġearthqu ake
I d
L RB
Ġw isdom
Ġp ond
id ays
Ġ1 000
ill es
ĠD oc
ĠG y
Ġcon vention
Ġor bit
ĠCh ildren
ĠY u
Ġev ac
Ġmark ets
Ġdesign s
Ġlie utenant
mom my
L ord
R RB
u ght
Ġg y
il ight
ist inct
be ing
ail ing
Ġind ex
Sh h
Ġart ific
Ġappro ached
Ġsil k
rem ember
irm ingham
Ġtouch ing
Ġboot s
re z
Ġm ast
Ġor n
Ġv ital
gg ie
Ġcamp s
Ġmult i
Ġconv ince
Ġden y
Ġcontr ary
ĠHoll and
Ġtiss ue
Ġairpl ane
ĠVeg as
3 00
M arch
c ap
f ight
w ear
Ġg a
ĠR IGHT
arm a
oun ter
Ġsub stant
ash a
omm od
Ġest imate
AS T
ipp er
Ġste ady
Ġincre ases
OM AN
ĠTrans port
ĠPortug al
ĠHind u
uer to
5 7
H igh
j amin
en h
ĠL ang
Ġ19 17
ide o
Ġmar ch
ĠCount ry
Ġmain tained
de f
Ġrad iation
Ġmot iv
gress ive
Ġsuit able
Ġtransl ated
ĠBet ty
Ġflu id
ĠWind ows
Ġreject ed
ĠGoo gle
comfort able
" :
a ver
re ction
Ġp ip
ĠS ah
ĠB av
Ġapp les
âĻª âĻª
ract ed
Ġchem istry
ĠPhilipp ines
Ġm r
Ġin fection
out e
ĠB ulgar
ĠP ut
ĠT en
ĠN an
Ġab ol
Ġcon gress
Ġv ig
per ing
ec utive
Ġmon itor
Ġstate ments
ik h
ple te
ĠRe al
ĠAd miral
nat ural
Ġvoy age
Ġb ills
Ġm ac
Ġf ame
Ġl os
ro b
ct rine
ĠW r
ĠL in
ĠO d
ĠHe nd
Ġco inc
ĠSh in
20 10
Ġprom ote
AR K
Ġelect rons
Ġdev oted
ĠMus lims
ĠLa ure
Ġge omet
aret te
amil ton
ĠBangl adesh
Ġaccompan ied
M ur
T ube
n est
u ine
Ġa ye
ĠC OM
ra ig
ĠK evin
eb r
Ġpartic les
Ġcamer as
Gu ys
Ġlyr ics
8 7
o qu
s ub
t ic
Ġa er
nd ing
or ig
us c
ĠS in
Ġcl ick
ci o
ĠCh ip
ne cess
An n
Ġmer ry
IC K
Ġjud ges
AP P
Qu ite
Ġarg ued
ĠRob inson
Ġintellig ent
Ġdelight ed
ĠId aho
F ar
l an
ĠP ap
Ġr ushed
Ġpro spect
rap h
Ġmod er
Ġeng agement
Ġve ter
Ġfac ulty
Ġvot ing
Ġsand wich
hell e
ĠMem orial
Ġintellect ual
M il
Ġt ide
Ġh ip
ĠH ills
ĠB urg
ant e
ul ner
ĠL ow
Ġv ocal
ru cture
umb led
Ġdifficult ies
Ġcitiz en
Ġagric ultural
M at
N or
N umber
S P
W ater
c u
Ġg re
Ġe fficient
Ġwh ilst
ĠT an
ĠW oman
ist a
Ġor ph
Ġcomp ound
Ġacc ommod
Ġkill s
Ġmus cle
Ġgl ory
ĠTHE Y
Ġann iversary
ĠSu pp
Ġham mer
ĠTechn ology
R eg
c at
m und
Ġd ated
Ġth umb
ĠC are
our t
Ġr ating
ang a
og ne
sel s
Ġbu zz
sh op
Ġloc ations
anna h
Ġclass ified
Ġworth y
Ġconsider ation
Ġdeli very
Ġfro zen
Ġregist ered
Ġunex pected
c ourse
Ġc od
ll or
Ġd ict
et ies
am as
ĠA ge
ĠB ry
ĠP ho
ol o
th ought
ĠF BI
Ġ4 9
Ġinter ior
Ġresult ing
rell a
dad dy
ĠCommun ist
ĠPict ures
4 00
d ec
r ous
Ġt urb
re k
ou g
Ġs ink
ar se
ĠC row
ĠH ouston
Ġal ien
ĠF ern
ig ma
Ġ19 18
Ġtr act
Ġacc ord
ream s
ices ter
Ġdemand s
ĠBu ilding
Ġconver ted
8 3
d ed
h ol
re hens
Ġh itting
Ġl aughter
et a
ĠP as
ib i
gr at
Ġcons isted
Ġlist s
enn ifer
Ġcult iv
Ġsurpr ising
urt is
Ġmir acle
Ġopt im
Ġsuspect ed
Ġscarce ly
t ra
on ial
ĠA my
ĠN ation
Ġv ib
Ġpres um
ĠSo on
Ġvis iting
ĠMet ropolitan
Ġdial ect
Ġpartners hip
Ġrhy thm
ĠCE O
B R
S ame
p arent
p iece
Ġf isher
us ions
Ġbe ans
Ġe ffici
id ers
ĠD allas
ĠN HL
ĠE ddie
ass es
Ġgr at
ĠIn spector
Ġperson nel
Ġ8 5
Ġpresent ation
ĠAb b
ĠTe levision
Ġinj uries
Ġoccup ation
Ġder ived
Ġconstitu ency
6 7
B ER
M orning
N at
c or
v ision
w hel
re f
Ġp orn
Ġl ane
Ġre tain
il ation
ag en
ian e
Ġfl ies
Ġcar go
Ġstr ings
Wh oo
Ġ192 4
Se ven
IM E
Ġaccur ate
ĠBelg ium
at on
ĠC ow
ul u
ific ent
Ġtri angle
Ġpen ny
Ġtrust ed
Ġfem in
Ġpeace ful
Ġattract ed
Ġarrange ment
Ġquant ity
Ġhyp ot
Ġexplos ion
ĠPitt s
u ary
Ġg ates
Ġbe ard
im ens
ĠS ky
ĠW inter
ĠL or
qu et
Ġsomet ime
az y
Ġpain ful
head ed
amm ar
Ġrese mb
Ġterri bly
Ġanx iety
Ġagric ulture
J apan
M P
w anna
y cl
Ġs urname
nd ed
ĠC hat
ĠB asket
il er
ol ine
ie val
Ġfe ast
Go ing
Ġdesign er
ĠAnge l
Che ers
Ġremark ed
fortun ate
ĠIm perial
ĠOb ama
ARR ATOR
ĠRea gan
B u
J uly
a hedron
n ut
t oo
in ating
ad er
ĠS weet
ĠN intendo
Ġv it
ĠU pper
Ġsp oon
oc ese
Ġrest ored
Go vern
Ġce ased
Ġfrog s
ĠBrazil ian
Ġdiagn osed
Ġbatt les
ĠAth let
z i
Ġc ared
Ġsh aking
Ġr ust
ĠL ive
Ġfood s
entle men
Ġport ray
Ġarg uments
ĠHel en
Ġd ick
ĠB eng
ĠP ear
un ted
Ġcl ients
act ive
Ġback wards
Ġen zy
In stead
ho le
Ġexp ansion
Ġtra pped
AT H
Ġri g
Ġmur m
Ġ192 2
Ġmad am
VER Y
Ġveget ables
ĠFre ud
ĠDet roit
Ġconclud ed
ĠHug hes
S n
T er
h our
Ġb orough
ac co
ri ly
ĠD al
ĠL t
ĠO rigin
iv ia
ĠIn stead
ting ham
Ġpres erved
Ġdr um
Ġhuman ity
Ġdep uty
Ġnomin ation
Ġdistingu ished
Ġalph abet
8 8
M O
M er
e ight
s w
Ġst iff
op er
Ġr age
ĠG ab
ĠJ oy
ĠK an
Ġtrans ition
Ġpublic ation
ĠTH ERE
Ġmer c
Ġemploy ment
Ġfort un
ĠAg ency
J oseph
N ER
N arrator
x ide
Ã ł
ent in
ĠS U
ĠS ud
ĠM AN
Ġk m
Ġ19 14
Ġdes cent
olog ies
of fe
Ġ192 1
Ġdin osaur
Ġcreat es
ĠSqu ad
J une
R ock
h ot
Ġf ruits
Ġp ile
ĠC old
Ġli ver
ĠĠ ĠĊ
ul ance
ĠG ra
est yle
amp agne
Ch uckles
ĠStew art
6 00
B est
E ll
S R
W al
he ster
Ġb in
ro ck
ĠM it
ner gy
not hing
omp son
Wh ite
Ġconf usion
Ġdepart ments
ĠBar ry
Ġtrad ing
Ġfeat uring
ĠProtest ant
= "
C ertainly
E le
p res
Ġt id
Ġb ind
ad ays
ĠB uff
ĠT ae
Ġch op
ov ak
Ġmother s
Ġdef ine
Ġcommand ed
Ġmechan ical
Ġmicro phone
ĠDen mark
Ġbelief s
Ġwrest ling
ĠUk raine
ĠNap ole
ĠWel sh
L ING
O ff
S upp
in cial
or g
ĠB O
ĠT amil
ĠR io
Ġqu e
ĠV I
Ġunder t
vel ope
Ġret reat
Ġdec ade
Ġdra gged
iter ranean
Ġmem orial
Ġsal ary
Ġfeed ing
Ġpuzz le
D el
J oe
L adies
M ont
m od
Ġw age
an other
Ġf est
Ġf ib
Ġth irst
Ġn asty
Ġat oms
ĠL uke
Ġpol ite
gr ade
Ġdiv ine
ĠSe ven
Ġpossess ed
ĠWay ne
ĠConfeder ate
Ġassh ole
Ġtremend ous
Ġfict ional
r ations
s an
in burgh
Ġw ives
Ġf ires
ĠN elson
iz a
ĠIn f
Ġpol ar
Ġmat rix
RE AM
Ġeffect ively
Ġlow est
Ġhar vest
THE Y
Ġtravell ed
ĠWalk er
Ġdign ity
! '
Ġt ent
Ġh ollow
Ġd oo
le ans
ĠS ri
ĠC hel
ĠB R
ĠB irmingham
Ġj ungle
Ġso vere
od s
Ġtw ist
Ġmist ress
Ġver se
ĠCle veland
Ġliber al
0 6
A ust
H it
or able
Ġst ake
Ġkn ight
ĠCh and
Ġbr ains
Ġres olution
Ġconf ront
Ġtest ed
Ġmembers hip
Ġvers us
Ġexec ution
Ġweak ness
ĠCamp bell
Ser iously
Ġfeather s
, [
G old
l aughter
r ating
z ard
he ld
Ġf eared
Ġg ig
Ġg ene
ro id
ĠA aron
ur u
Ġgo in
th s
ra wn
Ġman ifest
be an
Ġpre v
ĠY e
ĠY an
Ġsur ve
Ġbed s
Ġself ish
ĠLou ise
Ġload ed
ĠApp le
7 7
M al
on om
Ġn aught
ac re
ĠH ell
ĠR ick
ĠL isa
ĠE P
ĠK arl
Ġun comfortable
pl ess
uck s
roll ed
Ġmole cules
Ġunivers al
ĠBru ce
ĠLI KE
an im
Ġd iver
op les
ĠL ast
ĠCh ild
Ġcomp onents
ĠMar ie
Ġcons cience
amb ling
Ġmist aken
US E
Ġstret ch
Ġstret ched
Ġgodd amn
Ġsitu ations
ĠDie go
C ons
c od
h alf
p hy
Ġl es
Ġch airs
ap ing
Ġdown load
ĠTh rough
Ġmust n
Ġinv isible
ream ing
Ġclass room
ĠAust in
sp eaking
ĠDes pite
Ġpan el
Ġmathem atics
ĠBroad way
igr ants
0 9
M ag
ar us
ĠS i
ĠP uerto
ĠL am
Ġ( ),
ne ur
Ch ief
Ġsk ull
ĠWar ren
Ġcond em
mark et
Ġwid ow
ĠBrook lyn
A c
A LE
B orn
K im
U se
u is
à ¥
ed ge
Ġl aura
ri um
ir ation
Ġli p
ĠN ich
ort ion
Ġsa iling
Ġle ather
ĠV ienna
Ġsc oring
Ġhelp ful
Ġche f
Ġsqu ee
Ġgen uine
Ġtreat y
Ġconv icted
Ġsteal ing
Ġflo ating
E ver
M el
P retty
U gh
h ou
i op
Ġ {
Ġc ows
Ġh int
Ġd ot
ur bed
Ġse ar
ol ia
Ġab e
ov ie
Ġthr ust
ob s
Ġsy nd
Ġtop ic
Ġpract ices
ÃŃ a
tr ack
ĠPers ian
P ri
R oger
p ack
r ator
at um
Ġc able
ĠM uhammad
ter m
ĠD aw
Ġ19 00
Th rough
ĠAl b
ĠAl fred
Ġcons pir
Ġprodu ces
Ġprov ision
Ġstri king
Ġfranch ise
m ic
t it
on ing
Ġc ouch
Ġm aps
Ġf iring
ar ation
Ġre venue
am ous
Ġst ead
ĠR ights
ĠF il
ĠF ine
Ġv ulner
ĠMar shall
Ġcap s
Ġart istic
ann els
ĠCon vention
wh ite
Ġcop per
Ġinvol ves
Ġprocess es
Ġobs er
Tr ust
Ġtravel ing
gu ard
Ġrout ine
Ġnetwork s
Ġclim bed
Ind eed
Ġdiscip line
ĠTurn er
thod ox
B oss
in ch
ou ver
Ġl amb
ĠD ragon
Ġj oking
ĠE nt
oc ation
az ines
Ġcir cles
ĠMc G
ĠNe xt
Ġpoll ution
Ġsole mn
Ġcrop s
ĠAuthor ity
W on
ve t
ĠC re
ĠYou Tube
Ġ4 3
ĠCl inton
uss ian
Ġland scape
Ġsuggest ion
Ġz oo
ĠRoman ized
Ġsurv iv
Ġconcer ning
igen ous
H alf
H oly
N ARRATOR
d isc
Ġs its
an ia
ri ver
ill ery
Ġtr am
Ġpe e
we gian
Ġpo ems
Ġ5 7
AN G
Ġcontin uous
ĠAf ghan
Ġbur nt
Ġunc ertain
Ġresour ce
Other wise
Ġspr ang
Ġpros per
b ul
Ġthe rm
Ġw ounds
it ated
Ġc ough
ĠT ob
ell i
Ġj er
ĠR ow
ĠF ollowing
Ġar c
og a
Ġhigh light
Ġsent enced
Ġfell ows
ĠBar on
Ġpen cil
reed om
ĠMil itary
ĠNorm an
Es pecially
ĠHit ler
u yeh
Ġd owntown
et tle
us cript
ĠC ob
ol and
ĠL ower
ĠK ang
Ġover whel
ĠV O
iss ance
Ġsc en
Ġpre y
Ġown s
Ġadd ressed
Ġtax i
Ġbacter ia
ĠAB OUT
Ġhelic opter
5 9
n al
Ġc ul
Ġm art
ing o
Ġbe ef
ion e
Ġre ception
se en
ĠC ur
Ġan th
ĠB ak
ant h
ĠG U
Ġcan al
ĠR achel
sh aped
ĠSp rings
Ġpract ically
Ġdeep er
Ġcook ies
Ġrout es
Ġlink s
Ġmamm als
M ac
m ph
Ġf etch
ĠM aur
Ġr ounds
ĠG arden
ĠR ah
ĠF ri
ĠE th
Ġpe as
Ġser ial
Ġind icated
Ġcons ervative
Ġmed als
ĠX X
Ġhar sh
Ġpal m
iff s
Ġcow ard
0 8
F ree
in ate
or o
Ġn aval
ac ent
Ġas sembly
ĠP un
ĠR ap
ear ing
fe ld
Ġcomp are
AR E
Ġexpl ains
Ġpost ed
with out
off s
Ġbur den
ĠMet ro
ĠSand ers
Ġbub bles
Ġalleg ed
T im
W oman
d el
l ord
v as
Ġa irl
re a
at is
Ġo l
out ing
Ġcl ar
ens ed
ĠTh ird
Ġpubl isher
ik es
aster y
Ġpolit icians
ĠOr ange
Ġsn eak
Ġbelong ing
Ġmechan ism
ĠDar win
C ount
w right
an ium
it ical
... !
ĠR ud
Ġv s
Ġex ternal
Ġcl own
Ġcomp ens
Ġcomp ounds
Ġrec ip
eb ast
Ġdream ing
Any one
ĠPer haps
ĠRom ans
Ġimpress ive
ĠCost a
" '
C ent
b ish
Ġg ender
ĠC ole
ĠH and
ĠB ou
ĠD in
ab i
ĠJ enny
Ġun employ
Ġam ateur
Ġbl own
Ġbl ows
Ġbel oved
ĠĠĠĠĠĠĠĠ Ġ
Ġfin ance
ener ation
Ġinst antly
eg a
Ġfuck ed
amb ers
Ġhar bour
ĠHarr ison
Ġnegoti ations
K n
S A
V al
l ist
l ines
y ers
Ġs ung
Ġb um
ĠA ud
ĠM erc
ĠB art
ĠP ed
Ġr aw
ĠF A
Ġch im
ĠK a
ĠCh amber
Ġsc attered
Ġbu cks
ult an
ĠBe ck
ĠOr leans
Ġav o
ĠNot tingham
ĠHigh way
Ġnin th
Whe ther
* *
w ent
Ġt u
Ġthe ories
Ġw ax
Ġm and
st eps
ĠC ook
ĠT ak
ĠD ID
ig ious
ĠO p
uck land
Ġcre ep
ĠGr ace
Ġdiv isions
Ġstat ue
Ġenjoy ing
ĠFrank lin
Ġsched uled
Pol ice
Ġn om
Ġn avig
ĠM ust
ell ig
Ġsc andal
Ġdis order
Ġinst alled
Ġwar rant
Ġcoll eges
ON NA
ĠAll ah
Ġbar n
Ġste ep
Ġdin ing
Ġmeant ime
Ġsevent een
Ġgar bage
Gu ess
ĠLeg isl
Ġl un
ay er
am o
ĠH IS
ĠH amilton
Ġnot ion
Ġsh apes
Ġcar ries
ĠSh a
Ġfew er
ĠMed iterranean
uel a
ĠMad rid
Ġsail ors
Ġeld est
Ġhousehold s
ĠBrother s
Ġlin ear
B as
M ight
g reen
ay an
Ġre he
ir rel
ĠD ale
Ġcon grat
Ġcl ue
ov al
ĠY outh
Ġreg iment
Ġpres ently
Ġed ges
Ġmag azines
Ġder iv
Ġcurren cy
L ady
h ill
h ang
j u
s n
as ures
Ġg ifts
ĠS now
ĠC hen
ĠB ond
ĠB ird
ĠL ion
ĠF at
Ġsp ots
Ġgr im
Ġad am
oc ity
Don ald
Ġcons ent
Ġgl oom
Be ing
ĠEd win
ĠEd inburgh
Ġcal endar
ĠRoman ia
De f
ĠGirl s
Ġphotograph s
Ġneut ral
ebr aska
0 1
0 2
5 4
h igh
Ġb ri
Ġb icy
Ġin aug
ĠB ey
li er
Ġ4 1
Ġext ension
Ġwin ners
Ġbas ement
EN D
Ġmis under
ĠDemocr ats
Ġhol idays
Ġartific ial
l ace
Ġb ust
ĠH IM
ĠL as
Ġ19 16
Ġun fortunate
Ġ8 00
Ġtri but
Ġlight ing
Ġbeh ave
Ġcontin uing
ĠHar vard
John ny
Ġreb ell
ĠLead er
ĠAdminist ration
P ull
b oth
g ic
ã ĥ
it udes
ic ia
am ma
Ġcan cell
Ġal ike
ĠJ ournal
ĠJ uan
Ġpro cl
Ġkind ly
Ġpoint ing
ars on
Ġass ure
iet h
Ġexper iments
ĠOr chestra
ĠEx ecutive
Ġbutter fly
ĠCommission er
A f
L aughs
l ings
m ust
Ã ¸
Ġ %
it ate
ĠT al
ĠE mer
ĠCh ance
Al most
Ġarch ae
Ġinf inite
ĠMad ame
ĠFred erick
ĠLuc y
Ġadap ted
ĠBasket ball
7 6
9 2
is n
Ġo ath
Ġe y
Ġre ct
am ation
ĠM es
ĠF arm
ĠN ancy
ĠJ i
âĢľ âĢĺ
ĠSh ort
Ġinter fe
Ġrecord er
ster dam
Ġprop os
ograph ical
ĠSam uel
Bill board
O ctober
P H
i ge
m aker
p se
Ġwe lf
ĠM s
ch ildren
ĠB ox
ĠT it
ĠW ard
ĠD ennis
Ġal ter
Ġch oo
Ġdis gr
Ġleg it
ĠFl ore
Ġstick s
Ġsens es
Ġencour aged
0 4
8 00
T onight
b ai
m ble
on ce
ch arge
Ġj ur
ĠR alph
Ġtr icks
ĠIn g
Ġass ets
Ġass ured
OU R
Ġsent iment
Ġrequire ments
rain ian
Ġassign ment
Ġwelf are
g i
u um
y th
Ġw ipe
Ġb ury
Ġc ott
ĠD VD
ĠR og
ĠN iger
ag ine
ond e
Ġreal ise
Ġbus h
Ġcoll apse
Ġins isted
wh oops
Ġdem ol
Ġpur se
Ġrul ing
Ġcompan ions
Ġtour ist
Ġprote in
Ġrat io
ĠSard inia
ĠAthe ns
Ġsuspend ed
E ast
H aving
c row
if ies
Ġch lor
ĠE li
Ġint r
ank a
Ġdes ired
Ġform ing
ĠCal v
Cl ub
Ġdro pping
ĠMed al
Ġsett lers
Bet ween
ĠFar mer
Ġindic ate
Ġwhist le
Ġbom bs
Ġinspir ation
F red
Ġa rose
is ons
Ġre un
Ġre verse
Ġst ern
ĠD arling
Ġsh orter
ĠN ed
be at
Ġ6 6
Ġev olved
Ġaff ili
su pp
Ġhero es
Ġtransl ation
comm unes
Ġadvert ising
A pril
P ort
á ¹
Ġw agon
Ġs oph
Ġm ister
Ġf lex
Ġp oo
Ġn erves
Ġre nd
Ġre jo
ĠT R
ie ved
ĠK az
Ġbu ck
Ġres idence
Ġmar sh
Ġban ana
ĠPL AY
Ġsymp athy
? !
B ro
E uro
P R
a ired
m ers
ĠH um
ĠB und
ĠR angers
Ġar ray
Ġapp arent
vent h
ye ong
Ġsw ept
Ġtra gedy
Ġdef ensive
Ġaf fection
Ġphot ographer
ĠEn vironment
gu ing
Ġhung er
Ġbell s
Ġchap el
Ġpig s
ĠStud ies
Ġchart s
Ġresident ial
Ġguitar ist
Ġliber ty
Ġsubs id
Ġgor geous
M ax
N ovember
s a
he lp
Ġf its
Ġp ressed
ĠI mp
ke e
ĠT oad
Ġgo at
ĠL abor
ĠL aura
Ġab und
Ġch annels
orn e
Ġ5 6
Ġdest iny
Ġesc ort
Ġsad dle
Ġclim bing
Ġcommunic ate
ĠBet ween
Je an
D em
s ki
Ġc ents
im mer
ĠS ara
ĠP ie
ĠD ark
est one
ĠL en
Ġso d
ĠJ osh
Ġman ip
Ġcomp r
Ġrec overy
Ġ7 2
Ġ8 8
Ġsleep y
Ġlay ing
Ġplant ed
Ġsoul s
ĠJo el
Ġpun ish
o j
Ġp aus
Ġre li
im ony
ĠA uckland
ĠB ri
ĠB ach
ĠB enn
Ġcon j
ful ness
ĠMar ine
Ġform ally
ash i
ene z
Ġexpl o
Ġcompet itive
ĠDel hi
Ġcig arette
i ors
k ov
p ot
ĠS everal
ĠH ER
ĠG or
Ġal ert
Ġman uscript
ag ram
ru p
Ġpo le
ĠFr ont
Ġent re
Ġdec ides
Ġfather s
Ġorgan isation
ĠAb raham
Ġsun shine
Ġmix ture
Ġlog ic
bel iev
Ġadvent ures
Ġplatform s
ĠLiber al
Ġprecise ly
ĠRus sell
Ġfoss il
B on
D ude
b ishop
m are
o an
r ice
Ġto b
ar an
Ġp ant
Ġl od
om on
ĠS of
ĠS oph
Ġde als
ĠR ena
ess a
Ġsu its
Ġ( _
ĠE ld
ĠV incent
Ġcoll aps
Ġeng age
ĠPl ace
Ġdrop s
Ġreve al
Ġpurs ue
Ã¢ t
Ġtroub led
fr ont
Ġproport ion
C alm
M in
S eptember
Ġb onds
Ġp atch
Ġn erve
Ġwe igh
ĠC arm
ĠP hys
ĠHe art
Ġover se
sh i
Ġclass ification
Ġconst ruct
Ġpat ri
ĠLe o
Ġtravel ed
Pro fessor
ÃŃ n
Ġut il
Ġpan ic
Ġnickn ame
Ġdisg usting
9 4
C ast
G A
M I
Ġt ast
Ġt ang
Ġh ind
ch anged
ĠB ab
ĠT rent
op ed
Ġch in
ĠTh ompson
Ġhapp ily
Ġpo ckets
ĠY ang
St ation
20 17
Ġgener ous
Ġaw ait
Ġappear ing
Ġcost ume
Ġfre ak
Ġeconom ics
cast le
Ġobs ervation
Ġpack ed
Ġcivil ization
ĠMur ray
ondisse ments
Ġsequ el
Ġcateg ories
ĠPen insula
Ob viously
ĠTerrit ory
Ġauth ors
5 8
C a
E AH
S ing
T ony
c ried
s qu
Ġt um
Ġs ulf
Ġp ills
ad v
ĠG ONNA
el ia
ĠN ice
od ore
ci ly
ov ich
Ġatt ribut
ĠDe ad
ĠAl aska
ĠCl ar
Ġmed ieval
Ġdead ly
Ġfree ly
Ġdeal t
ĠWh ich
ĠCent ury
Ġrecogn ised
ĠHigh ness
Ġwa ist
Ġcritic ized
Ġpra ise
Ġestablish ment
Ġdatab ase
# _
E asy
F OR
H aven
L aw
R ad
b one
g ans
Ġs ore
at ar
Ġc emetery
en ne
Ġhe nce
Ġas semb
ĠB ed
ĠB eth
ĠP it
ĠF itz
ack et
az on
Ġrock et
ĠBen jamin
Ġrank s
Ġconsum ption
Ġdies el
ĠBalt imore
Ġmolec ule
gil uyeh
ĠKoh giluyeh
P ER
R et
g age
l u
v ate
x ual
Ġp ier
Ġhe ir
ol ph
ĠL is
ĠL ot
ĠN BA
Ġex it
ĠSt uart
Ġqu ad
Ġen velope
av i
ĠAd v
ĠSe attle
Ġgen es
Ġbull ets
Ġsle e
ĠAtl anta
Ġsymb ols
ĠUt ah
M et
N ational
S ave
S hoot
m al
p ost
Ġb er
ĠP rop
ĠW rest
Ġde er
ĠF all
Ġ19 10
Ġbu nd
ec il
Ġ5 1
ten ance
ĠPr adesh
ĠCl ay
Ġ9 6
Ġcontin ent
Ġopp onent
Ġpopular ity
str ong
aly mp
ĠNor wegian
Ġcondu ctor
ĠStud ios
ĠDev il
Ġgather ing
Ġoblig ed
D et
E X
H ard
P A
b ian
Ġ âĻ«
re b
ĠR and
art ed
Ġch oices
ath aniel
ĠY ale
Ġdif f
ctor al
ane ously
ĠPr ice
Ġvis its
Ġrepresent ation
Ġphys ician
Ġant icip
Ġrob ot
Ġrob bery
hand ed
mar ine
Ġamb ulance
Ġtransport ation
boy s
Ġsitu ated
adu ate
ĠHistor ic
Ġbot hered
R on
as a
ĠB aker
Ġr ang
ist ant
Ġout ta
Ġno on
ĠK eep
fl ies
Ġfight s
Ne ither
Ġpray ers
Ġrub ber
him self
Ġarrange ments
ĠAN Y
Ġexha usted
ĠPitts burgh
S un
l ove
n ik
Ġt ag
on ge
Ġd ared
Ġto es
ĠI van
ay ne
ro c
Ġch ips
Ġv ague
Ġpe asant
ach t
ru ck
ail and
Ġkind ness
arm ed
aj i
Ġgener ations
Ġcur s
Ġthreat ening
Ġbell y
Ġassoci ate
Ġappl ause
Ġign ore
Ġwealth y
Ġschol ars
0 3
C oming
I mp
J anuary
u ction
Ġc ust
Ġd ough
Ġp airs
ĠM abel
ch uckles
ĠL ux
Ġch oir
ĠE mma
Ġv o
ink ie
ĠK ey
ĠK itty
ach i
cl osed
Ġdis pl
Ġ7 7
ina udible
Ġsign als
Ġexp osure
Ġbar g
zer bai
Ġabs urd
Ġident ical
ĠGree ks
Ġopin ions
Ġcontribut ed
Ġprefer red
Charl ie
K at
g iving
pt ions
Ġser geant
ative ly
Ġpri ests
Ġhar ass
Ġdecl ine
App lause
Ġcharm ing
Ġtort ure
Ġwra pped
F rench
H A
H ome
s pring
Ġc hess
Ġd ub
Ġp anc
ĠT erry
ĠW onder
Ġher itage
Ġtr ash
Ġsp ray
ĠIn n
ĠTh or
anc ouver
Ġinv itation
Ġ8 7
Ġlight er
For give
Ġsupport s
Any body
ĠPark er
Ġperm it
Ġmid st
Ġsurv ival
Ġpra ised
ĠNapole on
Ġp ace
id ance
Ġre aches
st able
ĠL amb
Ġch ip
Ġcar pet
gin s
Do or
Ã© t
Ġnice ly
eng u
co ver
ĠHer itage
Ġdirect ors
ĠPre fecture
Ġsuspic ious
mill ion
? âĢĻ
M or
i able
o ffic
Ġthe at
Ġhe m
am ents
ĠS ound
ĠC urtis
um ns
ĠO cc
Ġcount s
Ġ5 2
ĠAn cient
Ġ8 3
Ġ8 9
ĠThere fore
Ġattack ing
IT T
Ġhop eless
ĠMon te
ĠMont real
Ġbless ed
ĠWI LL
heim er
Ġsubsequ ent
Ġcheek s
Ġsoci eties
ĠSid ney
Ġfab ric
Ġsatisfact ion
ĠBav aria
ĠCalv ados
Ġtob acco
, .
5 1
G erman
H arry
M ine
W onder
in stein
Ġp udd
ĠH ig
ĠF und
Ġv ine
ĠK on
iss ions
Ġcount ed
Ġmin i
ĠMar io
ier ra
Ġtri b
Ġfore head
com es
Ġ25 0
osaur us
ĠHung arian
Add ons
Ġthorough ly
V EN
l ater
w ering
Ġo ven
ar c
Ġp istol
and ed
ĠF al
Ġso cks
ĠJ ill
ĠJ ake
Ġsec ured
Ġ5 4
Ġ8 6
ĠGr ammy
ĠPar alymp
com une
Ġrev ol
ĠQue bec
Ġtravel s
Ġcred its
ĠJeff erson
5 2
G as
M L
M ah
N ick
R oll
u ity
us a
ĠB oss
ĠO R
Ġv olleyball
ra h
Ġqu eer
Ġper pet
ial s
ib bean
Ġ9 9
Ġball oon
Ġdepart ure
Ġce iling
ĠAm sterdam
ĠEx cuse
Ġbull shit
Ġredu ction
Ġcontract s
Ġbound ary
Ġmanufact uring
A ng
G reen
W OMAN
Ã ª
at ra
Ġp ic
Ġp ine
ĠI ron
ĠM ans
op al
th ings
Ġr ape
em ale
Ġgr an
Ġqu ote
ne um
Ġun re
Ġsol ved
ĠMan ip
ĠSy ria
ĠFel icity
ĠVill age
F ollow
s ometimes
Î ±
ed ed
Ġg reed
st ock
ĠA hm
Ġj am
ĠE arly
Ġ19 12
Ġhome work
ubl in
Ġlight ning
Ġtrans mit
ĠDo es
Ġcult ures
ĠDef ense
Ġembarrass ing
Ġancest ors
B er
B ur
V ID
p it
re my
Ġf et
Ġp ian
Ġg rie
ĠS cient
Ġst ove
ĠC atherine
Ġu mb
ol is
ĠW ol
Ġsh ocked
ĠJ ar
res a
ĠK am
Ġmake up
ĠAl ber
less ness
ĠCol omb
Ġrad ical
Ġcook ed
Ġadm ire
Ġobs erve
Dr ink
Ġtherap y
S end
Ġs ank
ri ans
Ġan ge
ĠF alls
Ġso ccer
res pect
ĠK irk
Ġtr amp
ĠV ik
hy l
ĠTh ough
Ġpres erve
ann on
Ġarm ies
Ġaut umn
ĠMag azine
Ġox id
A lp
L ee
R ay
W in
b rew
w on
Ġt enth
ĠC R
ĠM orning
ĠF uck
Ġcon vert
Ġch asing
ĠK aren
AN K
Ġdet ailed
Ġreport ing
Ġinvol ving
Ġla wn
Un fortunately
Ġperm itted
Ġprior ity
osa urs
Ġconsequ ence
ĠSpeak er
t ree
Ġw are
Ġd io
Ġp ub
ro st
ĠM oz
Ġex clud
ĠK ate
iv als
Ġun ited
hy d
ĠAr d
Ġbre ed
Ġev alu
Ġans wering
ĠMark et
Ġclos est
Ġtemper atures
Ġload s
Ġrequest ed
ĠMah ar
Ġlung s
ĠBarb ara
Ġcorpor ate
Ġpremie red
W orld
m ount
Ġt el
ir able
ill o
ĠR ound
ĠN am
Ġpe oples
Ġen s
ĠV ic
sh ow
Ġmus cles
br id
cy cle
Ġ9 5
Ġhur ting
ĠFor ces
Ġprot ests
RE E
Ġprotect ing
bl ood
Ġreact ions
Ġpun ished
ĠIsrael i
heart ed
bird s
A ir
F air
I X
I r
u f
u ana
Ġs ack
ĠH em
um ed
os oph
ĠJ en
ĠE nergy
ove l
Ġen h
Ġstr angers
St ud
US IC
Ġdepend ent
Ġdefend ing
war f
Ġaccomp any
Ġbetray ed
Ġing red
ĠJos Ã©
. !
B o
P ass
W alk
b ig
c ond
w ed
Ġt ales
Ġhe n
ĠS oo
ĠC ry
ĠM ind
op ing
ĠG raham
ĠR et
ĠE ver
od ed
ĠLe v
ĠTe le
Ġbott les
Ġcry stal
Ġfear s
ĠReg ional
Ġdress ing
Fuck ing
Ġmurd ers
Ġannounce ment
Ġhosp itals
F ebruary
h aw
w ife
Ġe ats
ac ea
ri et
ĠA P
ĠM ack
ill er
ĠB L
ĠD J
Ġr att
ĠG un
est ed
Ġup side
Ġch ir
ich i
Ġoff ensive
Ġqu id
Ġbr ows
In ternational
vel t
Ġmin es
oot s
Ġfin est
app er
Ġlear nt
ĠLe icester
AL K
Ġlad s
De cember
Ġdisp ute
Ġcontribut ion
Ġpill ow
GR UN
Ġconsec utive
ĠMicro soft
F ollowing
S PEAK
p ow
Ġw ider
Ġp izza
st ill
ro ph
ĠP ir
th y
Ġcomp onent
ĠV is
int erest
Ġcol umns
Ġ9 2
Ġcharacter istic
Ġport rait
Ġvol t
Me anwhile
Ġstick ing
Ġfat al
ĠLi u
oty pe
ĠAfghan istan
believ able
8 1
L es
S ister
l ength
m uch
r and
á ½
Ġf itted
Ġl emon
ĠS uff
ĠC raig
ĠW WE
ĠJ ason
ĠJ esse
ĠE N
Ġpl ug
ĠK now
Ġco ins
Ġcur se
ĠCar ibbean
ĠFl ight
IT Y
Ġimag ined
Ġinvestig ate
Ġprec ip
App arently
Je ff
ĠGe off
Ġjun ction
Ġhel pless
Ġcontrovers ial
Ġcomed ian
l ia
m ag
Ġw olves
Ġs unk
Ġh ipp
ar ter
ĠP eak
ol id
ĠL ore
Ġar row
Ġag encies
ah n
ĠAl ger
Ġread er
Âł Âł
Al ice
Ġspeak ers
ĠTr ade
Ġsend s
rer s
ĠMil an
Ġpsych iat
Ġexcl usive
Ste ve
Ġlegisl ation
Ġdismiss ed
M s
W ake
or ship
en cer
Ġin ev
ĠS uz
ro v
ĠM ach
ie u
Ġle nd
orn s
Ġ5 9
Ġob sc
Ġref lected
Ġsuggest ing
Ġobject ive
ĠPer ry
Ġfarm ing
Ġfirm s
Ġpsych ology
WE LL
Ġsignific ance
Ġstrugg ling
Ġtur tle
Jim my
Ġcontrovers y
Ġvel ocity
includ ing
ĠPho en
E st
S us
W AY
is ure
it ness
Ġd ent
ĠM ason
ĠR ub
ĠR abbit
ĠV ancouver
Ġcr ashed
gr ic
Ġsur geon
Ġprodu cers
Ġtri ple
Ġnat ives
oose velt
Ġclean ed
Ġant ib
ĠRich mond
Would n
tt es
ĠBoy s
Ġfrequ ent
Ġprepar ing
ĠUk rainian
Ġaccompl ished
Ġcinem a
pher d
Ġlect ures
T ur
n orm
Ġw ag
Ġm aj
ed a
ĠS ac
ĠB oe
ĠE lect
Ġdon key
ous ed
Ġtr ump
Ġcr ay
Ġsw itched
Ġ6 00
ĠPr im
Ġfilm ed
Ġhon ored
ĠGu y
ĠPer u
Ġsurv iving
Ġ189 0
ĠMag ic
Ġmagn ificent
Ġdelic ate
Ġcompar ison
ĠMedic ine
necess ary
H ell
J an
J ac
M ummy
P L
_ _
e re
n um
ou x
Ġp ad
Ġp ul
Ġl ou
Ġst ro
ĠP il
ĠR oute
Ġbr ut
Ġbl oke
Ġapp et
gr and
Ġsk i
ĠX V
Ġcand le
Ġemploy ee
ĠAg ent
Ġbless ing
Col onel
ĠArgent ine
Ġborrow ed
Ġwarri or
ĠMove ment
C ool
Ġd ried
et on
Ġwas ted
Ġdo ck
ĠT reat
ĠR idge
Ġ19 13
ink le
ĠK il
Ġacc um
Ġsl ope
Ġche aper
Ġmet er
Ġ6 2
Ġhard ware
Ġweek ly
Ġdest ro
uk a
Ġengine ers
Ġimm ort
Ġtruck s
Ġminor ity
lig a
Ġcomplic ations
Ġpretend ing
Ġmargin al
ĠDer by
ĠMalays ia
D is
W omen
] ,
a ude
e ast
Ġb isc
ĠI an
us k
ĠA w
ĠM end
ch t
ĠT un
ĠL oc
ĠSt orm
ress ing
Ġsy mmet
Ġhum or
Ġ9 1
Ġtem por
Ġcatch ing
Ġden omin
Ġchemical s
5 3
E nd
E ric
Ġt ire
Ġb anned
Ġf og
Ġp od
Ġl ump
Ġwas ting
ĠA zerbai
Ġas pir
ĠP E
ĠG ardens
ie ge
Ġ19 15
Ġv amp
ish na
Ġen force
Ġun p
âĢĻ .
ling ton
Ġ8 1
Ġ9 3
Ġdra wer
Ġoper ates
Ġcharacter istics
Ġmultip ly
tr ans
Ġterrit ories
Ġax is
Ġnurs ery
odd ed
ouncill or
Euro pe
S ON
S uddenly
U RE
m unicipality
s chool
Ġc ries
Ġp ear
Ġg le
Ġre vers
ĠC amb
if ully
Ġse gment
ĠP av
ĠR ey
ĠN FL
ess ed
ass y
Ġsc ores
ee z
Ġpubl ishing
arr ison
Ġmunicip al
Ġbound aries
igg ler
Ġwitness es
Ġdiam eter
Ġconven ient
Ġkitt ie
Ġlux ury
ebast ian
9 3
E at
G B
K e
m oon
w i
ar u
ĠA BC
Ġst ared
Ġst ored
ĠT u
Ġli ar
ĠF riends
ĠN ep
ĠN ebraska
Ġres ort
Ġmon arch
Ġbus es
Ġsign ing
Ġsign ature
Ġmain land
Ġmain tenance
amb a
ĠTH INK
Ġprop ose
Ġcollect ing
Ġclos es
Pl us
Ġcelebr ation
ĠSing h
col m
ĠBern ard
Ġconsist ing
Ġsav age
Ġproced ures
Ġconcer ts
Ġpir ate
Ġphen omen
Ġeffici ency
A y
H ot
c orn
e lection
i ens
ct ive
ch y
ĠCh ampion
ĠV aud
ile en
âĢĻ ,
ath a
ition ally
Ġend ea
Ġlea p
ĠNew ton
Ġdr own
Ã© r
Ġ6 7
Ġext inct
ple x
ĠWar ner
Ġworry ing
Ġconne ctions
AM E
Ġinflu ential
Ġimm ense
Ġinterrupt ed
6 4
I ES
M em
S at
s wer
Ġ q
us sels
ĠH AD
ter ior
ĠD ur
ĠO m
ĠO ber
Ġv irgin
Ġgu idance
ĠTh ailand
Ġbelie ving
Ġdr ain
Ġph ones
Look ing
Ġdest ination
ĠLord s
Ġsus p
Ġcover age
Un ited
Ġrefer ring
Ġir rit
Ġsmell s
Ġvan ished
Ġcrowd ed
aren ce
Ġprof ound
cons cious
Ġinstrument al
ĠMod ern
Ġbutt ons
onym ous
Ġrehe ars
Ġdio xide
/ &
o vers
Ġs hat
ĠI l
ĠB oo
ĠW a
ĠG ard
ĠN egro
ho e
ĠSh adow
Ġlaw yers
ĠPri x
wr itten
Ġautom atically
Ġult imate
Ġsculpt ure
h on
n ames
in als
Ġre levant
ĠM eth
Ġme als
ĠB orough
ĠT ournament
ĠD ance
ĠG ill
ig ion
ĠV erm
fore st
ob i
Ġsort ed
Ġprom ises
ĠAll iance
Ġfill ing
Per fect
Ġloss es
itar ian
Ġsurr ound
Ġcontribut ions
Ġprof ile
ĠSE E
Ġpupp y
Ġetern al
E ither
T ra
à ¸
Ġt ension
he ard
Ġg ap
Ġhe els
Ġwe ars
ĠB Y
Ġj et
ĠR ug
Ġall iance
Ġwhe at
ĠSt ra
Ġhand ling
Ġgl oves
20 11
Ġfr act
ane ous
Ġ8 4
Ġage nda
unic ations
Ġprocess ing
ĠJon athan
ĠAtt orney
Ġevident ly
ĠJoh ann
Ġurg ent
ĠMit chell
Ġentre pre
D an
S iden
f an
h uman
t alk
z o
it ches
Ġb ail
Ġhe d
st orm
ĠM um
ĠM arty
Ġso b
Ġor che
ud dy
ĠUn iverse
âĢĿ .
ix ed
ĠSh ir
gg s
ĠAn im
Ġwar fare
Ġtrans mission
Ġsong writer
rav o
Ġpers ist
Ġcivil ian
Ġredu cing
Ġrub bish
Ġbab e
Ġconcent rate
Ġfant asy
Ġneighbour hood
Ġvent ure
ĠFinn ish
Ġisol ated
Ġshar ply
ĠDyn asty
Siden ote
J ane
Ġs ins
it us
Ġc age
Ġh ay
Ġh ut
ĠA cc
Ġst all
ĠP age
ĠW izard
ĠD OWN
Ġwor ries
Ġag greg
ĠCh ang
Ġacc ent
Ġpop ulations
Ġsol ic
Ġtrad itions
ĠColl ins
wr iting
su it
Ġcompos ers
ker chief
ĠPan ama
Ġscrew ed
Ġprepar ation
ĠFace book
M E
S a
i qu
s un
à ¦
is ne
Ġp neum
as mus
Ġn odded
ĠC ant
ĠB unny
op en
Ġr ational
ĠF inal
Ġex port
Ġpres idency
Al an
Ġsn ap
Ġindust ries
ais y
ĠMic key
ĠHung ary
ĠLA UGH
Ġcuri osity
Ġgest ure
Ġorph an
e le
m ama
Ð °
re ated
Ġl azy
om o
ĠC ub
ĠH erm
ĠW ERE
ul um
ĠD ig
ĠR oom
ĠL ar
ĠN OW
Ġor gans
Ġam id
There fore
ec ess
ĠĠĠĠĠĠĠĠ ĠĠ
Ġmother f
Ġrest ing
ĠOr thodox
ĠBar cel
Ġpen et
Ġprim itive
ĠWH O
Ġjew el
Ġswall ow
Ġresign ation
ĠLt d
6 2
J on
w yn
Ġd ip
ac o
se ason
ĠM ead
ĠT IME
ĠD ong
ĠN ine
Ġover come
Ġ18 00
vent ually
Ġent ers
AT TER
fess ional
ĠCan al
Ġcompet itions
Ġrelig ions
ĠGl en
ĠNe il
Ġtext s
Ġsettle ments
Ġcompl ain
ias m
ĠAss y
Ġrecomm ended
Ġlabor atory
ĠCO VID
Ġkilomet ers
9 1
Ġo ct
Ġb ats
Ġg um
ent on
ut ing
ĠM os
ĠM onsieur
ĠL inda
ĠF ROM
ĠJ ama
qu al
Ġch rom
Ġpro hib
Ġman aging
ĠU m
so le
Th us
Ġim per
Ġcivil ians
ĠRes erve
Ġcolon ies
Ġmathem atical
Ġrespond ed
D in
H u
c m
v ar
Ġbe gging
Ġat om
ĠP RO
ud son
form ed
ĠSh iv
Ġem ail
ik ki
cy cl
ĠGr an
Ġplan es
Ġsum mon
Ar thur
Ġvol umes
Tr ue
ĠCat al
Ġdepos it
ĠNev ada
. -
U C
W il
t in
Ġt ies
in ian
as i
Ġg ardens
Ġwe ary
ĠM ama
Ġan alog
ĠB apt
Ġsh adows
od a
Ġback s
Ġun ions
Ġinst ruction
ĠComm ons
Ġrepl acing
ĠGreat er
raw ford
Ġremind ed
Ġath lete
intend ent
ĠCe cily
c ular
m id
n ine
u ously
Ġp ause
Ġn ail
al ion
Ġbe gg
Ġst ub
ĠM ann
Ġdo in
ĠP oly
Ġr ises
Ġj unk
ĠR ead
ĠN av
ard ed
ĠE aster
amp les
Ġres erv
Ġrec ycl
Ġgl anced
Ġ8 2
Ġtra gic
Ġguess ed
Ġste re
Ġpost s
Ġprop ag
Ġphys ically
Ġfarm s
Ġacqu aint
Ġrestaur ants
Ġflo ors
Ġdemocr atic
ĠEle anor
Ġpiss ed
Rel ax
d em
h ind
r ast
on ian
ar ound
ot he
Ġre ly
ĠC BS
ĠH ob
ĠB ert
ĠW atch
um er
ia z
ĠV enez
Ġdist inction
ret ched
ĠIs le
ey ed
Ġpay s
Ġbas es
Ġcor on
Ġview ers
ĠHar old
who a
Ġver tical
Ġpark s
bl ack
Ġlo vers
Ġinvent ion
ĠVictor ian
Ġmo ist
omed ay
ĠKu wait
Ġwarri ors
O l
R ead
Ġl akes
ĠI F
ant ine
Ġgo ss
Ġde fect
Ġdis gu
Ġfr ust
OU S
uff s
uss ia
Ġ9 4
Ġfight er
Ġsuccess or
ĠGu inea
la very
ĠChe ster
Ġbi ological
Ġemer ged
ĠJul ie
Ġexam ination
Ġconqu ered
Ġinterpret ation
ĠEngine ering
Ġoverse as
P al
k ar
Ã ī
ã Ĥ
Ġp ent
Ġe cho
se ven
ĠP el
ĠW on
ĠD ublin
Ġr ats
Ġcan cel
Ġsp ider
Th ought
Ġwr ap
ĠBr on
Ġret ail
Ġrest ore
ĠZ iggler
fl u
ON D
Ġpublic ly
Ġrepl acement
Ġrepresent atives
Ġtrad ed
Ġhy per
Ġstar ving
ID E
ĠRepublic ans
IGH S
ĠHu gh
ĠOtt oman
ĠGene va
8 2
I O
b aby
f olk
l iness
Ġc ad
Ġout fit
Ġag gressive
Ġreg ulations
Ġreal ised
Ġsol utions
Ġsuccess ion
unt ary
Ġsex y
Ġfle e
ĠArab ic
Ġtim ber
Ġimprove ment
Ġcolon ial
Ġfro st
Ġquant um
Ġcommission ed
Des pite
Ġsuspic ion
ĠLeb an
Ġtremb ling
Ġvulner able
% ,
f old
ê ¯
Ġc ra
Ġf iled
Ġd ancer
im en
ĠM anu
Ġat omic
Ġsh aped
Ġman kind
ĠK ir
are ttes
ond a
Ġgr in
ĠCh an
ov iÄĩ
Ġdist urbed
Ġ7 9
Ġopen ly
Ġcorn ers
Ġhost s
ĠBob by
Ġcorrect ly
Ġdom ain
Ġtank s
ĠSax ony
Ġb ree
ĠS ign
ĠA C
Ġst ew
ĠC ave
ĠM D
ĠT ro
ĠW alt
ĠD anish
ĠR uth
Ġshe lf
Ġcl o
Th irty
Ġcar n
Ġcr imin
Ġreg ime
ĠAl t
Ġdr ummer
Ġread s
Ġmag ician
Ġtreat ing
Sp eak
Ġcoast al
Ad am
Ġstream s
Ġincreasing ly
Ġembarrass ed
Ġcompass ion
2 000
J enny
L ondon
M uch
R oman
c ame
s il
ĠS S
se ud
Ġsh aft
Ġr h
ĠR at
Ġch ains
ire n
Ġmin isters
Ġmon op
Ġ6 1
ex p
Ġtri als
ai ro
cri be
Ġterm inal
umb ai
Ġdig ging
Ġ188 0
Ġru ins
Ã¨ s
Ġir re
Ġmicro sc
Ġwand ering
Ġelder ly
Ġelimin ated
offe e
7 2
Ġc avalry
st ration
ul us
Ġr abb
ĠR ot
Ġtw ent
Ġnow adays
ne x
Ġday light
Ġres olved
Ġear ning
Ġmar ine
Ġmon astery
Ġ7 6
Ġorgan isms
TH IS
Ġtest imony
ĠJack ie
Ġphys ic
ĠEm my
ĠAnt ar
Ġsal ad
Ġdiam onds
Ġchampionship s
ĠUp on
Ġpir ates
ĠFlore nce
A unt
p es
or is
Ġhe al
st ick
ĠM ammy
ĠH O
ĠH ook
ĠF ig
ĠF ood
Oh h
ĠV as
Ġbl ade
Ġneed le
here nt
Ġrec ru
Ġmin ing
Ġsupp orters
Ġele g
Ġ5 3
Ġarri ves
Ġlo ans
Ġsail or
Ġphilosop her
Christ ian
ĠNE W
Ġforb idden
ĠPra gue
Ġvacc ine
H ur
L ieutenant
c ertain
h all
s im
Ġw ages
ent e
ĠC hem
ĠP ant
Ġj aw
ĠR oosevelt
ĠN ord
Ġint u
Ġam endment
Ġsc ope
Ġfl ame
Ġfl ights
Ġmon ument
ĠSh an
Ġtown ship
born e
Ġanim ation
Ġdream ed
Ġinflu ences
Ġdecl are
Ġvot ers
sec ond
Ġess ay
Ġvari ables
Ġowners hip
Ġstrateg ic
ĠVO ICE
B us
G entlemen
b ea
g re
Ġin fer
Ġst ating
ĠM olly
ĠW OULD
ĠD ash
ĠL ance
ĠL iter
ber ries
Ġwill iam
Ġtr ous
ĠCh art
Ġcr iter
ĠSh ip
Ġmus h
Ġpat ron
Ġdeal er
for ced
min ute
min ster
ĠMan agement
Ġabs ent
Ġsun light
Ã¼ n
ĠCr icket
Ġfirm ly
ĠEvery thing
Ġchat ter
Ġterror ist
Ġfrank ly
onom ous
7 1
D ead
H and
i ago
u j
he nt
se nd
Ġst er
ĠM aced
ĠH aut
if ford
Ġr ag
Ġpl acing
Ġ19 11
ank ing
Ġun success
Ġhapp ier
ĠZ one
Ġstrong est
Ġpost er
Ġdep ressed
Ġlaugh s
Ġclos et
Ġtail or
ĠJul ia
Ġexam ined
Ġsamp les
Ġcommit ment
ĠIce land
Ġanch or
Ġhoriz ont
Ġnaught y
Ġsear ched
ĠBarcel ona
O rigin
t able
t ail
y re
z heimer
es y
ay e
ro e
ĠM ake
ĠT W
ĠF ellow
ag ar
Ġcont ents
Ġbu cket
ob a
Ġco in
arm s
aj a
Ġ7 8
Ġ9 8
Ġadv ise
Ġpat ience
ĠMiss ion
AS E
look ed
ĠEx press
Ġquar rel
Sure ly
Ġattract ion
Ġsignific antly
ĠEr nest
Ġlegisl ature
Ġresear chers
a ac
d aughter
l ain
en os
Ġh ob
ĠS oul
ri ek
Ġha bits
Ġdo ctrine
ĠP A
ĠD ec
Ġr ated
Ġj okes
ĠN ov
ess ions
ack er
og y
ĠV iv
Ġfl ames
gin a
Ġrun ner
Ġmet ropolitan
Ġtop ics
Ġcor rupt
Ġoper ator
Ġcy l
Ġcup s
ĠBel gian
Ġconsist ent
Ġwrit ings
Ġinvolve ment
ĠArmen ian
Ġvolt age
P C
S and
g ard
Ġw oo
Ġb arr
Ġm as
Ġd ense
Ġy elling
et he
ch ard
ĠP ierre
un i
ĠL ud
art e
ĠN ash
os hi
Ġbl ocked
ty pe
Ġcor ruption
room s
ĠReg ister
Ġrob bed
gl ass
Ġpsych ological
Ġcompl aint
Ġalt itude
Ġautom atic
Sm ith
Ġcalcul ated
Ġvirt ue
Ġdelay ed
ĠQueens land
Ġconspir acy
Ġcancell ed
Ġcott age
F ore
G ro
M ain
M od
N ame
c ott
Ð ¾
Ġw ool
Ġb urg
le ft
ĠS port
ĠM im
ĠD iam
ĠN BC
ĠE mb
ak in
Ġcomp rehens
Ġen able
ach ment
ĠAr nold
ces ter
Ġmiss ions
Ġplan ets
ĠMc K
ĠGl obal
ĠCong o
Ġash ore
CA A
Ġconfess ion
Ġnurs ing
Ġcann on
ĠMun ich
C at
J ud
Ġt ab
in ery
Ġh ates
ĠC ould
out heastern
ĠB att
ĠB esides
ĠD ue
ĠD uc
ĠG riff
Ġde ploy
ĠN on
iv an
up iter
ib et
gr im
Ġche ating
Ġdr ums
Ġ7 3
ĠCl aire
Ġart illery
Ġfuck in
ĠCap ital
Ġsecret ly
Ġpot ato
Ġmarket ing
Ġaud io
Ġprint ing
Ġdebut ed
Ġattend ing
Ġghost s
ĠMot or
ĠJam ie
Lou is
A in
N Y
T y
f ying
p read
Ġre vel
ĠS ally
ĠA x
ĠB ald
our ce
ĠL isten
od i
Ġman s
ĠK um
ĠU ntil
ict ions
xt on
Ġrad ius
Ġwall et
ĠAm azon
Ġspread ing
ĠIran ian
book s
ĠBell e
ela ide
ĠDet ective
Ġpup ils
D A
P ick
Ġt ut
Ġs igh
im ir
ly mouth
ĠC emetery
ĠB right
ant le
ol ith
ĠG ate
Ġch ampions
Ġbl og
Ġsc an
Ġsing ular
Ġri p
pend ing
Ġcompet ing
Ġgen re
Ġver t
Ġ190 5
.... ....
pro fit
Ġtour ists
ĠSl o
Ġqual ities
OP LE
Ġdomin ant
Ġdisgr ace
Y S
d et
e yes
Î ½
Ġt art
Ġm ice
Ġp ulse
Ġhe ating
ut o
Ġwh ales
Ġsh arks
od ing
-- _
Ġcont empt
gr aded
Ġsub div
Ġcent im
Ġ7 4
Ġexp ense
Ġshall ow
Ġinfl ation
reg ular
Ġmis ery
Ġremark s
ĠCarl os
Ġmagn etic
Ġheaven s
Ġmort al
Ġaim ed
Ġincred ibly
stan bul
Ġpropos als
ĠRug by
S k
Ġw ides
Ġb ob
Ġp ap
id o
am en
ĠS L
ĠS ister
st ory
ri ger
ri ages
Ġst air
if th
Ġne ur
Ġr ows
ig o
ĠO UR
Ġv ow
Ġco ff
Ġvar iance
Ġvis itor
co at
Ġarri ving
Ġsens ible
Ġelement ary
ĠJan et
ĠWag ga
Ġpronoun ced
Ġadj acent
Ġenzy me
A B
D ick
J am
g li
r ates
re qu
Ġo d
Ġf oul
Ġd ug
Ġd ual
Ġd anced
Ġg au
Ġn avy
ent ine
ri ers
ĠH orse
est on
ĠL il
ĠL au
Ġcon vey
ĠE xt
Ġpart ial
be cca
form ula
Ġ5 8
Ġel abor
Ġsub tle
Ġcre pt
Ġbre eding
Ġrep orter
ĠCon c
AS S
Ġmess enger
ĠSen ior
Fr ance
OD Y
Ġaband on
Im agine
Ġnarr ative
Ġlob by
D E
H m
S ign
T op
m ans
n ell
Ã «
ll e
Ġd orm
es ter
as ury
ic he
id al
Ġre ass
ri pp
ri ental
ĠP apa
ĠW eek
ĠD h
ĠF urther
ĠN umber
pe i
ĠHe brew
ange l
Ġcent ers
ĠInd ies
Ġdri vers
ple asant
ĠBl ood
ĠAd vent
Ġmot ive
Ġcirc us
Ġsepar ation
Ġkey board
ding ton
Ġimm igrants
ĠJo ey
ĠDes ign
Te am
ĠTy ler
Ġalph a
ĠAlp ha
Ġabst ract
Ġbicy cle
A hm
M oney
O ffic
T E
n an
r ust
at ched
is ch
ĠS r
ĠB ass
ĠP sych
Ġne uro
ĠG on
ĠG as
Ġor b
Ġwor m
ck er
Ġcl uster
Ġgr asp
ord ered
aw are
Ġread ers
Ġfilm ing
wh ose
Ġconv iction
Ġharm ony
Ġcommunic ations
Ġcontroll ing
Ġconsum er
Ġadvert is
Bel ieve
ĠBow l
ĠMaz ra
ĠUnivers al
Ġinterfe re
D ie
D aniel
M ama
N ote
Q U
U r
it ol
Ġf u
ar re
Ġp oured
Ġg ym
ge bra
ĠF M
Ġsp an
Ġpart ially
Ġgu ilt
Ġrel ieved
Ġche at
inn ie
Bl ue
Ġaware ness
Ġtask s
Ġsav ings
Ġdistingu ish
rim ination
ĠIndepend ence
Ġdeliber ately
ĠBour g
6 9
D un
D rop
N ah
f ig
l n
om ena
ad ia
ĠA ges
Ġk in
ĠP i
ĠR ico
Ġshe ets
ak u
ak an
Ġar guing
ĠCh i
Ġer rors
Ġhand led
ĠSh ar
Ġcol onel
Ġexper ts
Cl ose
Ġrecogn ise
atter ing
oid s
Ġmarry ing
ĠAp oll
Ġrac ial
Ġdynam ic
ĠWrest ling
ĠParalymp ics
ĠMazra eh
F ig
t ar
Ġs aint
Ġc her
Ġf ountain
ab ul
Ġcl ip
Ġim perial
ec hes
Ġmon keys
arr ondissements
Ġprov incial
Ġadv ised
Ġcat alog
Ġ190 4
cont in
Ġwithd rew
Ġtrail er
Ġspin ning
Ġris ks
Ġcert ific
ĠRhod a
Ġsubstant ial
V ill
c ir
g one
Ġt att
is d
ĠA gric
ĠB ag
ĠP or
Ġr otten
Ġall ies
ag raph
Ġcl an
Ġsc ales
ĠMar tha
Ġnight mare
Ġsub stitute
Ġcol ored
Ġ9 7
ĠRe view
umb ers
Ġswe ep
Cl ass
agon al
Ġremind s
ĠNat ural
Ġsuppl ied
bet ween
Ġchalleng es
Ġkidna pped
Ġinspect or
Ġgeomet ry
Ġmoder ate
Ġgrat itude
M ajor
d ig
m ir
Ġh ood
Ġto re
ĠA j
ĠM ing
ĠT E
Ġkn ot
ĠW right
ĠD iane
ĠJ a
Ġch ill
Ġman ners
ĠU l
Ġbl ah
In ter
port ant
ĠAr c
Ġmar vell
Ġbas in
ĠSc ots
ounc ing
Ġ190 8
Ġ186 1
Ġbi ology
Ġren ov
ĠCat hedral
yp es
Ġpersu ade
ĠYugosl avia
ĠChance llor
N C
V er
b ad
c ard
t Ã©
y ears
Ġm all
Ġn ig
et ing
us ively
ĠS HE
ĠA isne
Ġdo ggie
ĠP C
ĠT am
th row
el and
ig ible
ĠE ight
Ġout ra
Ġoff spring
ath on
ss on
ĠAl ban
Ġgl orious
Ġsw orn
ai ries
Ġdef inite
Ġsn akes
cast ing
Ġkick ing
ĠDou bs
Ġmyth ology
ĠBra hm
Ġvoc als
count ry
Ġmilit ia
8 4
o ft
t em
z el
Ð ¸
Ġc ogn
Ġf ug
Ġd warf
Ġwh ip
ĠC ad
Ġsh ine
ĠR eb
ĠE ug
Ġout come
are r
ose xual
Ġover head
the l
Ġnever theless
Ġrec re
Ġgl obe
Ġext ract
ĠCon stant
Ġterri fic
Ġterri fied
Ġenc ounter
Sp eaking
ij uana
ĠRepresent ative
ĠWat son
Ġprivile ge
ellig ence
ĠBoe ing
Ġpneum onia
A z
F ran
L emon
h oo
h ouses
l ied
m un
Ġl aund
Ġg rip
ic ious
ad t
ĠP ent
Ġpro ven
ish a
ang ular
ĠCh ase
Ġback up
end ing
Ġper f
Ġser ver
Ġrel uct
Ġsim ult
Ġinter section
Ġhum ble
Ġappro aches
ĠSm all
ĠBlack y
pro of
Fr anc
Ġvirt ually
Ġcollea gue
ĠGil bert
Ġtow el
Ġparam eters
Ġfare well
A CH
S leep
f ar
Â ¡
Ġt roll
er ies
er ts
Ġd il
ow een
Ġhe ap
Ġse m
ĠT oy
ist ocr
amp a
og en
Ġbu rial
Ġres id
Ġrem oval
Ġcr ush
ph ones
ĠSh aw
Ġpartic le
An na
Ġfree ze
Ġfree zing
ĠAb bey
ĠJud y
Ġwhis per
Ġodd s
Ġresc ued
Ġsevere ly
ĠAmb assador
Ġcollabor ation
Ġcha os
ĠLux em
L and
R eal
h orse
he ro
Ġs ar
Ġo ak
Ġd ivers
ic ism
am y
ĠS af
ĠC os
ust ace
op ard
Ġj elly
Ġso ber
Ġcon greg
qu er
Ġthem es
Ġint im
Ġdis k
Ġsub marine
Ġbo ards
ING S
Ġorgan ize
Ġgrand pa
Ġcat hedral
ĠSte el
Ġ190 2
Ġcollect ions
ĠEll en
ĠTw enty
Ġfold ed
din and
Bea utiful
Ġacknow led
Ġmart ial
B L
F ight
J os
M ister
V ictor
Y a
b ag
h or
r Ã©
Ġin k
ld om
ver ted
ĠS ultan
ĠC elt
ch ild
ĠP am
ĠF ried
Ġwho lly
Ġpe ep
ick ets
Ġun l
ĠBr ussels
Ġrep ro
br other
Ġpat hetic
ĠSe ok
Ġgrad uation
Ġdecl ined
Ġbow ed
Ġprint s
Ġ187 0
Ġwebs ites
Ġachieve ment
Ġ/ &
ĠRon ald
Ġelev ation
Ġbatter ies
Ġchrist mas
F er
I RE
R a
S en
n ame
Ġp ussy
Ġn ails
Ġbe w
Ġst ack
ĠC rit
ĠM all
Ġan k
Ġse min
ĠB ACK
ĠD avy
Ġr ay
ĠL iz
ĠF ight
Ġsu ite
ous ing
Ġpre jud
Ġworld s
Ġdr owned
Ġ7 1
Ġcoll ar
Ġhum id
Ġref lection
200 7
Ġdiscuss ing
ustom ed
asc al
Ġenter prise
ĠOxford shire
Ġunf air
Ġfert il
Ġbrid ges
Ġsup reme
Ġfortun ate
ĠDaw son
B ook
d ep
h ome
m aid
Ġt ails
Ġbe e
Ġbe es
st ep
ĠA ch
ĠC ecil
ĠM ull
ur st
Ġsh ade
And y
And rew
ment ed
ĠK urd
ip her
Ġtw isted
Ġbl oss
Ġfe ud
Ġhome less
Ġ6 9
20 14
uff y
Ġdisc ont
Ch ris
aus en
Ġfast est
Ġrespect ed
ĠOF F
Ġclaim ing
Ġ190 9
Ã¶ n
Ã¶ r
Sc ott
Ġcru cial
Ġassum ing
Ġflow ing
Ġpurs uit
Ġproceed ed
Ġpassion ate
ĠCab inet
song writer
ĠLl oyd
Ġrebell ion
Ġpaus ed
Ġpian ist
ĠSuff olk
6 3
g ow
is ode
Ġb unk
ĠM ow
ĠH aven
ant o
ĠT iger
un o
ĠW oo
Ġab ilities
ĠJ ava
ĠE VERY
ort ing
ine as
so ever
ace y
Ġle an
Ġle isure
Ġcl erk
ĠBr anch
Ġind ign
ĠFr anz
Ġsit com
ats y
Ġappro ve
Ġpot atoes
ĠMor ris
Ġexam ine
ĠEll is
Ġpure ly
Ġdim ension
ĠEv ans
Ġtor ped
ĠFel ix
Ġinse ct
Ġchalleng ed
Ġscholar ship
Ġcust ody
B a
b b
g ments
l D
u rop
w ic
at in
al ian
Ġhe aling
um m
ie ves
od ec
ĠCh ampions
Ġqu ot
Yes terday
Ġpre st
Ġhand kerchief
az i
ĠAs soci
Ġ6 8
An swer
Ġorgan ised
Ġsum mit
Ġ190 7
Ġcommun ist
ĠMur phy
Ġknock ing
Ġcig arettes
Sl ow
Ġupd ate
urrent ly
Ġrit ual
Ġtast es
Ġgoss ip
Ġtrous ers
Ġwides pread
L aughing
N ine
T C
W ood
Y e
d ire
Ã Ł
ã ģ
Ġc af
Ġm asters
ing e
Ġd ess
Ġl ens
ac ier
ĠA irl
Ġas hes
ĠK o
ĠK id
Ġbl ues
pl us
Ġdis abled
Ġfl ung
Ġsub way
ok er
ĠCl arence
Ġquestion ed
Ex cellent
ĠCol in
Ġfail ing
ĠReg iment
Ġimm une
ij i
ĠSum er
Ġpred ecess
Ġspell ing
Ġsatis fy
Ġcontr ad
des ign
Ġpupp et
Ġvolunte ers
Ġloyal ty
Ġfasc inating
Ġinher ited
ĠEth iop
6 8
7 8
F amily
G ar
H ung
c ore
l arge
p ose
t or
y on
Ġ ~
Ġf erry
Ġbe ats
ge ons
our ces
Ġj ar
ĠR ace
ĠL ock
em a
ĠO VER
Ġqu art
ĠV ers
cl ose
au er
ĠY i
ect or
Ġcr ab
ĠMar co
Ġhead ache
ĠAl zheimer
Ġinv aded
ern el
ĠSp encer
Ġhum ili
Ġref riger
Ġmonth ly
ĠSe ction
yr us
Ġru pe
ĠFin ally
ĠGO OD
nÃ© e
Ġsty les
Ġderiv ative
ĠAzerbai jan
names e
; "
D ar
D ay
f aced
o ise
Ġw iped
en berg
Ġp add
al in
Ġbe am
ad ers
ro d
ĠM oney
ĠF isher
ĠO scar
gr aduate
Ġind igenous
20 12
app a
Ġkid ney
Ġequ ations
Ġpat ent
ĠWest minster
Ġdress es
Qu iet
Ġcant ons
Se ems
Ġcommun es
EC T
ĠGO ING
Ġgall ery
Ġelev ator
ĠGall ery
Em ily
Ġabsor bed
Ġathlet es
ĠShel by
ĠBund es
Ġcrimin als
C ourse
D og
K ind
h un
p os
s ized
re as
Ġb apt
ar ity
Ġe go
Ġas cend
if ting
il ib
ĠT alk
ĠK ath
ĠCh a
Ġdes erted
Ġname ly
ĠĠĠĠĠĠĠĠ ĠĠĠ
Ġreg ards
Ġmon sters
Who ever
ĠPr incip
erv atory
ĠAust en
ĠAd elaide
Ġconne cts
Ġbank rupt
200 8
Ġwat ches
ĠPort land
ĠDemocr at
Ġscreen writer
Ġamb assador
Ġcro cod
Ġliqu or
Ġmathem atic
turn ed
-------- --------
Ġinher it
ĠFa ith
ĠCamer on
! âĢĻ
S HE
m ist
z eg
ar ians
ĠS ey
st yle
Ġst alk
ĠC her
and e
ation ally
ol ics
ĠW AY
ĠD ream
Ġsh one
ĠN orton
ig rated
Ġsp otted
pl ed
ict s
ĠTh om
ĠDe b
Ġinter rog
Ġed ited
ĠTHE M
for ward
Ġill usion
Ġinf rast
ĠMad am
Ġhat red
Ġaccident ally
ateg ory
oos ing
Ġshell s
Ġwand ered
ĠSerb ian
orig inal
cu ador
G en
c ity
h op
r ise
r ina
Ã ¯
Ġs ab
Ġhe ars
ay ing
am ount
ĠS M
ĠH amm
Ġsu ffici
Ġch ased
ĠCh all
ne g
Ġbr ace
Ġhand y
oun ced
Ġret iring
Ġimp ulse
Ġsince re
Ġtri gger
Ġsk etch
ĠBl air
ĠBar n
Ġfre ight
ĠHar vey
Ġdi ary
hel m
ĠÃ ī
LY N
Ġloud ly
ĠBa iley
ĠNE ED
rend ered
Ġtox ic
Ġgalax y
Ġcollaps ed
D oc
T R
g ence
j ack
he e
Ġc ater
as per
Ġl an
Ġbe et
Ġre tained
ĠS ierra
ri ving
ĠB ong
ĠB ark
ĠT ig
ĠN CAA
Ġout standing
ĠO pp
Ġex agger
Ġpe an
ict ory
ĠUn like
ĠTh under
Ġdes erves
ĠBr istol
form ance
Ġri ot
Ġaw fully
Ġbar rier
Ġteac hes
Ġbox ing
Ġlay ers
Ġnecess ity
200 9
Ġ190 1
Ġkiss ing
ĠLaw s
Ġ186 0
Ġneck lace
Ġconvers ations
Ġprevent ed
Ġtarget s
Ġcart oon
Ġdelight ful
Ġframe work
Ġconnect ing
opp y
Ġcooper ation
Blood y
E p
N ope
P ad
S N
T or
r ades
w ald
y ay
Ġc ited
Ġf urious
et ary
ĠS ic
Ġwh ore
ur as
ĠH uh
ĠP H
ĠW ow
Ġar rog
iv ic
ci pe
ĠIn s
Ġun w
be e
Ġper ception
Ġac ademy
ĠFr an
Ġrecord ings
AR Y
Ġsound track
CH UCK
ĠWith out
ĠPal mer
Ġrain bow
Äģ n
Ġvac uum
Could n
Ġqual ifying
Ġphil osoph
Tom my
Ġstrugg led
Ġbroadcast ing
ĠMic helle
ĠLy nd
Ġtransform ed
ĠSom ers
ĠBos nia
Ġunlike ly
Ġnit rogen
Ġevac u
Wal ter
ĠLuxem bourg
N ight
e als
f urt
Ø §
st all
ol in
ĠR ou
ap le
ry s
Ġex pend
Ġgr id
Ġsc hem
Ġmar ched
Ġac res
Ġsub mitted
Ġgl ow
Ġprob able
ĠSc ar
Ġtre nd
ĠLe eds
amb urg
Ġdepart ed
ien ces
Ġdin osaurs
Ġpress ing
Ġforget ting
Ġstat istical
200 6
Ġ190 3
Ġ186 4
Ġpath s
Ġcompl iment
ĠCont rol
Ġinterview s
Ġinqu iry
ĠEconom ic
Ġfrag ments
Ġrebu ilt
ĠBeng al
Ġchir ping
% )
d est
in th
is i
Ġl y
Ġg ut
Ġbe an
Ġre cept
ĠC OULD
ĠH udson
ĠT ax
ul k
ĠL iving
ĠHe e
Ġar istocr
Ġtw ins
Ġle aning
ang o
Ġro d
uch i
Ġcar ved
ib a
Ġph arm
Ġinc orpor
Ġgener ate
ĠCon stance
Ġmer ger
Ġgrand son
ID S
Ġattempt ing
ĠEr asmus
ĠTw itter
ĠEs sex
ĠCir c
Ġmanufacture r
ĠPot ter
ĠNich olas
ĠClar ke
# #
P oint
Y EAH
i ated
l iter
r ams
s ince
Ġto wers
al ways
ay ed
ĠA ires
ĠF E
ĠF reedom
Ġch ampagne
Ġsp ear
ĠAr ctic
Ġ6 3
20 13
Ġrep ublic
Ġgener ated
Ġcor rid
Wh ose
Ġvill ain
Ġmess ed
LE T
Ġdefe ating
Ġdi agram
Ġpet ition
Ġcopy right
Ġalt ar
Ed ward
Ġdisplay ed
Ġconqu er
Cont in
Ġannoy ing
ĠNAS A
Ġsustain able
awl ins
Ġendea v
G er
S U
S qu
b in
Ï Ħ
á »
Ġb achelor
Ġp ony
Ġg ambling
Ġn ode
ri ke
Ġst em
Ġli ly
ĠG ang
ab we
ĠK le
Ġrel ate
Ġloc ally
Ġdoor way
Ġhot els
af a
Ġmass es
Ġsens ation
Am ong
Ġlog ical
ĠCarl isle
about s
Ġax e
ĠRh ine
Ġris en
Ġacceler ation
tit les
Ġbarg ain
ĠMeth od
ĠBourg ogne
S I
S IGHS
Ġt ed
Ġt apes
er als
Ġm igration
as gow
ĠI ike
ic us
Ġe cc
ĠG ust
Ġby pass
ĠN ixon
Ġshe riff
ian ne
Ġcont ribute
Ġpre fecture
Ġlight ly
An ne
ĠLe ft
ĠSy l
sp eak
ĠMor occ
Ġmut ual
Ġdemon stration
ĠKe ith
Com tÃ©
Ġbul k
ĠStat istical
ĠPeters burg
Ġpresum ably
Supp ose
B ell
G un
f amily
g ame
Ġt ones
Ġo rient
Ġc ope
or p
Ġp seud
Ġg ent
Ġre nder
se mble
ĠA qu
Ġst eak
all i
ĠH ipp
ter min
ill ance
ge red
Ġsh ipping
Ġr aining
ĠN ort
em or
ĠK ap
Ġar ise
ne e
ĠV ick
Ġpr ick
Ġapp rent
Ġmon k
Ġreal m
ĠAl bum
oub ted
Ġcross es
ĠJo an
Ġtend ency
ĠSocial ist
Ġhorn s
Ġbon us
Ġoccas ional
Ġinfect ed
ĠSerb ia
ĠPic ard
Ġhypot hesis
Ġstead ily
G ame
c oll
g s
l oe
Ġb os
Ġm ates
Ġd iverse
Ġg oose
ot on
ĠS ue
and ie
ant i
ĠP lymouth
art en
ab ol
Ġ( ).
Th ou
Ġmar ching
Ġcons ervation
Ġadd s
Ġtra itor
ows ki
Ġorigin ated
ĠItal ians
Ġrespons ibilities
Ġaud ition
Ġwarm ing
Fr anche
En joy
ĠFer r
Ġcalcul ate
Ġconstitution al
imb abwe
ĠHard y
Ġincl ined
ĠLim ited
ĠBulgar ia
Ġchim ney
F O
O B
c up
d amn
e ous
f u
f ashion
i ast
p m
s is
t ry
Ä Ł
Ġhe ck
Ġha w
Ġse aled
ĠP ul
ĠP oll
ĠL anka
ood le
Ġv est
ak o
ĠTh ames
Ch ildren
Ġvar iation
head s
go vern
Ġview ed
Ġdev ast
ĠEx cell
Ġboard ing
ij ing
ĠMont ana
Î¿ u
Ġneighbour s
Ġexperiment al
Ġnurs es
ĠWork s
Ġdraft ed
Ġverte x
Ġsovere ign
Ġsquee ze
ĠMerc ury
ĠManip ur
ĠPhoen ix
F ull
G S
P an
h arm
p in
s ar
Ġs izes
Ġg inger
ut ure
ĠM uch
Ġha re
Ġme lt
ĠH ilda
ĠB U
un ci
Ġr amp
ĠG oth
ĠE cuador
Ġout s
Ġdis ability
anc ies
ĠMar cus
Ġsl ap
Ġid i
ĠGr ound
Ġhalf way
che ck
Ġtem ples
Ġsun set
Ġmad ness
rav is
Ġbomb ing
Ġlic ence
Cle ar
ĠSol omon
Ġenthus iasm
ĠRena issance
1 20
D i
D ave
D ev
H am
I l
c ross
c ery
h ah
h ales
l ies
p ill
Ġf ist
Ġh ath
ĠC ut
th ird
ĠG ir
ĠF R
ĠF ull
Ġpe pper
Ġle aned
Ġover night
ĠV II
Ġspe cially
ced es
Ġsub mit
arr ot
Ġprov isions
ĠRe ed
Ġconf ig
Ġcheck s
com b
Ã¼ l
200 5
did n
bl ue
Ġlif estyle
Ġmedic ation
ĠBu enos
Ġmut tered
Ġmeas uring
Ġcro ok
ĠIndepend ent
ĠHur ricane
Ġperce ived
Ġcoinc idence
Ġscen ario
ĠLegisl ative
Ġsod ium
ĠColomb ia
D or
F M
] :
f ind
w ig
w orm
Ġb ol
ĠI stanbul
ic as
ĠF ant
Ġsu cks
so on
Ġsp here
ang ar
Ġbr ass
Ġres olve
ib al
St an
ins ky
Ġposs ibilities
ann atum
Ġdet er
Ġshort s
Ah h
lic ation
Ġfail s
Ġassist ed
Ġpray ing
Ġhun ted
Ġremain der
Ġprogress ive
Ġindic ates
Ġcorrespond ing
again st
Ġdisag re
Ġinnov ation
Bi ography
ĠOrgan ization
Ġsynd rome
Ġcriter ia
Ġlaund ry
Ġinfrast ructure
7 4
F ant
J ess
L ock
M att
f orth
l anguage
z ig
Ġ ion
Ġs or
Ġl ime
ion eer
Ġfor k
ĠC ox
ĠP le
ĠT ibet
ĠW ant
ĠR ing
em b
Ġtr im
ĠIn formation
iss ors
Ġlea k
ĠBr id
ĠAr ound
Ġtri ps
Ġmod ified
fl ower
Get ting
eter a
Ġpar agraph
ĠPar ish
ounc er
TH ERE
look s
Ġran ch
Ġcirc ular
Ġsac rific
enes is
Ġdial ogue
ĠRog ers
ilib rium
) "
6 1
D ire
G ET
H S
V an
W ashington
b n
c al
f ol
m any
en cing
Ġp p
Ġre organ
am on
ĠS ide
ĠB uch
ĠB ee
Ġde ed
ĠL ith
Th row
Ġro ses
Ġmar ble
20 16
ĠCl ara
Ġ10 1
ann i
Ġprom ising
An ge
Ġtre ason
Ġcor pse
ĠSe ason
rodu ction
Ġcred ited
Ġspell ed
ĠFin ance
ĠJul iet
sm all
Ġtal ented
ĠSpe ed
ĠBas se
ĠLE GO
Ġsan ct
ĠBuddh ism
ĠPhill ips
B ull
F ifty
Ã ¥
Ġs ings
er ie
Ġg own
om ers
ĠC reat
ĠC rawford
ĠP in
ĠT oo
Ġch orus
ĠE ileen
ich ita
Ġsp it
Ġgr ammar
Ġback ing
Ġback ed
Ġfl ip
Ġer u
Ġcar avan
air y
Ġdes ires
St ate
ĠSh all
Ġinc omp
Ġ7 00
Ġexpl aining
Ġpat rol
ps y
Ġdescri bing
Ġlim bs
Ġstick y
ĠJust in
iction ary
Ġreb els
Ġtro op
Ġdefend ed
ĠSand y
alm at
Ġpurs ued
Ġconcent rated
Ġprof its
sell ing
Ġmaintain ing
Ġintegr ated
Ġveget able
Ġstruct ural
Ġrefe rences
Ġaccompl ish
Ġeleph ants
Ġutter ly
ĠFri bourg
ĠBapt ist
ĠSlo ven
7 9
C OME
L ight
R ain
S et
S aid
S arah
T otal
p ath
p oss
s erv
Ġf res
en ch
Ġd amp
ĠA ction
ĠM ort
ĠM ey
ĠD aisy
ĠR aven
Ġcon ve
He ad
ĠK ay
Ġgr ind
Ġbl amed
ult s
Ġhand ful
Ġmar vel
Ġdist ress
Ġexp enses
EN S
amb oo
ĠMe anwhile
Ġgrad es
Mar ie
Ġhost age
Ġroll s
ĠMad ison
yr am
Ġimpro ving
ĠCom mer
Ph one
Ġlibr aries
Ġscr ub
Ġdomin ated
Ġur ged
ĠEst her
ĠBrook s
Ġspo il
ĠLO OK
ĠCroat ian
Ġlocomot ives
ĠWOR K
Ġobserv ations
Ġware house
Ġphenomen on
H OW
K iss
L u
g om
i ology
l isted
r ics
t ri
{ \
Ð µ
Ġo t
Ġh ier
Ġp uff
Ġn od
ĠS AY
ĠC and
ĠC ode
ur red
Ġse ldom
ĠB ened
ĠT ab
ĠT ree
ĠR ica
Ġch ambers
ĠK el
ick er
ang led
ov an
Ġpo ets
ĠY am
gr aph
Ġfin als
Ġbo iling
Ġsw ung
ex pl
Ġcur ric
OR Y
Ġorigin s
RE AT
ĠAm endment
Ġpriv acy
Ġburn s
Ġ190 6
Ġaccess ible
Ġmechan ics
Ġencour aging
Ġestim ates
Ġelimin ate
Ġreli able
Ġtel esc
ĠTreat y
ĠAirl ines
C am
G AS
R ose
w ords
Ġa ster
Ġb ou
Ġb rig
Ġc unning
Ġh mm
Ġl il
ac ular
ke ley
ĠC OME
ĠM umbai
ĠW ang
ĠD om
ĠD ow
ĠD rive
Ġr av
ĠL ocal
ĠN ova
ap or
Ġsa fer
Ġman ual
ĠK atherine
ĠSt ars
ff ield
ĠIn vest
sh irt
Ġres ent
any on
ĠBr itt
Ġstr ain
ĠAn nie
20 15
ex cept
Ġpublic ity
Ġdem ons
Ġce ase
ĠEd mund
Ġinf ant
Ġpack ing
Ġ186 2
Ġcustom s
Ġmotor cycle
Ġtradition ally
ĠIndones ian
Norm andie
Ġadvoc ate
Ġorn ament
hol m
Ġfest ivals
Ġthirst y
Ġpeas ants
Ġsuffici ently
r r
at u
at us
im o
ĠC ulture
ĠT ogether
Ġr ides
Ġal umin
os o
Ġint est
Ġen ch
Ġun pleasant
Ġsc al
Ġwr ist
Ġexc av
Ġstri kes
Ġexcept ions
ĠRoman ian
ĠFrank ie
ĠMal colm
Was n
Ġrank ing
Ġpred omin
umber land
ĠSant iago
Ġiniti ative
Ġpup il
Ġkilomet res
Ġdiplom at
Ġconvent ional
Ġsoph istic
Ġbund le
Ġange ls
Ġaggreg ate
D en
H ea
L eg
X T
l oo
Ġw ires
Ġs ciences
Ġc akes
Ġl oses
ver age
ĠW ald
Ġj olly
ĠF act
Ġab bre
ĠJ ennifer
Ġwhat soever
ĠE t
Ġlike wise
ans k
Ġcomp romise
gr ad
Ġdist ances
Ġsing ers
Ġfr action
ĠRe id
Ġsent ences
Ġorder ing
Ġ11 0
IS H
Ġrul ers
Ġfool s
Ġ188 8
Ġstreng the
Ġplain ly
ĠStan ford
ĠPlay Station
Ġneighbour ing
ĠRh ode
Ġvolunte er
ĠBuddh ist
ĠMaur ice
/ /
M ade
P et
i u
k u
r ition
v ill
w ings
Ġs ib
Ġb a
Ġf airies
Ġh aste
Ġp awn
Ġre ef
ly ne
ro be
Ġse als
ĠP rom
ĠL ex
ĠJ upiter
ĠV e
sh ore
Ġcr ushed
Ġele ctoral
Ġacc us
no x
ok a
Ġrest r
ĠCount ess
Ġcountry side
Ġpret ended
Ġpay ments
Ġlaw suit
Ġfore cast
ĠBe ijing
Ġdraw ings
Ġep ic
Ġhistor ians
Ġ186 3
ĠGrand pa
Ġinvestig ating
isco very
Ġpeak ed
Ġlegend ary
rend um
Ġpersu aded
Ġclin ic
imens ional
Ġcondem ned
Ġtrib ute
v ous
z burg
it ics
en burg
Ġh ither
Ġd ances
et ics
Ġhe ated
ĠS ebastian
ĠA F
ĠM oses
Ġnot ably
Ġgo ver
ĠD ub
ĠL av
Ġal gebra
Ġpro pri
ĠO bs
ink y
ĠK em
ne ys
Ġdis charge
ĠY ears
Ġrec ruit
Ġsupp lement
Ġmet ro
con f
light s
rug u
Ġep id
Ġhang ed
Ġap ology
Ġspell s
Le ft
ĠDou g
Ġtal uk
Ġcou ples
Ġnickn amed
mind ed
Ġignor ance
Japan ese
ovak ia
anth rop
H im
R oy
re p
Ġc el
Ġg azed
Ġn oun
gh ai
ĠD est
ĠF ac
Ġsa us
Ġdon t
Ġpe er
we ed
ĠTh ai
Ã© l
ĠInd eed
Ġfr idge
uff ic
Ġmod est
Ġaw oke
Be at
aim a
Ġrad ar
Ġhost ile
ĠSal v
Con nor
vere nd
ĠLuc as
Ġtim ing
Ġdim ensions
ĠForm ula
whe el
LS B
Ġrele ases
Bre ak
Ġanth rop
- (
A sh
D ep
H o
H ol
m el
r int
w il
Ġb ald
Ġb inary
ĠS ang
ur rection
ĠT ag
Ġkn e
ĠW ord
ĠD isc
um i
Ġcan als
ĠJ ae
Ġout break
Ġex ile
Ġint imate
Ġtr aces
Ġsp ine
ĠSt y
In c
ĠTh ink
Ġchar ter
Ġinter action
Ch uck
Ch inese
Ġbeh old
OR T
Ġaut o
Ġsepar ately
Ġemb race
ĠSch w
Ġroll er
ĠBro s
ĠTur ks
Ġthreat s
Ã¨ res
Ġprem ises
Ġwid th
Ġdescend ants
Ġsust ained
Ġstab bed
Ġswall owed
Ġrein force
ĠLeon ard
ĠOw en
Ġfoss ils
RS B
Ġcoordin ates
Ġimprison ed
V en
c ific
f ood
is ations
ar in
Ġp a
ic ial
am ine
im an
ri fied
ĠM USIC
ur ities
Ġan nex
ĠB rigade
ĠG au
ĠR ivers
Ġso da
ĠN aval
oll a
Ġbr u
ĠV III
ĠUn it
ĠY a
ah l
uff led
Ġdisc rimination
ĠWar ri
ĠGl obe
Ã¼ h
Ġliter acy
Ġbast ards
Ġvirt ual
occ up
ĠBrad ford
Ġemphas is
Ġsurviv ors
Ġumb rella
D anny
L y
j un
l isten
Ġg aining
id i
ĠS it
st age
ĠC ase
ĠH og
ĠR abb
Ġcon ception
Ġch ronic
ĠE sp
Ġgr acious
Ġen qu
Ġen light
Ġad equ
any thing
Ġmed ian
ĠBl ake
Ġspec imen
Ġdam ned
ĠCap itol
ĠMag gie
ĠMil ton
Ġpred icted
Ġdefend ant
Ġbrand s
ĠAng lo
Ġvari ations
Ġcous ins
uls ion
Ġduck s
Ġconqu est
char ged
Ġeager ly
Ġrestrict ed
Ġsurve illance
D ist
b est
b uck
e ffect
f ull
p ull
Ġ \
Ġ âĢ
Ġs am
Ġs arah
Ġs omeday
Ġb io
Ġto e
Ġl odge
al ong
am us
ur ated
ur bs
ill ion
Ġab rupt
Ġus age
Ġtw e
ish i
pt on
av ier
uck ed
Ġmin eral
Ġel igible
let ter
ĠAll ied
Ġleg ally
Ġprot ocol
fic ial
ĠMan ager
Ġinvest ed
ĠSchool s
ĠSam my
ĠPat ri
ĠGrand ma
Ġstorm s
ĠRail road
Ġexcl usively
Ġdetect ed
Ġhel met
Ġtransform ation
Ġrevolution ary
Ġdecor ated
bet ter
Ġbeast s
Fe el
ĠStand ard
Step hen
Ġstrict ly
Ġvolcan o
ĠPalest ine
ĠPear l
ĠJoy ce
adv ant
Ġingred ients
Ġstub born
olith ic
7 00
D R
D iv
T Y
n on
s ight
ed uc
Ġy er
Ġy ell
ĠC AR
ĠM iles
ĠB un
Ġsh rew
Ġsh riek
Ġr apper
Ġde pri
Ġal oud
Ġal tered
Ġher d
Ġv ag
ount ered
we ek
pl ant
ĠY ellow
ĠShe riff
ĠNew castle
Ġequ ipped
unic ation
pr ints
Ġpar ade
ĠSe oul
Ġpoor ly
bor o
ĠGl asgow
Ġver d
ĠJe remy
Ġshut tle
Ġfund ed
ĠBE EN
Ġban anas
Ġearn est
ĠPlay er
ĠMod el
Ġwrest ler
ĠCroat ia
Ġvamp ire
Ġtwent ieth
E xt
L o
W A
j in
r us
Ġw ig
Ġs iege
Ġf itting
en ance
Ġh orm
Ġd iversity
Ġwh irl
il ian
um per
ist ani
ĠR an
ĠL ear
qu ite
Ġcomp elled
Ġstart led
gin ning
Ġind ul
Ġel bow
Ġrest ed
Sh ort
Ġsk irt
Ġjo ins
Ġclear ing
Ġspecial ist
Ġill eg
ĠEd wards
Ġenc ountered
Ġfort night
Ġcompl aints
enge ance
Ġign ored
Ġpit cher
Ġimprove ments
Ġexpand ing
ĠDef ence
ym ph
ĠOper a
Ġswift ly
ĠPed ro
Ġpic nic
ĠJama ica
Ġacquaint ance
ĠBald win
P inkie
U H
U P
m ine
n ity
t ogether
Ġ ou
Ġg aze
Ġn iece
Ġon going
Ġre leg
ĠS ad
ĠT all
ĠN Y
Ġcon sole
Ġthere by
ĠE lectric
ĠE instein
ood les
Ġv ivid
Ġman agers
ĠK iss
Ġcl ergy
Ġtheir s
ress es
Ġfact ories
Ġsqu ares
unt il
sc ale
Ġpen is
Ġdi aper
Ġfix ing
Ġhar bor
ĠAre na
Ġdeb ts
Ġslight est
ĠViet namese
Ġcheer ful
ĠMarsh al
Ġlegit imate
: //
A my
m ie
Å ¾
in ence
Ġh atch
Ġd imin
Ġp arl
Ġin ject
et ition
im eter
ĠM aid
ĠR icky
ĠL ess
Ġar bit
Ġar rows
ĠV illa
old s
uck ing
Ġche ated
Ġsw ords
Ġ7 37
ex per
Ġlight ed
Ġlight house
ĠCl are
Ġequ ality
Ġquestion ing
Or der
back s
Ġbow ling
Ġimm igration
Ġgradu ating
ĠFer dinand
Ġmanufact ured
ĠMic hel
isp here
cript ions
Ġhabit at
Ġlos er
ITT LE
acea e
Ġtempor arily
oubted ly
gom ery
F unny
O i
g ia
k an
Ð ½
Ġd ice
al most
ld er
ro le
ĠM ath
ĠB rew
ĠT odd
Ġde ment
pp e
ers hip
ci als
og o
Ġbr icks
Ġun believable
anc ers
gr unts
Ġrel ating
Ġsur rendered
ĠDe ep
olog ically
Ġsw ore
let t
ĠZ imbabwe
ĠSp ani
Ġread ily
Ġed iting
Ġequ ilibrium
ator ial
Ġcor poration
ĠWh ale
work ing
rit ers
sc ill
arth ik
Ġpot entially
De an
ĠDep ression
Ġcommand s
pro bably
Ġamb ition
ĠRom ney
Ġdu o
ĠTai pei
ĠWy att
Ġment ally
Ġassess ment
ĠPun j
ĠLis bon
Ġhed ge
Lemon is
D owell
G erm
l ane
s aw
Ġt ens
at he
Ġh ats
Ġg room
us ters
ĠS yn
ĠB arr
ĠD ays
Ġde eds
ĠThe ater
Ġdon ated
Ġno b
Ġno isy
Ġback pack
iz zy
ĠY E
Ġdif fer
Ġspe eches
Ġpass port
Ġext rem
inc inn
An th
Ġsol itary
Ġpublic ations
bo ards
amb ig
Ġpract icing
Ġcirc ulation
Ġcool ing
Ġmis chief
Ġinf antry
ĠCo al
Pl ot
Ġaffect s
Ġmoon light
vis or
Ġlic ensed
keep ing
ĠFle et
ĠKer ala
ĠNiger ia
Ca esar
Ġassemb led
. ?
E arth
F re
P ark
Ġt ips
Ġw aking
Ġs ighed
on te
Ġm ock
and ra
Ġr ushing
art ing
ĠF IG
Ġab ortion
Ġag g
we ather
Ġres erved
ave l
Ġlea gues
Ġprodu ctions
20 19
iet ies
Ġid ol
uss ion
pr int
ush i
ĠSe an
Ġmass acre
Ġcomb ine
Ġemb r
Ġtall est
Ġox ide
Ġattend ance
Ġbother ing
Ġtur key
ĠNaz is
Ġteen ager
Ġdisag ree
ĠWars aw
LAUGH S
ĠJess ica
Ġpip es
Ele ven
Ġdemol ished
Ġmarvell ous
? ?
A v
L isa
O t
l ov
p are
r ange
Ġa while
it ative
Ġd ing
Ġl ined
Ġre cl
ĠS ull
ĠB oul
ĠD ob
ĠD raft
ĠL orry
Ġsp ill
av ian
Ġam us
ens er
Ġmon ks
ĠDe al
Ġbook ed
Ġinc on
Ġpubl ish
Ġinter ven
Ġsk ip
Ġthank ed
Ġmag ical
Ġlay out
ĠHar bor
Ġtrack ing
Ġphot ography
200 4
Ġdecl aration
Ġsad ly
Ġ186 5
Ġpray ed
Ġfocus ing
Ġcomplet ion
Ġmagn itude
ĠMom my
Ġrefe rendum
Ġcorrespond ence
Ġhast ily
Ġbug s
ĠEconom ics
Ġflav or
Ġappet ite
ĠVerm ont
ĠBundes liga
Ġdement ia
: )
G RO
N in
e lected
i rie
Ġa ims
Ġf uss
Ġl s
Ġl oos
Ġdo se
ĠT ALK
op ened
ĠR est
ĠL ate
ĠN ina
ink led
ank ar
Ġqu ack
Ġqu oted
Ġam pl
Ġfe es
Ġcar r
Ġnum bered
Ġreg ul
Ġac ute
Ġmet als
Ġmet aph
ok u
ball s
Ġtri bal
Ġcor ps
Ġpresent er
Ġtable ts
Ġang les
Ġhar p
ĠBer keley
Ġaccident s
IR ST
199 9
Ġconcept s
Ġintegr al
Ġelev ated
Ġdepth s
Ġastron aut
ĠTest ament
Ġstrateg ies
ĠWag ner
Ġske leton
lad imir
Ġtribut ary
C I
H ear
J J
P romise
c ot
h r
s ing
Ġw aving
as is
Ġg ri
Ġn an
Ġn aming
Ġn omi
ow ard
ut ton
ĠM atch
ĠB uc
Ġr ays
ĠL anguage
ig rant
ous y
ian c
so ld
Ġover l
Ġun ity
." [
Ġrem oving
ho on
Ġdes erved
gr oup
ER Y
Ġbus hes
Ġcent res
Ġdisc ount
Ġinter ference
AT T
ats u
Ġshort est
ĠTr aining
ĠBe ing
fort une
Ġprop he
Ar m
Ġcreat or
Ġtouch down
ĠCath olics
Ġfeed back
Ġnomin ations
Amer ica
ĠAng l
Ġscream s
ĠWat ford
Care ful
Ġrepeated ly
every thing
sen al
Ġspons ored
Ġdecre ase
Hon estly
Ġunemploy ment
Ġdestro ying
incinn ati
7 3
N S
P ay
s ame
Â Ŀ
ĠS omething
ĠC ond
ĠC ret
ĠM ouse
ĠH at
ĠH il
ĠG host
ĠR oland
ĠJ ung
ink er
Ġover t
Ġro ss
ov ina
ater al
Ġcar rier
ĠMar ion
IN T
let ed
Ġland lord
Ġoper ational
co ff
ĠOr d
Ġregard less
Ġtall er
Ġut ility
Ġcalm ly
Ġmort gage
Ġperman ently
Ġprofession als
Ġiniti ated
ĠTed dy
Ġadapt ation
Ġmos que
Ġcurtain s
Ġlan tern
m ia
s lavery
Ī Ĵ
Ġp ist
Ġl est
Ġl ame
Ġn aima
am ar
ĠC omb
ĠT rophy
Ġsh irts
Ġr ains
Ġr ider
ast ics
ak ened
Ġany how
ĠU g
Ġoff ense
Ġun necessary
Ġam azed
Ġsc re
ĠY oon
ĠShe ll
rest on
ok o
Ġgener ator
Ġremember ing
Ġbeaut ifully
Ġvar ied
ĠHer bert
Ġlow ered
Ġcomput ing
win ning
hib ition
Ġ189 8
Ġreb el
ĠBoy d
Ġmotor way
ĠDen ver
Ġdesper ately
Ġdescend ed
ĠArmen ia
ĠOt to
Ġnom ine
norm al
Ġhorizont al
odec ahedron
, ...
O per
f ers
l aughing
z h
Ĥ ¬
Ġs way
it ating
Ġo wing
Ġm orn
Ġd ive
ĠS outheast
ĠM A
ĠW ing
Ġ" ".
Ġr idge
Ġcan e
ĠN athan
ĠO oh
ĠK un
ag i
Ġint ensity
ĠU tt
Ġro ast
Ġres umed
Ġche w
Ġob ed
Ġrep ay
Ġid le
Ġrece ives
Ġann ually
Ġquick er
ribut ion
Ġprop osition
Ġtechn ologies
Ġaccept ing
ĠSy rian
Ġmach inery
Ġarr ondissement
Ġfit ness
ĠBa ek
ĠArch bishop
Ġpregn ancy
Ġpump kin
Mad am
Ġspo iled
ĠCzech osl
Ġcam el
S everal
T ed
T ill
d imensional
x y
at hetic
Ġb out
Ġh amm
ur ring
Ġr ally
ĠG and
ĠE qu
Ġex ams
ĠU rugu
ace ous
Ġgr apes
Ġcr ick
Ġob jection
ern on
ĠIs aac
Ġtri ll
Ġtra uma
ann ie
Ġ15 00
ĠThat cher
ĠTr uth
Ġconf using
Ġtou red
ĠGu ang
Ġpost p
Ġcos m
ĠSy mph
Ġsick ness
Ġpack et
Ġcup board
Ġtend s
Ġextend ing
Sim on
Ġsumm ary
Ġassass ination
ĠSquad ron
Ġcompens ation
Ġinev itable
Ġreserv oir
Ġsimult aneously
ĠPicard ie
R yan
b ear
c ulation
u ji
w ang
er ness
Ġc aut
Ġl id
st ru
st ones
ir s
ĠM eg
ĠM ORE
Ġnot hin
ap est
ĠK it
Ġint eg
ĠSt re
anc a
ĠMar x
Ġacc ustomed
Ġsw inging
me al
lev ard
Ġexpect ations
ĠHer o
Ġrad i
Ġsn ack
ĠHar per
Ġaccept able
Ġaut hent
medi ate
ĠSing les
Ġcommer ce
Love ly
Ġdisappoint ment
ĠWork ers
Ġpow ered
Ġarchitect ural
ĠGreg ory
Ġdiplom atic
ĠOak land
Ġabund ant
Ġsophistic ated
B illy
f al
o at
Ġt un
Ġthe ology
Ġs outheastern
is ive
ar f
Ġl ingu
Ġst amps
Ġdo d
and in
ĠH arl
ĠH AS
ĠH APP
ĠHe ights
Ġcl iff
ov o
Ġsc issors
sh a
Ġper sec
Ġcar ing
man ia
omm e
me aning
Ġcur ved
Ġexpl icit
Ġconf ined
aur us
ĠBar ack
Ġdev otion
Ġmem or
Ġcell ar
200 1
AD Y
Ġnovel ist
Ġaddress es
ĠEmp ress
Ġassoci ations
ĠDes ert
ĠColumb us
Ġow l
ĠRevolution ary
Int erest
Ġpour ing
Ġgra ves
ĠCON T
quis ite
Ġaccord ance
ĠInf antry
Ġoverwhel ming
Ġprecip itation
ĠShir ley
G osh
K ids
O SE
Y ES
b ank
c ock
f i
g eneral
Ġt an
ou ched
it ic
Ġo scill
Ġb og
Ġb rigade
or ic
Ġto ll
as ped
ow ards
Ġe uro
ĠA ctor
ĠP oo
op ic
ĠW inn
ĠR i
ĠR ange
el on
ĠN ay
ig ation
Ġv ault
ud der
ag les
ough s
Ġsp okes
hy ll
Ġam mun
Ġgu ided
Ġsl opes
ĠSh ould
Ġmat t
Ġdisc our
ĠBut ler
Ġbad ge
by ter
Ġpret t
Ġprogram mes
Ġforg iveness
Ġdeterm ination
ĠCarol ine
Ġpromot ing
Pr ince
Ġ185 4
Ġcerem onies
ugg age
ĠNAS CAR
Ġparad ise
Ġrib bon
ĠAlexand ria
ĠPlat form
ĠGab riel
Aust ral
Def initely
Ġjur isd
Ġrend ered
Ġcorrid or
E E
L I
N ic
b ons
e gr
h app
k ets
l as
en i
Ġe rect
Ġre de
if ference
ĠB og
ĠB uzz
ĠP ay
ĠD up
ĠR oth
Ġch oosing
Ġv i
Ġro ar
ub b
oy s
ĠY o
Ġmet h
Ġmet eor
Ġgovern ed
pr us
inc orporated
Ġorgan ism
Ġsqu irrel
Ġball et
IT E
Ġshoot er
Ġrespect s
Ġrespect able
Ġadm iration
Mar ia
Ġcand les
ĠBo ers
Ġemploy er
Ġrom an
Ġappl ies
Ġninet eenth
Ġadvant ages
Ġassum ption
ĠDev on
Ġcoal ition
ĠMem bers
erg ies
Ġchalleng ing
NE Y
Ġportray ed
Ahm ad
H or
N ING
P o
l ined
m ale
er ving
it on
Ġb acon
Ġm ol
ĠI mm
ent ric
Ġre hab
ac ity
ri ft
Ġst ability
ĠM ade
Ġha zard
ĠB achelor
ĠW W
ĠW ake
ĠD ear
Ġr aped
ĠG us
ĠL ie
Ġsu e
Ġsa ils
Ġno bles
Ġun con
Ġche ering
Ġph oned
Ã© mon
Ġinc or
Ġinter val
Ġhum our
ĠWe re
IS S
Ġspecial ized
Ġpull s
ĠMc N
Ġdraw s
Ġir regular
Ġprem ium
ruct ive
Ġgrab bed
ĠSus sex
SC REAM
Us ually
Ġprofession ally
ĠOtt awa
ĠWhe el
Ġfulf ill
ĠBuff alo
ĠAlber ta
Ġelabor ate
Ġcrick eter
D isc
F a
P ower
T W
W ind
h aving
l ate
n amed
Ġc rest
Ġc ripp
Ġp yram
ĠI ke
am eless
ĠM ine
ĠH us
ĠP ack
ĠG ay
ĠR awlins
ĠN y
ĠJ ur
ĠV i
ĠV o
ens on
Ġsc old
Ġind irect
Ġreg ulation
Ġel oqu
arm ing
Ġunt o
ret ion
ote ction
Ġrep ent
Ġdevelop ments
Ġpick s
ĠLea ve
arth a
Ġvers es
Ar ch
Cl imate
Ġshoot s
ett es
Ġparticip ants
En ter
Ġteaching s
Ġcomment ed
Ġintent ions
ĠBeat les
Girl s
Ġlocomot ive
parent s
ĠAthlet ic
Ġmans ion
ĠCelt ic
A mb
B ird
B rian
C e
G otta
I TH
V ar
h ire
he nd
Ġm our
es pecially
et ta
Ġbe ep
ion ed
ĠS or
all ow
Ġan ime
ĠH ait
ĠH alf
ĠH unt
ĠW ichita
ĠD enny
Ġde e
Ġcan ce
ĠR ic
ĠN em
ĠCh oi
cl iffe
Ġcr ust
Ġmin istry
att i
ex ist
Ġinter cept
Ġinter vention
br ush
Ġtop s
Ġcontin ually
Ġrece ip
Ġprofess ors
ĠPl aces
Ġcourt esy
ĠGl ass
AC T
Ġ189 9
ĠMer cedes
Ġaltern ate
Ġcrack ed
Ġmax im
Ġconflict s
Ġrelax ed
ĠTra il
ĠDomin ican
Ġdent ist
Ġlou der
Ġdess ert
? ,
A p
H O
b ble
Å Ħ
Î ¹
Ġs aints
Ġb ib
Ġf ri
Ġg uts
Ġre cipe
Ġwe pt
ĠS part
Ġfor cing
ir ch
oo ping
ĠM AKE
ur able
ct ica
if teen
ĠW or
ĠF o
qu estion
ap ur
ci um
per haps
Ġte ch
Ġsc orn
ug ar
oot y
Ġcare ers
Ġel ite
ĠNo ah
Ġborn e
ĠCl iff
Ġfoot age
ĠHis pan
EN CE
ege nd
With in
Ġsun ny
Ġprocess ion
Ġpresident s
just ice
ĠQu ick
ĠWho a
Ġsal vation
Ġsuit case
Ġsle nder
Ġpil ots
ĠArch ite
Ġsyn c
Ġdemonstr ate
Ġdump ed
Spe cies
Ġmolec ular
Ġmurm ured
Ġschem es
ĠAngl ican
Ġammun ition
E ducation
H um
I AN
M ENT
P ete
R l
R am
S M
c aster
d ia
w omen
Ï Ĥ
Ñ Ģ
Ġa uction
Ġw ander
an qu
Ġb ung
Ġto ken
Ġp apa
ĠI z
Ġe agle
ĠS old
ĠC airo
ĠM C
ĠP orts
un ty
ĠD almat
ĠL ITTLE
Ġso fa
ĠJ oo
Ġpl a
od ia
Ġcl aws
act ic
ĠV in
ĠV ideo
oc o
Ġdis rupt
Ġthr ows
Ġmean while
te xt
Ġcomm emor
anc o
day s
Ġco aching
Ġ18 50
ale x
Ġ17 0
Ġmer ge
Ġsell s
Ġrespect ive
Ġlearn s
resh old
Ġlength s
Ġcampaign s
yl um
ĠDel aware
Ġsen ator
Te acher
ĠStud io
ĠMore over
Ġhook ed
Ġnort heastern
ĠOper ation
gro ans
Ġrele asing
Ġveter an
ĠNep al
Ġmotherf ucker
Ġgau ge
Ġcurric ulum
B reat
C amp
J ew
L ead
O p
R u
e at
i ently
p ush
r ament
Ġthe ft
Ġs inking
ad am
ĠS W
ĠS aints
ĠS PEAK
ĠC au
ĠC anyon
ĠM ul
ĠM ang
ĠM RT
Ġare na
ĠW u
Ġsh ifted
ĠR ice
ĠN g
ig i
Ġcom rades
Ġex cell
ĠK ra
act ually
sel ess
Ġneed n
ool s
sh an
Ġsm oked
ah u
Ġcour ty
ĠShe ffield
gr ounds
Ġmen u
Ġass et
Ġpresent ing
Ex pl
ald a
ien ne
Mar g
ND ER
Mom my
ĠAv iv
Ġillust rated
Ġvit amin
Ġslee ve
Europe an
Ġentrepre neur
Ġcoff in
A ud
A II
B ern
M aking
s ign
ï ¼
is an
Ġc alf
Ġl ocks
Ġg erm
Ġre pt
ĠS ul
ĠS EC
st ore
Ġst out
ĠC incinnati
ĠH ood
ĠD ee
ĠR af
Ġsu nd
Ġpro ves
ĠK Ã¶
Ġsp arrow
ci le
Ġcomp act
cl oth
Ġsc ree
sh aw
Ġrec alled
ĠNew port
Ġstud ios
Ġass ert
Ġtrans it
Ġed itions
ĠQ U
Ġins ert
ĠAll ies
inc hester
Ġtre asures
ĠComm unications
com ed
Ġinvest ors
Ġvol untary
bl ast
Ġdiscuss ions
Ġhistor ically
ĠNor a
wr ite
Ġpun ct
Ġrepe ating
Ġfocus es
Pr ot
Ġspr ings
ĠStr ong
ĠBroad casting
Ġcert ified
Ġspons or
ĠGro ve
Ġpi geon
Govern ment
Ġavo ided
Ġflex ible
Ġbegg ar
ĠVenez uela
wic hes
B ri
C ON
F A
g od
h og
l ived
p ie
v re
Ġon wards
ir us
ĠC ay
ĠM ak
ĠB ott
ĠB UT
ĠP ole
Ġsh o
Ġpl ung
ress ive
Ġsc ent
li est
Ġrep airs
Ġsk ate
Ġsk illed
ĠGr ade
Ġcost umes
ĠMc Queen
ĠChar ley
Ġmid field
ograph ics
Gr ab
Ġclos ure
Ġdemand ing
su per
mon th
Ġparticip ation
Ġess ence
ĠDel ta
Ġchick ens
ĠJul ian
Ġjournal ists
ĠOther s
Ġexhib it
Ġtort ured
ĠGer ald
Ġpor ch
ĠCru z
Ġdict ator
A li
B less
P ING
e lectric
f inal
g io
n ings
s che
Ġt ummy
Ġl f
ĠS ave
ch urch
ĠH OW
ĠB om
ĠP orter
ĠT ropical
ĠD od
Ġsh h
ĠF L
ĠF O
ĠF ab
ĠV iew
Ġam end
Ġunder wear
ath i
Ġfl ank
rest rial
Ġlive ly
Ġopp onents
ĠEurope ans
Ġmess ing
Ġrock y
Ġste pping
Ġpen insula
ĠPer kins
Ġcow boy
Ġhonor ary
WH O
Sm all
ĠCamp aign
Ġeth an
bu ilding
Ġconce aled
Ġmyster ies
ĠDun can
Ġtorn ado
Ġmanufacture rs
Ġdece ased
ĠLyn n
Ġignor ant
ĠTun is
Ġcertific ate
" -
B urn
B eth
G L
N a
c ro
f ollow
o oming
w en
z ens
Ġc ush
ll a
Ġd ots
Ġhe x
st own
ri gan
ĠM is
il ia
ĠW er
Ġmar ijuana
Ġsl im
St upid
Ġsub stances
ret urn
Ġbo ast
ĠBut ter
do ing
Al bert
ĠBl ock
Ġleg acy
Ġfell a
Ġcor rected
Ġresp ir
Ġcamp ing
IT LYN
ĠPol icy
Ġeye b
Ġdoub ts
ĠBy z
ĠBer g
ĠSal zburg
Ġchap ters
Ġprote ins
Ġexerc ises
erg arten
Ġdiscip les
Ġclin ical
Ġtheore tical
Ġrig id
ĠPE OPLE
Ġphysic ist
ĠLith uan
B ODY
H ail
H ands
l oss
p ay
s al
Ġs ine
Ġb ureau
Ġb ordered
Ġm arty
Ġn athaniel
Ġhe ter
Ġe ll
Ġwe ed
ĠA hab
ĠC P
if a
ant is
ĠP owell
ul i
ĠD AY
Ġcan s
ĠL ok
ĠF uk
ĠN ing
Ġwor sh
Ġman ga
ous in
ĠK rist
Ġag ony
ite i
Ġgr ape
oy le
ens is
ob y
you ng
Ġtra its
Ġthank ful
Ġopp osing
hys ical
Ġbank ing
Ġneg lect
Ġmater nal
Ġhoney moon
Ġstrange ly
play ing
igg le
Ġreform s
Ġlegisl ative
Ã§ ois
fin als
Ġregist ration
Ġtub es
Ġrupe es
' '
K en
S ex
c ourt
m ovie
w oo
is ition
Ġg rill
al id
le ave
Ġwh it
ly de
ri ved
Ġal iens
el ed
ĠE M
od ka
ĠO il
pe ction
ĠK i
ĠU lt
Ġfl ock
Ġrec urs
li um
ĠShe ila
gr ow
ĠSh ore
Ġmat ure
ok Ã©mon
19 80
20 18
ĠChrist ine
Ġswe ets
ĠPl ains
Ġbox er
Ġhy brid
Ġport fol
Ġsuggest ions
Ġfac il
Ġ188 5
Ġvac ant
Ġacqu ire
Ġmagn et
ĠRay mond
Ġgro cery
Ġsport ing
Back ground
BE LL
ĠInt elligence
Whe never
Ġdemonstr ated
ĠGuard ian
Ġimplement ed
includ e
ĠTW O
Ġmathematic ian
fashion ed
G ene
M organ
O F
T P
k ill
l ot
y stem
Ġs essions
en ough
ĠH oney
ĠT ir
ĠW ong
ĠD ol
ist ance
est own
ĠF oster
ind e
ĠCh ah
Ġcomp ute
og urt
oc ate
Ġres erves
Ġsl ower
ph is
Ġent ries
Ġsw amp
Ġ12 5
de ath
Ġguess ing
ĠPh D
Ġ14 0
ĠDr ama
Ġsex ually
Un like
ĠSer ge
Ġestabl ishing
Ġadminist ered
Ġ189 6
Ġoffe nded
Ġconvers ion
ĠBoy er
Ġterrit orial
Ġconfess ed
Ġcig ar
Ġsym ph
Ġrefe ree
Ġphen omena
ĠCir cle
ĠPlan et
Ġvolcan ic
ĠLo ire
ĠSud an
Ġharass ment
! --
K ar
T ri
i ott
l E
s weet
it ime
Ġm aker
nd y
Ġf ung
Ġd ys
Ġp ets
Ġl uggage
Ġg arrison
ĠS ie
ĠH ye
ĠH aving
ĠB ath
ĠP olly
ĠR ES
Ġher b
ĠE b
Ġshe er
ĠK ill
Ġag rees
Ġpre lim
Ġacc l
ĠWhat ever
ĠTr inity
Ġvill agers
Ġball ot
Ġtest ify
ĠTe ch
Ġdefe nder
Ġeduc ator
Ġadm ission
Ġ189 1
Ġqual ification
Ġrat ings
Ġconsum ers
ĠAss istant
Ġintegr ity
ĠRon nie
Ġprepar ations
Ġdisappear ance
Ġrecommend ation
ĠChap el
Ġinfect ions
Ġcraw l
Ġdispl ays
Ġantib iot
ĠCub an
CHUCK LES
ambig uation
Ġamus ement
B M
E nt
G ee
M oh
R ick
b oo
d ue
g ener
r one
Ġt v
Ġw retched
on o
ed o
Ġp el
Ġp enn
al uation
ĠC ALL
ĠC IA
ĠH oo
ĠH av
ĠH icks
if ier
ĠB omb
ĠT able
ĠT ELL
Ġkn ives
Ġr anges
pp en
ĠL az
Ġab d
os i
ĠE annatum
ĠK erm
Ġsome place
Th ird
Ġoff ence
Ġun incorporated
Ġwr ath
Ġper il
Ġunder water
Ġlast ing
Ġfin an
Ġsl ain
Ġdec iding
Ġinter vals
ING ING
ĠTHE IR
Ġsol ving
umb o
Ġce real
Ġrev olt
Ġcharacter ized
ilar ly
ĠWil helm
Ġparticip ating
199 0
Ġintern ationally
ĠWal sh
Ġsuspect s
Ġfurn ished
ĠTre asure
Ġmerch ants
Ġguarant eed
dis ambiguation
ĠUr ban
Ġdea rest
Ġbitter ly
ĠGi ants
ĠKr ishna
Ġtact ics
Ġgalax ies
ĠDiam ond
ĠDuc hess
ĠUtt ar
B ast
C atch
R om
S ong
T a
d one
f ounded
h appy
i ries
v ie
Ġf iber
Ġh ack
Ġd ash
Ġd uke
Ġp ave
Ġp ains
ĠS et
Ġst ing
Ġst are
Ġan ten
Ġse ize
ĠT as
ol ation
ĠD over
ĠD olly
ab oo
os se
Ġup load
Ġch ore
ĠO P
ang s
Ġbl oom
In side
ĠY emen
vers ion
ĠAr ist
und y
ĠAl ong
Ġsw ap
Ġimp at
Ġgener als
ĠĠĠĠĠĠĠĠĠĠĠĠĠĠĠĠ Ġ
ha ven
ĠAb by
Ar ound
medi ately
Ġbill ions
Ġconsider ably
ĠSte in
ĠPal m
ĠNor folk
Ġcelebr ating
Ġcompl ained
ĠÃ ģ
IF F
Ġlack ing
Ġneighbor ing
ĠBa gh
Ġcontain er
Eng land
ĠKen ya
Ġprotest ed
Ġsimpl er
Ġanaly st
idel ines
ĠWeb ster
à¥ į
ĠFil ip
Ġprosper ity
ĠBron x
Ġprelim inary
" "
" --
F at
M ill
M ount
b ott
Ġt asted
er ne
Ġh alt
Ġp ots
om beh
Ġbe aches
ĠS N
ĠS ever
ĠS ex
ce ans
ĠB ever
ĠP ont
Ġj aws
ĠG osp
ĠG ael
ĠR aid
ĠL og
ĠF un
Ġch ron
Ġv om
ber ger
ĠK or
ĠK as
Ġsc rat
land o
sh ots
ĠAmer icas
Ã© n
Ġlist ing
Ġfr anc
Ġinter se
Ġland mark
Ġins ight
Ġstuff ed
Ġtou ches
Ġlim b
Ġfear ful
200 3
Ġemb ark
ĠAnge la
Ġaffect ing
ĠSuper ior
ĠÃ Ĺ
Ġload ing
bre aking
Ġrequire ment
Ġspect rum
ĠFair y
Ġthrill er
former ly
arat us
alle ys
Ġadvis or
ĠTol ombeh
ĠProdu ctions
Ġtoss ed
Ġsulf ur
Ġtatt oo
A gent
B ravo
C P
C y
E ddie
G il
H all
K h
L ot
b ot
f ix
er os
Ġb amboo
Ġl ust
Ġg ases
al is
le en
st ed
ĠA ub
ĠC ord
ĠM unicipality
ĠB ast
ĠW ik
ĠN one
ĠN ear
nt y
Ġsp erm
ĠSt age
Ġcl ause
omet er
iz ers
Ġ3 50
aw k
Ġsm ash
oun ge
Ġbre ach
app eared
Ġmain stream
Ġcontin ental
Ġless er
Ġvar ies
Ġblack smith
ĠCal vin
ĠEd gar
Ġpract iced
ĠTe h
ĠMe itei
Ġworth less
AM A
ĠCo ach
Ġsand wiches
ĠAct ress
ĠBrown ing
Ġqual ify
osop hy
ĠTri b
worth y
Ġnucle us
Under stand
Ġindu cted
dog s
gas ps
ĠSA ID
ĠIndust rial
ĠContin ues
ĠChand ler
Ġcurs ed
Ġsymmet ry
mid t
ĠAntar ctica
ĠApoll o
ĠBened ict
B attle
C HE
S W
j ar
y up
y ellow
Ġt ense
et ry
us ually
im son
Ġwe ighed
ĠS K
ĠS aw
ĠS aid
ĠS olar
ĠH az
ĠH off
Ġse w
Ġsh ifts
Ġall ey
ĠN AT
Ġup ward
Ġbut cher
Ġjust ified
ip el
Ġwork shop
ne red
ru ce
Ġapp lying
Ġem pt
ric ia
Ġri pped
Ġdiv iding
Be en
ĠEd en
ĠAm anda
Ġeconom ist
ĠRuss ians
AD E
Ġmix ing
ĠPri or
Ġwel comed
Ġharm on
Ġtarget ed
Ġtight ly
ĠPak istani
Ġentertain ing
uls ive
Mad ame
Ġancest ry
Ġdiscover ies
Ġdiagn osis
abet es
Ġcongress ional
ĠHend erson
ĠAlger ia
Ġsurround ings
ĠCirc uit
D ec
F all
G reg
K wa
L ive
S el
d rop
g al
r imin
in u
Ġb ade
Ġth ieves
ĠA na
ĠA then
ĠM ale
Ġan ts
ĠD uck
ook ie
ra its
ĠSt ay
omet own
av in
Ġsc out
Ġfl own
Ġfl ashed
ho ven
Ġend less
ange red
Ġhard est
ump s
ĠSo ft
ĠBl ues
reet ings
Ġfront ier
Ġve ins
irth day
ĠEx change
Ġpriv ately
ivid ual
200 2
het ti
Ġcollect ive
Ġchief s
Ġ185 9
ĠHel ena
Ġwitness ed
Ġstret ching
Ġwithd rawn
ĠWall ace
ĠRaj a
Ġhast ened
ĠChap ter
spe ed
Ġprompt ly
ĠHop kins
Ġenforce ment
Ġeleg ant
design ated
govern ment
ĠSymph ony
2 50
A cc
S id
u en
Ġb od
Ġc av
Ġm ug
Ġh ull
es ters
Ġp ork
Ġl ions
Ġl uc
Ġl anes
al an
ow l
Ġha unted
Ġk ettle
ain a
ĠD iet
pp le
Ġso ck
Ġout door
Ġpro g
ud er
ud ing
ud ed
Ġman e
ĠK ost
ĠK enny
Ġag ing
Ġen viron
Ġact ively
pl ate
Ġend ure
ĠDe rek
Ġdef icit
ĠPres byter
ĠMin or
Ġhon ors
Ġval ued
Ġve ctors
Ġdirect ing
Ġneg lected
Ġcast ing
ĠRich ards
Ne ed
hold er
Ġhun ters
Ġphil anthrop
agon ist
Ġtransl ate
Ġbal anced
Ġscream ed
Ġquant ities
Ġcalcul ations
Ġcommission er
equ eg
Ġfo am
Alex ander
Ġstrip es
Ġupd ated
ĠDa ily
Ġhoriz on
ĠRhod es
might y
Ġna ive
Ġcasual ties
Ġelectro ly
Ġgy mn
ĠShan ghai
Ġunsuccess ful
Ġcomprehens ive
abul ary
Ġpredecess or
" !
G UN
H ouse
J UL
M akes
R est
S ar
S em
T aking
W anna
d orf
s i
s or
v ine
Ġ Âł
Ġf oster
Ġf ianc
Ġl ent
Ġe rected
id ian
Ġse wing
ĠB erm
Ġat tain
ĠR ita
ĠN ept
ĠE sc
Ġpl ague
ort ex
ĠCh uckles
Ġback ward
ov sky
ĠV oice
Ġcont amin
Ġcomm enced
ĠAl f
Ġtrans action
Ġfoot steps
inc eton
Ġfell as
Ġorgan isations
ĠTr ue
Ġpast e
Ġallow ance
ĠAb u
See ing
Ġtechn ically
Ġz inc
Ġpark ed
Ġtour ism
Ġhero in
Ġ188 4
ĠArab ian
Ad minist
ĠMont gomery
Ġweak ened
Tw elve
Ġmo ons
ĠVen et
Ġincident s
Ġdiss olved
Sec ret
ĠHea vy
Ġtear ing
Ġannoy ed
Ġic on
== ==
Ġdeleg ates
Ġcongrat ulations
Ġgreed y
D ON
D arling
G y
I LY
K ate
N on
P ost
i ard
Ġa qu
Ġo re
Ġb rom
Ġc herry
Ġp ose
Ġn odes
ĠS tern
ĠS alt
st ud
ro ve
ĠC AP
ĠM asters
ur an
Ġgo ats
th ood
ĠD ani
os ion
Ġcom a
Ġup graded
Ġsa ves
ag ua
Ġdown ward
Ġam using
Ġper fection
Ġdist ract
Ġdec ay
ier y
Ġrest oration
Ġexp elled
Ġri pe
Ġpri zes
Ġpain ters
Ġrece iver
Ġver b
ĠWith in
Br ad
Ġ186 9
Ġcru ise
MA LE
Ġinqu ired
Ġconduct ing
ĠNever theless
ĠBat man
ĠKl aus
ĠBaby lon
Ġrefuge es
tw enty
elf th
Ġabol ished
Ġque ue
Ġchrom os
Ġdisgu ise
F urther
G row
J ones
N N
P O
P a
h orn
v ial
y et
Ġ iv
Ġp ence
Ġp engu
Ġwe ld
ĠS hoot
oo ped
ĠH mm
ĠB A
ĠT erm
op ot
ol ini
ĠD onna
ĠG DP
Ġsu ited
Ġout line
od or
ĠCh in
pt ic
ĠY as
Ġco aches
Ġind oor
Ġimp osed
Ġhold er
aken ing
erv atives
ĠFor bes
ĠCon struction
AS A
Ġrequ ests
Ġtom ato
Ġhair s
Ġsupposed ly
isc al
isc opal
Ġexcept ional
Ġmouth s
Ġident ification
Ġhar ness
Ġfavor able
Ġrain forest
Ġexec ute
Ġdig it
Ġthreat en
Ġfunction al
Ġ188 9
Con f
Ġlog o
ucle ar
197 0
Ġtim id
Ġblank ets
ĠCam den
ĠCy prus
ĠJac ques
Ġpoison ed
Ġalarm ed
Ġjealous y
ĠNob ody
ĠSom alia
Ġdepos its
Ġven om
ĠBurn s
Ġprosec ution
Ġaston ished
Ġperce ive
ĠAthlet ics
ĠBenn ett
M ir
M EN
R oyal
c um
d al
l it
m ant
m ove
Ġa pr
on so
Ġb ounce
Ġf ried
Ġp arrot
al g
id ad
am ble
ld on
ĠM ick
ĠD im
ĠD ove
um ing
ĠR iley
ĠN adu
Ġpro c
Ġshe pherd
Ġno ises
ĠK ash
Ġtr ay
are well
ip zig
ish ops
Ġro pes
Ġcomp at
ult ip
ons on
Ġhand ic
Ġlast s
any a
Ġmin im
âĻ ¬
Ġsub urbs
Ġpop ped
Ġass urance
ered ith
ĠZ en
Ġunderstand s
Ġmag ist
ĠCar n
Ġve il
AS H
Ġ13 0
sc reen
LE Y
Ġhy ster
ĠAc ad
ĠPat erson
Ġ189 7
Ġ188 7
Ġpet rol
Ġgar ments
ĠSuper man
ĠHel p
Ġflo at
Ġow ed
TA IN
Ġwhist ling
Ġfil thy
Ġparliament ary
pent er
Ġric hest
Ġbark ing
oca ust
ĠAbd ul
Ġacknow ledge
ĠSah ib
Bas ically
ĠBed ford
Ġbree ze
ĠGoth ic
ĠPunj ab
Ġcourty ard
C ity
T ogether
V irgin
f ell
h istor
m ile
Ġ à¤
Ġt ended
Ġa lex
at ivity
Ġm asc
Ġd aring
Ġl ag
ac cept
ĠS eth
st ri
se ver
ĠB rent
ĠP and
ĠP ick
ĠD R
Ġr az
ĠE thel
Ġpl um
Ġjust ify
Ġright ly
Ġright eous
ĠU C
Ġsp ont
oc us
ĠMar in
ek a
Ġrun ners
part y
uff le
Ġinter face
umb ent
ĠHer r
Ar ab
Ġang rily
Ġhost ing
Ġjump s
Pe ace
Ġbull y
Fr ances
Ġrob ber
hold ers
ĠIr ving
Ġquarter back
imp se
Ġinhab ited
ĠTy rol
Ġhom osexual
Ġrot ation
vi ated
ĠUs ually
ĠBor is
Ġjew els
ĠAut o
Ġven ue
ĠRain bow
Str ange
Ġtack le
Ġtheore m
Cent ral
ĠPLAY ING
Ġevalu ate
Ġclo ak
D eb
I VER
O FF
V ol
a gh
c amp
f les
s worth
z an
Ġthe ta
Ġw ishing
Ġm apping
or gh
Ġth reshold
ad le
ĠC HE
ĠH l
ĠH ir
ĠB IG
Ġj ug
ĠR aw
Ġall ied
qu it
ven ues
ang les
ass an
Ġen vy
Ġbr ow
ody nam
Ġmin imal
Ġreal istic
Ġ10 5
Ġwond ers
eng ine
ĠCan ter
Ġpar as
Ġsqu eak
ĠAd rian
IS E
ĠHer zeg
Ġcompet itors
Ġ189 5
ĠSl av
Ġharm less
Ġopt ical
Ind ian
Ġinterview ed
Tw ilight
Ġexhib ited
GE OR
CA ITLYN
only include
Ġflood ing
ĠOz ma
Ant on
Ġstir red
Ġsubt ract
ĠSpirit ual
ĠGh ana
Ġpudd ing
ĠLiter ature
role um
Ġenviron ments
L ost
L ots
N G
S ea
S ound
m akers
Â Ĵ
Ã ½
Ġt ires
Ġa est
in v
Ġs erm
Ġin ward
Ġl ur
Ġl enses
Ġn oodles
ent ive
Ġst ocks
ĠM erry
un ately
ul ates
ĠD res
ĠD oll
ĠR ush
ĠL ily
ĠF en
ap olis
Ġpl aint
fe w
Ġro ok
Ġpart ed
Ġthought ful
Ġfin ishes
ĠAll an
iver ing
Ġ16 0
Ġarm or
Ġmemb rane
Ġsil ently
Ġauthor ized
Ġaut onomous
ĠHigh land
Ġsad ness
Ġcard iac
sequ ently
ĠMat hem
Ġguard ian
Ġbutter flies
Ġconsum ed
isp ers
ĠLu is
ĠTre asury
Ġancest or
Ġconce ived
Ġindu ced
Spe cial
ĠPict ure
Sub titles
Ġbuff alo
ĠWes ley
abl ished
ĠScient ists
Ġbrut al
ĠLeban on
ĠMow gli
< /
A k
E conom
H uman
J ake
L ow
L ake
L aura
b bing
c all
d ead
p aper
p oor
Ï ģ
Ġa pe
on er
Ġc it
Ġc ens
Ġc ured
as se
as el
ĠS ighs
st reet
ĠC ors
ĠC yrus
ĠB ET
ĠP ow
ea p
th ia
Ġr anging
ĠR ip
ĠR ee
ĠF ly
Ġcon ferences
ig nty
ĠHe ath
ond o
amp le
og ram
ĠV ent
Ġpo ker
ĠSh aron
Ġref uses
fl ow
Ġeng ra
Ġport s
ĠMon ica
ĠAnt o
Ġindepend ently
Ġoccup y
Ġunc omm
Ġca ution
Ġexperien cing
Ġmeasure ments
ĠVal entine
Ġcart oons
Ġdisturb ing
ĠBud apest
Sil ence
Ġhesit ated
ĠLag ash
Ġles bian
Ġol ive
Ġtheat rical
Ġbisc uits
ansk rit
Ġverd ict
ĠHerzeg ovina
B ang
C opy
M o
P ierre
R ub
r h
r unning
t aking
Â §
Ġh ometown
Ġg ard
al am
id y
am akan
im er
ĠC avalry
ch ron
her ic
ĠH annah
op in
ĠW R
ĠD y
est e
ĠL an
Ġab used
ĠJ oint
Ġsu cc
ĠK ot
ide red
Ġany time
Ġgr ants
ĠCh un
act ions
ign ment
ĠTh ought
ah an
Ġmust ard
ener y
ER ING
St ra
ĠAl most
Ġbo il
Ġgl ue
Ġfight ers
Ġtre acher
ĠTr ain
ĠTe acher
stit u
alt ies
ĠWell ington
Ġadm ired
Ġdoub led
ĠProv idence
Ġcelebr ity
Ġpositive ly
Ġacqu ainted
ĠCont est
Ġcontroll er
Ġgro cer
ĠDen is
Ġrent ed
ĠBook s
Ġdistinct ive
pass ed
Ã± a
Ġrum ors
ĠRoll o
Ġing en
Ġparad ox
ĠOrigin al
Ġuncertain ty
GB T
Ġvert ices
ĠGon z
C over
D I
P AN
R L
g us
t old
Ġw aved
ou lt
Ġc ob
Ġm es
Ġm ourn
Ġp eter
ic on
st roke
ri ents
ĠC el
ĠM iy
ur ai
ĠH omer
ĠT ong
op old
ĠW A
ĠW inchester
Ġ" ",
ĠD arn
ĠD iana
art he
Ġor al
qu iao
Ġcl am
na e
act s
ĠV iolet
Ġspe eds
Ġcount enance
Ġco ached
Ġsub mission
ner y
Ġpop ulated
Ġinst ances
ĠCl ifford
Ġmiss ile
ES CO
Ġten ure
Ġrev ival
Ġaccept ance
sp ace
Ġemb ed
ĠHen ri
God damn
Ġaud iences
Ġcommand ing
Ġchem ist
Ġ189 4
ĠPet erson
Ġhonest y
Ġlif ting
Ġcontact s
va al
Ġge ography
IF E
Ġappreci ated
Ġcolon ists
bel ieve
ĠJun ction
ĠVen us
Ġterror ists
Ġshr ine
Ġimpl ies
ĠSong s
ĠNap les
ĠLuther an
Ġrenew ed
Ġimprison ment
Ġavo iding
Ġimmort al
Ġrecycl ing
ĠMorocc o
Dire ctor
C ry
F ound
O x
g onna
k ers
Ġc aves
Ġd um
Ġd angers
Ġp ioneer
Ġy uh
as ia
om ical
ĠS is
ĠC A
ĠC inem
ĠT usc
ĠW en
Ġsh ores
ĠN in
ĠJ azz
ap o
ĠE is
ĠE agle
Ġv engeance
Ġcl aus
ass ic
ne z
Ġdis advant
Ġfl ushed
IN A
ĠAnd ers
Ġgl impse
Ġinc ap
me re
ĠCl aude
AT ER
Ġgovern ors
ump ing
Ġins pection
con ne
enn on
gue z
ĠPar amount
Ġmer rily
Ġsuper market
Ġaff irm
af ia
Ġjud ged
ett i
Ne il
Ġkiss es
Ġgas oline
Ġ188 1
Ġaddress ing
Ġ187 7
Ġmission ary
agn etic
ĠCarl o
ĠCom ics
Ġya wn
ĠHon our
ĠOl ivia
Ġconsult ant
Ġconclud e
ĠWy oming
Ġsumm ers
ĠLes lie
ĠTs ar
Start ing
Ġmonitor ing
Ġbind ing
Ġattribut ed
Ġsummon ed
Ġinfer ior
Ġbarr acks
ĠAgric ulture
ĠChall enge
Ġmetaph or
R ussian
W olf
d ess
k ok
l iving
m ut
p age
p son
t re
Ġw i
ou pe
Ġc ass
Ġd itch
Ġy ogurt
ic ations
ad ise
ent ry
ĠS ony
ĠA ri
ĠM ut
ĠH ab
Ġsh ove
ĠF ish
Ġcon e
Ġsee ks
ans om
ord ination
Ġper former
Ġcr ank
Ġcr ude
Ġcr owned
ĠMar c
Ġpres ervation
ale b
Ġwar mer
ĠRe becca
Ġdevelop er
ĠX box
Ġtou g
Ġhusband s
Ġclean er
ĠEx actly
Ġobject ives
Ġactiv ists
Ã¡ s
Ġobs essed
ĠMon roe
Ġrain fall
ĠLi bert
Ġgoal keeper
Le on
Ġinvent or
Ġdrunk en
Ġexpress ions
Ġalcoh olic
Ġveget ation
does n
Ġpuzz led
Ġcorpor ations
Phil ip
Ġsynt hesis
Ġaston ishment
ĠFern ando
Kn ock
ĠBright on
Ġrespir atory
B udd
E li
F orm
G M
d ark
f ried
m ain
m em
n ice
Ġs ne
it ially
Ġp est
Ġg azing
om orph
le ar
ot to
Ġhe ed
ĠC ool
ĠM V
ĠH amburg
ĠT AKE
ĠW elcome
Ġsh ipped
Ġj im
ĠG ru
pp y
ist le
ĠR ut
ĠL ost
ĠF ra
Ġall y
el in
el ong
ĠJ ob
Ġex changed
Ġtr ams
ip h
reat h
Ġcomp ilation
ĠV ERY
Ġcr ane
ale h
app ear
Ġev aluation
idd les
Ġsk ies
velop ed
pr ot
Ġdiv ing
Ġsleep s
Ġorgan izing
ĠBe et
oub t
ĠWill ie
ĠGu er
aff y
Ġproduct ive
Ġintrodu cing
Ġ189 3
Ġbi as
ĠSat an
Ġaccording ly
ĠJul es
Ind ia
Ġrub bed
ĠAng ola
una way
Ser geant
ĠDi ocese
ĠBrad ley
Ġfil ter
Ġstab il
Ġthrill ed
Carl os
pop ular
Ġaccommod ation
Det ective
ĠCry stal
Ġsusp ension
Ġtorped o
C row
D ifferent
G N
f o
Ġt ourn
Ġm u
Ġl n
Ġg ains
ot hes
ac a
ac er
ĠS Ã£o
ĠA ber
ĠC ouncillor
Ġdo dec
Ġdo zens
if fic
ĠB rig
ĠT ru
ol an
Ġde emed
Ġcan vas
ĠR ams
ĠL ay
ĠK yle
Ġam bit
Ġapp aratus
." --_
get s
Ġcr ater
Ġatt ach
Ġsl ot
Ch ap
Ġimportant ly
ĠSo ci
Ġexpl oded
Ġconst ell
de en
oud in
ĠSw an
Ġav iation
ĠMc L
Ġ188 2
ĠMag n
Sc ot
Ġcompl aining
Ġpan els
ĠRome o
Ġbroadcast s
Ġcontest ed
Ġur anium
Ġpoison ing
Pre viously
ĠSant os
Ġnegoti ate
ĠMoh ammad
care ful
ĠNik ol
Ġcoc aine
Hope fully
Ġinaug ural
Ġmisunder standing
ĠAhm ed
pow der
Ġpsychiat rist
Ġrecru ited
Ġnomine e
Ġincor rect
9 00
A GE
M id
N T
d raw
l C
l ance
v ae
in as
Ġs ul
at as
it ational
Ġc ement
Ġin land
ut a
ith ms
ĠP O
ĠP ART
ĠF rem
ĠN u
ĠN ah
ĠE U
Ġpl ac
ber man
Ġtr aced
Ġun pre
cl osure
Ġbet a
sh ort
Ġrec ession
Ġins cription
arl ic
ĠPl ant
IC H
ĠPol itical
Ġhealth care
Ġdi abetes
Ġaut obi
SE L
Ġ188 6
Ġ187 8
Ġcrowd s
ĠDO OR
Ġwheel chair
ĠInter ior
Ġcounter part
ĠLiber ia
Ġintegr ation
Ġinstru ctor
Ġdeliver ing
ĠAndrew s
Ġrhy me
Ġimplement ation
pol is
ĠMir anda
Ġkidna pping
Ġmerc ury
Ġairl ine
Gas ps
unci ation
Ġidi ots
ipel ago
Ġambit ious
I an
L C
P ress
s orry
ll i
al and
ot ally
ĠS ak
ĠS eg
ill as
Ġse gments
hat e
ĠP ink
ĠP oor
ĠW HEN
Ġr aced
ĠL ET
ĠF ars
ab o
Ġcom rade
qu est
ĠK re
ci ble
Ġen abled
ĠIn ca
Ġun anim
Ġfl ute
Ġ3 60
Ġent ity
Ġloc ate
Ġdisc ipl
ĠPr ison
Ġdef ault
Ġcop ied
Ġport ions
Ġspace craft
rel ation
Ġviol ently
inn ers
ĠGrand e
Ġ189 2
igg s
Ġmel ted
Ġpurs uing
ĠTy pe
ĠLy on
Ġbreast s
ĠCorn wall
ĠKy ung
ATH ER
Ġvo iced
Ġshat tered
ĠDig ital
ĠFerr ari
C ross
K evin
R h
T s
b as
h ai
n umber
s outh
v oice
á º
on omy
or ient
Ġp uri
Ġl umber
Ġg h
om atic
ad ier
ld a
ĠS ite
ĠM AR
Ġan at
Ġan onymous
ĠP RE
Ġj oseph
ĠF rost
os er
qu art
Ġup right
Ġch alk
Ġpl as
ĠO riental
Ġv alleys
ĠK ens
itt ees
fe et
Ġar se
ĠSt alin
Ġam ph
Ġplay wright
pl an
Ġinv iting
Ch ild
Ġcol oured
Ġcomple ting
de v
Ġbreak down
cent ral
Ġdep icted
ĠEl iza
sp oken
Ġspend s
rill a
Tr uth
ĠCo hen
Ġplant ing
ĠFrank furt
Ġsal mon
Ġwarm th
Ġfault s
Ġemer ging
ĠSar had
199 7
Ġcomplex ity
ĠBet ter
Ã¤ r
Ġcro oked
Ġcitizens hip
Should n
Ġtunn els
Ġcooper ate
bro ok
Ġathlet ics
ĠSteven s
ĠStock holm
Pop ulation
Ġabol ition
offic ial
GRUN TS
ĠMaced onia
Mod ern
Jos Ã©
Ġank le
ĠThom son
. ;
: "
H an
M C
S chool
T em
W ay
n uts
r ub
Ġ Ø
Ġb aked
Ġth a
Ġp and
ĠI k
ve red
et us
im ination
ĠS iber
Ġst roll
ill on
ĠT ill
ĠD art
el o
Ġab du
em ia
Ġex quisite
ag hetti
ĠU rs
ass is
ne xt
ild er
Ġsomet hin
pl ing
Ġafter ward
Ġdis put
Ġfound ers
Ġlot tery
ubl ished
Ġinc ons
ern s
ĠInd o
Ġrest less
Ch air
ĠQ ing
Ġ9 00
Ġexpl ode
inc ing
Ġreason ing
Ġval ve
ĠEd ith
Ġsuper hero
Ġlik ing
Ã¨ che
Ġmor ality
199 6
ĠFred die
Ġsli ppers
Up on
Pre pare
Ġconsult ing
ĠMoh ammed
Jo el
ĠRel igion
Ã¦ sar
Ġrestrict ions
Ġinstall ation
Ġaccommod ate
Ġfemin ine
Wonder ful
Ġbrows er
ĠSomers et
uffic ient
Ġportfol io
ĠCanter bury
D ou
F el
F riends
L arry
N OT
O s
P apa
c s
f en
g old
u ish
u ced
an us
Ġh ub
Ġy Î¿u
Ġn ina
ĠI sh
ic able
st a
Ġst ag
ĠC ann
ĠM U
ĠM ills
ĠT ampa
ol ving
ul ent
ĠN ile
ĠN ana
ig ator
red it
Ġch ord
res cent
ĠE ventually
Ġle ase
ans hah
ne ed
Ġunder lying
uck le
Ġfl or
Ġcomm od
clud ing
Ġrel ics
ĠDe uts
Ġdr ought
Ġgener a
br own
ĠQ ual
Ġwind ing
Ġcor al
Ġoper as
ĠGu ide
ourn als
Ġpaper work
Ġneg ro
Ġmis fortune
ĠIN TO
ĠAnt ony
Ġdoubt less
Ġrob ots
ION S
ĠClass ic
ANT ING
Ġpil grim
Ġlock er
Ġspect ators
ĠKenn eth
Ġsole ly
ĠSon ny
dist rict
Ġcoordin ate
enz ie
ĠRoc hester
ĠBou levard
Ġrehears al
Ġfrust rated
orgh ini
D am
D ue
G al
H istor
J un
J ason
S ort
S ports
r ance
s arah
t is
v iv
Ġt urt
Ġo v
Ġm it
Ġl aser
al one
am mer
ĠC hess
Ġas ylum
ĠH ank
ĠB od
Ġat tained
ĠT hy
Ġj ohn
ĠG em
ĠR osa
ĠL iga
ĠF erry
ab lo
os ph
ĠJ ong
Ġor ator
Ġwor ms
ĠSt ore
Ġcl ap
Ġqu iz
Ġrec oll
ash ire
ĠGod s
Ġexpl ored
ĠRe ady
alth ough
eal ing
oint ed
Ġpast or
ĠGu ild
ĠAb original
Ġdark er
Ġexc uses
Ġsimilar ly
ĠPer formance
Ġemb ry
Ġcy cles
Ġ187 9
will ing
198 6
Ġindic ation
Ġspect acular
Ġheav ier
Ġdistinct ly
Ġbul b
found er
Ġward robe
ĠBeat rice
Att ention
ĠChel sea
Ġobser ving
Ġexclud ed
ĠKum ar
Ġcogn itive
coff s
ĠUrugu ay
B at
C D
H op
I LD
S ad
V e
X X
d oll
e ur
n ea
o ic
p ast
r ans
Ġ ll
Ġt ug
Ġs igma
ed ar
Ġy ep
Ġn ests
im ming
ĠS uk
ri ac
ĠA er
ĠC ic
ĠM ater
ant on
ĠP reston
Ġgo sp
ĠD j
Ġsh iny
ĠG ates
ĠL ad
em ark
Ġpl ains
ĠO ct
ink ed
ud s
are l
Ġcl er
ass ing
So cial
ne ck
oll en
ov anni
Ġrem ix
Ġsupp orter
und ay
Ġsl ut
Ġem blem
ten ham
ĠPr otection
ĠPr inceton
ĠCl aud
Ġadv ancing
Ġvar ieties
ĠLe ipzig
ĠX I
ĠSe o
yn n
ĠQue equeg
Ġpot ty
Ġdoub les
ĠMon ster
ĠReg ency
Ġ188 3
Ġgradu ates
199 8
Ġreve als
Ġmeasure ment
ĠGet ty
Ġtrick y
ĠLiber ty
Try ing
point s
ĠBon nie
Ġlegend s
bro ken
ĠCard iff
ĠAdd itionally
ĠArm strong
enh agen
ĠDID N
Ġnavig ation
Rad io
Ġtransmit ter
Ġcray ons
ĠEthiop ia
Ġorient ation
Ġadequ ate
ĠPorts mouth
: --
M M
R o
b en
b read
f s
l aura
s us
v iol
Ġt et
Ġb ows
Ġf aded
as aki
Ġl aps
Ġe ve
am oto
se emed
ĠC rom
un c
Ġr ash
ĠG iant
ĠR acing
ĠL P
ĠL ogan
ĠF ind
Ġor chard
Ġsa ge
ous se
Ġwhen ce
Ġplay offs
Ġfind ings
Ġ18 40
gr own
Ġdist racted
ĠDe h
app ro
Ġround ed
Ġeng aging
ĠAd ri
Ġhy mn
Ġeduc ate
ĠMy st
Ġvict ories
OT S
Ġarg ues
Ġpet ty
ouri er
ĠCH APTER
Ġautom obile
Ġpit ched
BE TH
ĠConf ederation
ĠMem phis
Ġnut rients
Ġsymp ath
ĠWin ston
Ġconfident ial
Ġsatisfact ory
Fort y
Ġobey ed
Ġtempt ation
ĠSOME THING
Ġintu ition
Ġperf ume
Ġcongreg ation
Ġpean ut
Ġarrog ant
Ġsib lings
Ġcarr ots
D one
G i
G re
b ug
b eth
h urst
n u
ou cester
en u
Ġd azz
ĠI ND
ĠA ce
Ġha ul
Ġk alie
ĠH ull
ĠB ha
ĠT ory
ĠD amn
ĠG ren
ig uel
Ġup coming
ĠK os
Ġgr ains
Ġpre ference
ĠY ep
Ġmust ache
Ġmin erals
form ing
Ġchild ish
Ġsw ell
Ġinter pre
Ġeas iest
Ġspec imens
Ġoper ators
Re ferences
che ster
ĠOr lando
ĠDo or
Ġmot to
arth y
entle man
Ġmem oir
Me et
het to
ĠCo ven
oph one
Ab by
Ġsett ings
Ġsett ling
LA US
ĠRec ord
Ġblock ing
ĠCH AR
Ġcontribut ing
ĠRock y
Ġremem bers
Ġexpress ing
rain ts
ĠJeff rey
Des cription
ĠDef arge
erg ic
ĠAp ost
Ġrac ist
Ġsculpt or
Ġconcl usions
Ġsimpl icity
ĠSel f
ĠHug o
ĠLO VE
Trans port
Ġmic row
Ġpremie re
ouncill ors
Luc y
Ġdrift ed
ĠBulgar ian
Dem ographics
ĠAssy rian
ĠHamm ond
Ġsacrific ed
Ġnob ility
Ġjurisd iction
H ig
J erry
M oo
R aw
W ed
b ull
c our
o ften
Ġ ions
Ġo at
Ġbe ads
ĠS lyne
Ġwh ipped
Ġst atic
Ġdo s
ĠH OU
Ġse len
ĠB ug
ĠP ath
ĠP erson
op atra
ĠN ant
ĠE ye
ear y
ough ing
Ġpe ek
Ġsp ared
ass ium
Ġad min
oc hem
ob ia
âĢĿ ,
Ġfl ush
oss ibly
ĠMar se
Ġrel ocated
Ġimp ose
cess ion
ĠZ oo
eb i
Ġtri o
ĠWe ather
Ġmill s
Ġbar bar
Ġsum s
ĠCol ony
yn thia
Ġtable t
ĠHar bour
Ġinfl amm
atter y
Ġz omb
ĠGl oria
Ġfort ress
Ġund oubtedly
Ġap ost
Ġhero ic
Ġemer ge
yl an
Ġut most
El izabeth
Ġdecor ative
ĠThanks giving
ĠSystem s
Grand ma
Ġment ions
Ġathlet ic
ĠLind say
ĠFrances co
ĠLanc ashire
beh ind
Ġadopt ion
Ġbuzz ing
Ġturb ine
Ġjer sey
Ġoxid ation
ĠBatt alion
ĠEug ene
ĠKle in
Ġbos om
C ass
C old
D ark
L ind
L ucky
S ant
b ara
h undred
m orning
r ays
s ac
Î µ
Ġw izard
Ġb olt
Ġh oo
ll an
Ġd uration
Ġy onder
Ġy oga
le igh
im portant
ĠA IDS
ce ived
ĠT in
ĠT oul
ĠD ust
ĠR EP
Ġor th
ig ue
Ġex em
ĠK w
ure r
ĠV a
Ġbl uff
Ġday time
Ġdis band
Ġser vers
Ġfound ations
Ġsl ice
Ġsl iding
ĠAl icia
ĠSh it
Ġrep aired
Ġhum ming
Ġ10 2
Ġcur ves
ĠAll ison
Ġeight eenth
Ġdesign ation
che on
bo ats
Ġsum mar
Ġport raits
Ġmass age
ĠPri vate
Ġscreen play
ĠPac quiao
Ġtele gram
resp ons
Ġachieve ments
Ġtur f
ĠUN ESCO
Ġmyth s
Ġswitch ing
Ġexplos ive
Ġcycl one
Grand pa
Ġteen age
dist ance
Ġsna pped
Ġexha ust
ĠLanc aster
Ġgloom y
ĠSoph ie
Ġwag ons
Ġnig ga
Ġacknowled ged
Ġrefriger ator
B ay
G one
H oll
K S
K enn
M ass
P erson
R od
V I
f und
m ath
p he
s ens
s kin
Ð ²
Ù Ħ
re present
Ġd agger
Ġin mates
Ġl amps
le ctions
Ġhe ights
Ġwe eping
ĠC ort
ĠB ot
ĠG ri
ĠF oot
ĠO ften
ra ge
ĠK arthik
Ġdis orders
Ġunder graduate
Ġfl ut
ĠY ong
Ġsm ugg
Ġcons ume
AN CE
Ġprob ation
âĢĶ âĢĿ
ĠAd vis
Ġbar ric
ped ition
ipp ers
ĠMan ila
ĠEd ition
Ġfre aking
Ġlocal ities
Ġsn iff
Ġord ained
Ġcapital ism
Ġz ones
amer a
ĠNe ed
Br own
Ġhall s
ĠCharl eston
Ġcompos ite
Ġ185 8
ĠHy d
Ġetc etera
Ġappreci ation
Ġexhib itions
Ġflower ing
Ġproceed ings
Ġpool s
Ġow es
Gl ad
Ġphr ases
Ġped est
Ġextensive ly
Ġetern ity
ww w
Ġpreced ing
Ġbarrel s
Ġhesit ate
ĠOrigin ally
yth on
ĠOcc itan
Ġenh ance
Jon athan
Ġtelesc ope
Ġcance led
ĠKerm anshah
B uy
D ER
D IC
J oy
J osh
L ay
O O
T re
T ED
g ae
h oney
l ady
m ary
p rom
Ġf oe
Ġin justice
us ky
ac ies
Ġwe ep
ĠS ig
Ġwh oles
st ral
ke es
Ġst ool
ĠC ock
Ġan them
ĠP ast
ĠD rew
ore n
Ġtw ilight
Ġen act
ĠV it
ĠV el
hy a
Ġpr inces
Ġlong ing
Ġsm ashed
ah i
Ġwon t
Ġcare less
ale igh
ĠSh i
Ġchar ging
ific ant
br ing
Ġref res
Ġri bs
Ġri vals
Ġcontin ents
enn ium
ĠEnglish man
ĠCar roll
Ġcurrent s
Ġsuper b
ĠPark s
ĠPhil harm
Ġrespons es
friend s
Ġglad ly
Ġdel ta
Ġcollect or
ĠSim pson
ram atic
Ġdisp osal
Ġarchite cts
Ġstream ing
Ġtal ents
Ġinstit ute
ĠTw ins
ĠLuc erne
198 9
ĠPlay ers
Car ter
Ġur ge
Boy s
char acter
bra him
Ġfulf illed
Ġconfirm ation
iped ia
DO OR
Ġvary ing
Ġgig antic
Ġunemploy ed
Ġaffili ate
ĠProp het
Jac ob
Ġcrocod ile
ĠByz antine
A ut
C re
C ho
R y
U G
W N
b ins
g iven
k g
m oney
q i
Ġt utor
in is
in um
it he
Ġf ag
Ġh ors
Ġd ancers
al ore
le ading
Ġhe lium
id odecahedron
ad ic
ĠS anskrit
Ġwh isk
ĠA PP
ĠH aj
il ion
il iation
ant om
ĠT anz
ea ux
ĠR s
ĠL Ã©
ĠF ifth
nt on
Ġout law
ound rel
ĠK ind
oy a
port ed
Ġco ke
Ġend angered
ĠBr ick
Ġind istinct
Ġinc umbent
ik ing
idd y
Ġdevelop s
ĠSc andin
ĠCan on
Ġreason ably
Ġnorth western
De ep
Ġemploy ers
Ġsand y
Ġbright er
Ġcomfort ably
Ġpred ators
ĠSuper intendent
199 5
ĠJul ius
ĠHaw ks
Ġmaintain s
Ġgraph ic
cos ystem
Ġsculpt ures
Ġcollabor ated
ĠBad en
Ġextend s
Ġgreet ed
Ġwithdraw al
Ġsurf aces
Ġtid y
Ġcreep y
Alp es
Ġincon ven
Ġscre ens
ĠPresbyter ian
E arl
E lect
H undred
K a
P LE
W S
b out
x x
Ġt rophy
at che
an oid
Ġc m
Ġc ube
en o
ĠM ol
ĠB il
ĠG ap
ĠG ong
Ġde ity
ĠR unaway
ĠL one
ĠJ ak
ĠJ enn
Ġch unk
ĠO blast
ak y
ag us
Ġro ster
Ġbl onde
Ġbu ys
te chn
Ġsm iles
Ġfr own
ĠIs n
Ġexp ose
Al ready
Ġexpl oring
pend icular
ograp hed
Ġtrain er
amb led
ĠCol onial
Ġmot ives
dom en
Ġsuper v
she ll
ĠGl acier
ĠAnt i
ĠBer k
Ġimm unity
Ġund o
Ġadminist rator
Ġbi ography
ĠMac Dowell
Ġoffe nd
Ġlog s
hand s
Ġ187 5
199 2
Pr incess
Ġfright ening
Ġcomment ator
pret ty
Ġur ine
Ġuniform s
Ã´ ne
ĠGib son
Ġgreet ing
Ġanticip ated
ĠSac rament
Ġsolic itor
ĠFried rich
I Z
L iving
O ber
U LL
b ows
c ur
c ony
j ay
m unk
p ick
Ġt its
an an
Ġc yn
Ġm i
Ġm ating
es ame
Ġhe ct
ent er
ut i
ĠA ur
ĠC ultural
ĠM ovie
ĠP u
ĠP eg
ĠT es
ĠD unk
ĠR NA
ĠN ame
ab by
Ġup wards
red ited
ĠE va
ĠK end
ĠHe in
are st
ĠSt rat
Ġbr isk
Ġapp end
ult z
ect ed
Ġcr umb
Ġcr ashing
man uel
ĠMar ines
form s
Ġpres ume
ĠZ h
ĠPro fessional
Ġinform al
Ġstation ed
Ġra is
ox ide
Ġimag inary
sp irit
Ġprotect ive
ĠEm il
Ġhost ages
Ġcool er
Ġconv oy
ĠHall oween
Ġ186 8
ĠScot ia
Ġlack ed
Ġban ner
ĠTrans it
amil ies
App le
han ie
Ġcapac itors
Jack son
Ġpin ch
ĠSant o
ĠPhilipp ine
Us ing
Ġexpert ise
ĠMot ors
Ġsymp athetic
Ġinterpret ed
Ġconven ience
Ġdisg ust
ĠRoberts on
ĠIndust ry
ĠRead ing
Marg aret
B all
D C
c ats
e ach
Ã ¬
Ġthe or
ou che
Ġc er
Ġm old
Ġm akers
or um
en ment
Ġd ictionary
Ġl as
Ġl ith
Ġg ee
Ġg raz
Ġn ought
ic z
ay ette
Ġe ch
ut us
ri ous
ĠB it
ĠP ine
ĠT ina
ain es
ol utions
um sy
ĠL ax
ĠF ane
ĠJ ura
ĠE ss
ber n
ĠK ish
ĠK LAUS
ĠHe ctor
Ġen v
Ġen ergies
ĠV ernon
Ġdis respect
sh oot
Ġlong ed
aw i
Ġrem ake
Ġele venth
ph al
ters on
Ġsub ordin
Ġinv ari
rop he
ĠCl oud
Ġtrans parent
ĠMay weather
Al ong
Ġdevelop ers
Ġprot otype
omin al
Ġsuper natural
Ġstar ve
Ġinvest ments
Ġcat ast
Ġcat aly
see ing
Ġaut op
ĠCr ane
Ġbattle field
Ġcontact ed
Ġir res
ĠArab s
Ġacqu isition
Ġdisp osition
Ġguard ed
Ġtransport ed
ĠBas il
Ġdecor ation
Ġsuspic ions
bu ilt
ĠAny thing
ĠLight ning
BO TH
ĠCard inal
Ġinput s
ĠPalest inian
Ġfisher men
Ġtrump et
ĠHob bes
Ġrabb its
ĠNash ville
Ġdiscont in
ĠMethod ist
Ġconfig uration
Anth ony
ĠSull ivan
ĠCret aceous
ĠTusc any
E mma
J er
P ot
P ET
R ather
c ake
h n
m ns
t om
t oday
w au
Â ª
it ory
Ġh over
Ġd ashed
Ġto ad
Ġp m
le gged
Ġhe el
all ic
Ġse iz
ĠP ier
ĠT ry
op ol
ell ar
ĠD ra
Ġsh alt
ĠL aughing
ĠN ak
Ġcom in
ap arte
ak ov
ĠK in
Ġtr anqu
av or
Ġmar s
Ġsl aughter
Ġsy ll
Ġsur plus
Ġret rie
ĠZ ar
Ġimport ed
Ġcontin uously
ĠSc reen
Ġconst r
che l
ĠAd olf
Be hind
Ġcal culation
Ġcal cium
Ġdep ot
Ġprop het
Ġsuper st
Ġesc aping
Ġple aded
oly te
Ġapart ments
ĠCr ime
Äģ r
New s
Ġreported ly
igg ling
Ġdocument ed
Ġ185 5
Ġ185 7
Ġmel ting
Ġflag s
Ġshr imp
Ste ven
ĠFour th
Ġdish on
Work s
ĠHor ace
Ġrecip ient
Ġreun ion
Ret urn
Ġfu els
ĠHispan ic
Ġtourn aments
A le
L incoln
R hin
] ]
a uthor
e lect
p el
r ather
s at
v onne
Ġw akes
it ably
Ġg arlic
om plete
Ġn i
ĠI v
ow e
st adt
ĠC OU
ĠM am
Ġu l
ĠB ord
ain ting
Ġli zard
our ing
ist ically
Ġcan on
ĠL ONG
em aker
fe el
iv ities
Ġover board
Ġro be
ĠV ir
oc ide
be ck
Ġmean ings
ĠBr ain
ĠAr chie
ĠĠĠĠĠĠĠĠ ĠĠĠĠĠĠ
Ġreal izes
Ġmet ric
ott ie
Ġlar vae
Ġloc als
Ġland fall
Ġtrans p
br ates
Ġpolit ically
Ġdef ic
Ġball oons
Ġdest ined
Ġste ering
Ġdam ages
ĠAm ory
ĠTO O
iment ary
Ġrid ers
ĠAg l
pro v
ĠÂ §
Ġassoci ates
ĠFin als
Ġbrand y
ENT S
ĠWood s
Ġanx iously
Ġinnoc ence
ĠOs lo
them selves
Ġcontest ant
ĠPL ATE
Ġconce al
Ġalgor ithms
Quick ly
ĠBrand on
Ġtempt ed
ĠYugosl av
Ġâ Ĥ¬
oust ic
Ġsovere ignty
atis fact
Ġpropag anda
Ġcyl inder
ĠKurd ish
pill ar
ĠSpani ards
ĠUg anda
Ġmidfield er
ĠGael ic
) }
A way
H ans
M as
M onsieur
S pring
U ES
W estern
W ITH
Y T
l Ã©
r ational
y enne
Ġo ceans
ĠI P
im ar
Ġwe ights
ĠA ude
ĠC arson
ĠB ess
ĠP y
ĠP ars
ĠP ays
ĠP enny
Ġsh ave
Ġde w
ĠJ ed
ĠE urop
Ġcl aw
Ġcl iffs
ild e
ru gged
ens ional
IN S
Ġche ers
ĠFr itz
ĠSh op
Ġsub urban
Ġpop ulous
ins ki
ĠIs abel
Ġinter change
br is
Ġmiss iles
ator ies
Ġcertain ty
ĠSouth ampton
Ġopp ose
Ġperform ers
ousand s
Ġlab els
Ġbank er
sp an
cast ic
Ã³ w
Ġpsych o
gen ie
UR N
ĠScot ch
ĠBur ke
Ġpossess ions
Ġstre ak
Ġcompos itions
ĠHy de
ingu ished
Ġcomment ary
Ġwhis pering
âĢİ ,
Ġterror ism
ĠUnder ground
Ġboo st
Ġshock ing
Ġvir uses
lar gest
ĠMong ol
Ġorche str
ĠLAUGH ING
Ġcentim eters
ĠMey er
GAS PS
Ġabbre viated
ĠWarri ors
B B
C arry
D ig
D ouble
H ill
K itty
S ab
W a
W HEN
c ases
g rave
n orth
t ons
Ã ®
Ã ²
Ġthe aters
Ġw al
Ġw ards
Ġb art
Ġb ount
Ġf el
Ġf ries
Ġl ing
Ġl ick
Ġg ifted
ot ypes
id an
ĠS ung
st art
ĠC ategory
ĠM orm
ĠM mm
ĠM orton
ĠB ates
ant ha
ĠT ian
ĠW id
Ġsh aken
Ġr uth
Ġj ournals
ĠG ul
ĠL GBT
ĠF riend
Ġso y
ig m
ĠE ustace
ost ic
Ġint ens
Ġpe el
iz arre
Ġim pe
Ġneed ing
Ġdis like
Ġeven ings
Ġend emic
Ġlea ped
Ġkill ers
Ġsy rup
Ġmon uments
ĠDe cl
Ġkeep er
Ġmet re
19 60
Ġpass word
ann ers
do ors
Ġmoment um
Ġadv ances
ĠTr acy
ps wich
Ġblack mail
TH ANK
Ġmess y
ĠSy rac
Ġant id
Ġstat ues
Ġlo af
Ġ187 1
Ġmir ac
umn i
Ġca fe
ĠTrans vaal
col or
lement ary
ĠOl ive
ĠLib ya
Ġevolution ary
Int o
mom ent
Ġsacrif ices
Ġinsult ed
Ġinteract ions
Ġisol ation
Ġdwell ing
nold s
Ġric hes
ĠAle c
Ġje ans
Ġfemin ist
Ġprocl aimed
ĠMahar aj
Ġmicrosc ope
ĠTig ers
Ġexpend iture
ĠExcell ency
ĠGosp el
JUL lE
Ġapr on
Ġuncomm on
ĠBha er
ĠKLAUS NER
G iven
M arty
M olly
S D
W ish
d ifferent
f ax
n ob
Ġ ),
Ġt unes
Ġa ha
Ġa ux
at ore
Ġd ye
es an
Ġp ione
Ġl apt
Ġbe ak
Ġe cosystem
st ay
ĠC ov
ur ger
ill ings
ĠB alk
Ġr het
ĠG ur
ĠL iv
ĠF ed
Ġcon gest
em in
Ġthere after
ĠO st
ĠO LD
ast on
Ġex ch
per ors
Ġad ul
Ġbl iss
iss ant
ign y
li hood
How ard
ug gest
Ġrel ay
Ġseem ingly
Ġadd iction
Ġfr ames
uc ci
Ġshort ened
Ġest e
Ġtem p
Ġra ises
Ġdeep est
Ġprotect s
Ġaccount ing
Ġdoll s
ĠGl oucester
Ġdepend ence
Ġredu nd
Gr unts
Ġharm ful
IR L
Ġhide ous
ili ary
ĠHol ocaust
ĠWood y
Ġgro ve
ĠMax well
Ġweekend s
Ġpoison ous
Ġwitch craft
Ġlimit ations
Ġrecommend ations
Ġcontem pl
ĠEp iscopal
Ġprofit able
ĠHawai ian
Ġforb id
ĠNi gel
Rob in
Ġvic inity
Ġnic er
ĠPhill ip
Ġundert aken
ĠTob y
ĠFal con
Ġrevel ation
ĠCrit ics
ĠFac ulty
Ġabrupt ly
ĠCzechosl ovakia
ĠOccitan ie
wau kee
F ace
F inal
G onna
M l
b il
d an
h ausen
Ġt ig
re ne
on omic
Ġf ishes
Ġd ummy
Ġp int
as an
Ġin equ
Ġl oo
le an
ot hing
am el
am ins
Ġk idd
ĠH AND
ĠH ousing
ĠB orn
ĠB ib
Ġ" ...
ĠD ana
ĠL akes
ĠJ es
ĠE R
ĠE lection
Ġv odka
ak sh
itt a
na i
ĠV all
Ġam az
ical s
Ġdis charged
Ġcomm ence
Ġmon archy
ĠAnd re
oun ces
ax ter
Ġpass ages
Ġed it
Ġmed itation
Ġref using
Ġexpl oration
ĠRe ich
Ġdef ines
ĠTHE N
Ġtrad es
Ġlim estone
ĠSome one
Ġrail ways
Ġconv incing
ĠComp an
Ġfort unes
Ġpsych ologist
Ġmor ph
Ġreve aling
Ġmel od
Ġmel anch
ĠTy p
Out side
thank s
Ġdim ensional
Ġune asy
Car ol
Ġmuseum s
ĠCop enhagen
Ġexplore r
ĠRem ember
Ġinstinct s
Ġevac uation
Ġconfront ed
Ġtherm al
Ġsubsid iary
Law rence
ATTER ING
Hur ricane
Ġmush rooms
Ġinherit ance
ĠLynd e
ĠCommer ce
ĠSalv ador
ĠRabb i
Ġmour ning
ĠAgl aya
A ub
C Y
C LE
G I
N et
P ac
P sych
c ise
c rap
d ers
e ye
g ang
n ap
u ver
Ġa le
Ġa pt
in os
re ra
Ġb ake
Ġb ounded
Ġb idding
Ġh ides
Ġd y
Ġth ither
as o
Ġl am
Ġl ords
Ġl ousy
Ġl ounge
ĠS D
ĠS CH
Ġst ain
ĠP ig
ĠP ierce
ĠT hings
Ġr am
um atic
Ġcan oe
ĠR illa
ĠR osen
ĠL up
ĠF res
ĠJ ang
ight ed
ian ces
ick le
we e
Ġpr isons
Ġbet s
pl aced
Ġgu idelines
Ġer ase
du ll
ĠY un
Ġi od
Ġmin ers
Ġpol es
Ġcons olid
Ġbo iled
Where as
Ġcoll ision
Ġtri vial
Ġsystem atic
Ġ[ [
ĠKing ston
Ġequ ity
Ġpar cel
Ġhon ours
ĠPresident ial
Ġmer it
Ġdev ote
Ġprop osing
Ġcry pt
Ġcos ine
ĠEx per
ĠEx amples
reg ard
AM ES
Ġ186 7
Ġdig its
Ġut tered
Ġge ographical
ĠDel ph
Amer icans
Ġopt imal
Ġassum ptions
ĠEvery body
Ġflood ed
ĠCorn er
Ġfra gr
Ġindu ce
Ġstraw berry
Ġbra kes
Ġreprodu ction
Ġfisher man
atis fied
Ġchlor ide
Ir ish
Sus an
Ġintim id
ĠGust av
Ġgover ning
ĠGand hi
Ġeyeb rows
Stra ight
Ġembed ded
ĠSyrac use
A men
C hat
F ear
L IE
P ublic
W all
_ ;
b id
d ied
f elt
j ah
m ons
r ators
v ich
y ama
Ï Ģ
á ¸
Ġt ier
ll o
Ġp y
Ġp aj
as ive
al ine
ĠS V
ĠC rist
ĠP om
ĠP atsy
ĠT on
Ġ" (
ĠD rug
um ont
um ma
ĠR AD
ĠR andy
ĠF ear
Ġab domen
ĠE mm
ĠE van
ind ers
Ġdon ation
ans wered
ov ic
Ġun rest
Ġpr inter
ĠTh ou
te am
Ġbo oth
Ġgl am
Ġsw am
Ch icago
Ġed itors
Ġext inction
pr onoun
Ġsol vent
co x
ĠPl aza
Some where
ha ired
Ġdev iation
ĠMc Donald
Ġmatch ing
ĠCr us
ĠBo er
ĠSen ators
ĠChurch ill
ĠTur tle
Ġinj ection
Ġskin ny
Ġ187 4
Ġuncle ar
Ġdisp ers
ĠTown send
igg les
Ġbal cony
WH ERE
ĠBank s
ĠBre ak
ĠAv iation
ĠGall en
Ġaccur acy
ĠRE ALLY
Ġfrag ment
Charl otte
ĠMP s
Ġpreced ed
ĠKnight s
ĠTransport ation
Ġsurviv or
Ġchoo ses
ĠArd Ã¨che
ĠCamb odia
Ġjewel ry
Ġfeud al
Ġtrill ion
ĠHait i
Ġantibiot ics
ĠDres den
ĠSarhad i
I ce
K id
L B
P en
P ers
P ope
V ING
W ild
h tt
n ope
s leep
w id
z ards
Ġt ant
Ġw ilt
Ġm are
ĠS leep
ĠS ask
ĠH are
ĠH unting
hat an
ĠP owers
ĠT ort
ain ty
un ct
un ches
th ou
Ġsh ovel
ĠR ican
ĠF lying
ĠF IRST
ĠO v
Ġv ase
Ġsa uc
He alth
ag in
Ġpe ac
ary a
ĠCh loe
Ġover time
Ġen closed
Ġun stable
cl ub
ens en
Ġpo etic
Ġi i
az ar
Ġche wing
ph il
ĠAnd es
Ġmat ched
Ġwater fall
Ġfun n
Ġdra ught
ump ed
unicip al
how ever
Ġtom atoes
Ġgrand children
stit utes
Ġcat ches
Ġcreat ivity
ĠSm art
15 0
Ġident ifying
ĠPer cy
ĠComp uter
Ġavail ability
Ġrain y
Ġmeaning ful
Ġcapt ive
Ġ186 6
ĠIT V
Ġinvestig ated
Ġ187 3
Ġmir acles
Ġprevent ing
Ġfurn ace
ĠMid lands
Ġdram atically
ĠHind i
Ġvolunte ered
Ġtender ness
CR OW
OUGH T
Ġaffili ated
Germ any
" ]
- [
A wards
D eal
F ood
G reek
S i
c ry
f ilm
h t
l is
p rop
in qu
on gh
Ġb ait
Ġb rill
Ġg ren
ĠI pswich
am ic
ĠS z
ĠA ye
ĠC ancer
ĠM ik
ĠH ear
ĠB rom
ĠP ool
ĠD A
ĠD ug
âĢ ¢
ĠR oma
ĠL ives
Ġal ibi
ĠE yes
Ġpl edge
Ġv iolet
Ġcl ues
Ġun ite
Ġpr ud
Ġind ifferent
Ġreg iments
Ġbit es
Ġgl ove
Ġwait er
ĠIs les
Ch ina
uss i
Ġ10 3
Ġdra gging
ĠPro per
OR S
Ġpar aly
Ġswe ater
Ġarm our
Ġprocess ed
Ġfast ened
ĠPol a
off ice
Ġstri pped
ĠEm ir
Ã¡ nd
Ġhous ed
ĠIll ustration
asc ar
wr ote
Ġoffer ings
Ġcelebr ities
ĠFranc o
Ġhall uc
199 3
Ġca vern
Ġmel ody
lyn n
Ġsav ages
Ġdiss ip
Ġgang s
Ġhonour able
Comm ander
Ġsimpl est
Ġcycl ing
Ġreflect s
Ġfab ulous
Ġsna il
Ġresear cher
Ġmoth s
oust ache
Ġexcess ive
Ġdialect s
Ġprosper ous
Ġsentiment al
ĠManu el
Ġly ric
Ġted dy
Ġsaus age
Ġreleg ated
Ġpave ment
B al
B ey
C DP
M aj
M ex
P ray
U K
c overed
h ung
k of
n ian
r ide
s burg
u ber
v ik
w u
Ä ĥ
Å ĳ
Ð »
Ġa isle
Ġm im
or ie
Ġd usk
Ġp oop
Ġin hib
ay ota
Ġwh im
oo chy
Ġk ite
ĠP S
Ġr ack
Ġj umper
ĠR ash
ĠR osal
ĠL ey
ĠF iction
Ġpl ed
Ġpro l
ĠO S
Ġex terior
It alian
ag ged
Ġsp at
na h
Ġsc oot
Ġsc roll
ĠTh an
Ġres ume
Ġtalk in
anc ock
Ġdes irable
Ġkind ergarten
Ġrun way
olog ne
Ġgl owing
eg iate
ane y
att a
Ġbuild s
fl oor
Ġspec ified
ĠEuro vision
Re lease
rit ic
ara oh
Ġshot gun
Ġtreat s
Ġimag in
Ġphys i
ĠBo hem
THE N
Ġgas ped
ĠST R
Ġble ed
ĠCom edy
Ġbehav ed
ĠHi ro
Ġmechan isms
Ġstrugg les
197 7
WH Y
ĠJane iro
Ġkingdom s
ĠEvery one
Ġeditor ial
Ġgraph ics
ĠMid land
ĠEnter prise
Ġreward ed
Ġfulf il
Ġprosec utor
ĠGib ral
Ġtract or
ĠLabor atory
GRUN TING
ĠLore n
Bus iness
Ġtroll ey
ĠBerm uda
Ġgard ener
A part
D ance
H ay
H aw
L i
L iber
S now
T ar
b ane
d ar
l at
l ore
y ll
Ġt asty
Ġa mer
Ġa ids
Ġs ou
it ations
Ġm uff
Ġp ac
Ġp ushes
Ġy elled
Ġl au
Ġn un
ad der
ĠC ul
ĠM l
ĠM itch
ĠM TV
ĠH arm
ĠH umph
ĠH BO
ĠH ooty
ĠB end
il ated
Ġnot ation
ĠP retty
ĠG ian
ĠThe ory
ĠN IGHT
ĠJ or
Ġher bs
ĠE ar
ĠO g
ĠK ali
ĠSt ella
Ġro omm
Ġcomp aring
Ġbr ute
ĠV augh
hy thm
Ġsc enery
ult ies
Ġunder cover
Ġser pent
Ġfl aw
ily n
Ġpol o
ĠMar ina
Ġpres cription
Ġret orted
Ġdec omp
app ropriate
ĠZ hang
Ġsk ating
Ġins ign
ĠTr in
ĠBe ast
Ġcir cl
Ġtrad ers
ĠIndian apolis
ĠWell s
Ġviol ation
ĠMark s
Ġquar ry
Ġdel ays
Ġwild erness
Ġmultip lication
arn ation
ĠBill board
Ġexhib its
Ġflu or
Ġearn estly
EM ALE
Ġfan ci
Ġimpl ications
sl ow
Ġthread s
LAUGH ING
Ġparam eter
Sat urday
ĠHO YT
ethe less
Ġphilosoph ical
angar oo
B uck
F ilm
J UST
R oss
S ol
S ays
W at
c re
h ov
h ale
i ya
j ob
p osition
t ook
w al
Â ¤
re na
an mar
Ġb aker
Ġd izzy
ĠI ris
Ġhe aled
ĠS pect
Ġst ems
ĠC ary
ĠH ert
un ge
Ġr ags
um en
ĠR ab
Ġall ergic
Ġup s
Ġch icks
Ġpro long
He art
ĠK ane
Ġ' ,
Ġgr ams
oc ene
Ġbl ades
In s
be k
get own
Ġco ats
Ġco aster
Ġ18 30
ĠAr med
ĠĠĠĠĠĠĠĠ ĠĠĠĠĠĠĠ
Ġrel ieve
Ġac ids
ys crap
ret ch
HE S
Ġinc omplete
pr act
Ġspec ulation
Ġconst raints
Ġpar ach
co in
che t
bo om
ĠPh ot
Ġve nd
Ġinde f
ĠBar nes
ĠBar rett
uk o
Ġmot el
Ġdoctor ate
Ġspir al
Un iversity
Ġide als
Ġemb assy
asc ular
Ġcab bage
Ġgar ment
199 4
ĠÃ ł
Ġcouncil s
cont rol
Ġbat ting
ĠNat alie
Ġham let
ĠSH OULD
ĠWater loo
Ġalleg ations
ĠSher man
Par is
Ġvoc abulary
ĠAz te
Ġcul min
ĠLion el
ĠEnvironment al
ĠSoph ia
Ã¢t el
mount ed
Ġorche stral
Ġdeter ior
occup ied
Ġplung ed
ĠFilip ino
- ...
N ap
T old
b led
h man
i astic
m or
Â Ļ
re ement
Ġw ickets
Ġs ap
Ġm ing
Ġm ould
Ġf ury
Ġp aw
Ġp anting
ot ing
ion a
ac ial
ĠS F
ĠS hen
Ġst unt
ĠM R
Ġme g
ĠH urry
ĠW ad
ĠW are
ul ously
ĠG ol
qu iet
ĠE D
ĠK ur
Ġsp illed
Ġen listed
Ġhow ling
Ġam used
oc y
sh ops
get ting
Ġcount less
ĠAr senal
Ġreg ained
Ġsub du
Ġdec isive
HE Y
ax y
let cher
ĠZ ack
Ġinter f
Ġland sc
Ġsk et
Ġbeh aving
Ġgi ants
pr ises
OR N
ĠPres cott
ĠNorth west
ĠFl owers
ĠHer ald
Ġtrad emark
Ġdoll y
Ġoccur ring
ĠMag ician
Ġhun ts
ĠSat urn
Ġir rig
Ġ187 6
ĠAtl antis
Ġcorresp onds
ĠUN IVER
Ġnut rition
Ġgrav itational
Ġris ky
Ġaccur ately
Ġanaly ze
ĠIraq i
ĠGre ene
Ġassass inated
Ġec st
Ġcraw ling
ALE X
ĠBenn et
Ġski ing
Ġmas cul
Ġadvertis ement
Rain bow
Ġalumin um
Ġstrengthe ned
ĠYE ARS
quart ered
Ġoat meal
; [
G ER
L os
R ober
S unday
U ses
b at
g room
r ising
u u
u ble
Ï ĥ
at ile
Ġf ry
Ġh iring
Ġd airy
Ġg ast
ad itional
am ong
am ination
ac i
ĠC ure
ĠH els
ĠH EL
ill ian
ĠB in
ĠB ent
ĠB RO
ĠW ool
ĠD awn
ĠL af
ĠL arge
ĠN arr
ink les
ink ling
Ġar oused
-- âĢĿ
ĠIn stitution
Ġpr on
Ġam mon
Ġwhere abouts
ren n
In spector
Ġgu er
land ers
Ġunder go
ah r
Ġco arse
ember g
ĠSh ak
ik er
Ġtrans cend
Ġwin ters
Ġmark ing
de ep
ĠPres idency
ĠLe opold
ĠFl int
ĠSe v
Ġra ven
Ġgrand parents
Ġcrit ically
ĠPaul o
ĠGood bye
ĠMus ical
ĠNe ither
ĠMad onna
ÃŃ s
Ġstreng then
ĠMil waukee
Ġren owned
Ġwit ches
ĠRichard son
Ġ187 2
Ġmir rors
197 3
Ġwilling ly
ĠStud ents
ĠFer gus
Ġdetect or
ĠBang kok
Ġded ication
ĠInter state
ĠBull s
Ġrac ism
ĠVer de
AF TA
ĠOz ana
ĠGib bs
Ġinnov ative
ĠLyn ch
Ġfib ers
ĠChel tenham
Pri or
ĠRap id
ĠPit amakan
Ġber ries
ĠGeoff rey
Ġrevers ed
Offic er
Interest ing
Ġbung al
ĠMU CH
Ġturt les
A ction
D rive
F riend
N ear
S cient
n ard
o ct
s ie
w ave
Ġ Î¿
Ġt ad
Ġa ug
in j
re leased
Ġm isc
Ġl ac
Ġl ament
Ġst yl
ĠC ros
Ġse greg
ol er
ĠW ii
ul er
ĠD ion
Ġsh ack
Ġsh illings
ĠG OD
ĠL em
ĠL aughs
Ġpro ving
ĠK aw
ven ile
Ġint act
Ġcl usters
Ġback yard
av as
Ġwhere by
Ġapp eals
Ġper pendicular
Ġres on
Ġsl ides
Ġsur g
Ġcle ans
Ġfr amed
ĠSp ider
Ġart if
Ġmod es
Ġins ol
ĠRe verend
ĠCon n
Ġsqu ash
umb ria
Ġdem o
Ġpast a
aim ie
ĠSe ung
oub les
ĠDr ake
ĠHar riet
uz ey
Ġstraight forward
Ġobject ions
Ġpersonal ities
Ġcard inal
ĠSal ome
Ġge ese
Ġtransl ator
Te chn
ĠHaw k
Ġsequ ences
war z
ĠGar cia
Col umb
Eng ine
ĠTem per
Ġhom icide
Ġmerch and
Ġexplos ives
ĠSel ena
ĠRod ri
rec ogn
ĠBangl ades
Ġobst acle
LAUGH TER
Ġmotiv ation
Ġfortun ately
Ġsolemn ly
Ġey ew
reb ral
mag Ã¼l
ĠLoc ke
ĠJohann es
ĠSaf ety
ĠSumer ian
ĠPrincip al
Ġtwe et
ĠTeh ran
ĠPhilharm onic
1 10
B it
C ir
C omb
L ate
M ale
P ush
R achel
V A
V is
f emale
g ary
l ower
l ene
Ġa y
Ġf iddle
en stein
Ġd ome
le z
ĠS omme
ke red
ĠW ick
ell ie
Ġde bris
ak is
ĠK E
ĠK ids
Ġtr ot
Ġsp ines
amp ed
Ġcomp rom
Ġen roll
Ġun load
av is
Ġapp ropri
Ġpre ach
ĠAr lington
vent y
ph ant
ĠAnd rea
ok i
ina e
Ġ10 4
Ġbro ker
Ġmiss es
ĠRe form
Ġpain ts
Ġpat ches
Ġcomple ment
ĠTr ud
Ġsqu ire
Re v
Ġrev ised
Ġhair y
Ġgrand dad
ĠTe resa
Ġprocess or
ĠEx pl
who le
Ġcirc uits
Ġcomb inations
ĠPaul a
gu er
ĠRed dy
Ġredu ces
Br and
Pro blem
ĠAg nes
Pl an
Ġtour ing
Ġrob in
Sp ace
Sp anish
Ġdig est
SE E
Ġund erest
Ġachie ving
Ġess ays
Pr ime
ĠCle ment
Ġfright en
ĠME AN
ĠSqu irrel
ĠLook ing
Ġmob il
ĠEv genie
ĠCy ril
Ġtor ch
Ġappeal ed
IG N
Ġpoly mer
Ġneighborhood s
ĠPop ular
Ġillust rations
Ġteen agers
ithm etic
Ġobst acles
Ġkitt ens
ĠLin ux
ĠLor rigan
ĠGU Y
ĠLamb orghini
Ġbisc uit
Ġhob by
Ġorb ital
Ġsanct uary
Ġpredomin antly
Ġreceip t
ï¼ Į
ĠBeet hoven
C ost
F arewell
G ary
J in
J udge
K arl
L ear
M ess
T ON
c z
d rawn
m art
m atter
s le
t at
È Ļ
Ġo gre
Ġb usted
Ġm ike
Ġy ummy
Ġl ays
Ġg aming
st als
ri bly
ĠC oss
Ġse mes
ĠB ir
Ġat he
ĠP ret
Ġli able
ĠD ud
ĠD odge
ĠG ilm
ĠF ruit
ĠE agles
Ġv ulgar
ink i
ĠK ad
ĠK arn
ip se
We ndy
ĠV ish
cl over
Ġpre fect
ult ures
Ġtell y
ob o
Ġer rand
Ġ3 000
Ġcomm itting
ĠMar quis
oup le
att ed
let te
ĠZ ur
Ġdisc overs
Ġref resh
fess ion
arr ange
ĠPro f
Ġshort age
Ġdesign ing
ĠPh ineas
Ġswe eping
Ex amples
ma res
ĠEd ge
Ġfre estyle
Ġ24 0
Ġesc apes
Ġinn ings
Ġwest ward
ĠBel fast
Ġpsych ic
Ġmedic ines
itiz ens
198 7
Under stood
Ġhel m
fr ame
Ġconsult ation
Ġoblig ation
Ġastron omy
ĠBan bury
Ġpronoun ce
Ġprompt ed
ĠGU YS
Ġtribut aries
Ġawait ing
Ġsubdiv isions
Ange la
Virgin ia
Ġplas ma
ĠCrom well
B ased
E ss
M R
N am
N ik
S aw
T is
T ak
c in
d ri
l augh
p ole
p ublic
s ound
x i
Ġb aking
Ġc oo
Ġp ans
ĠI CR
et r
ĠS ime
ĠC B
ĠC ore
ĠM Äģ
Ġdo pe
ĠB less
ĠB ali
ĠP ubl
ĠT at
ĠT ad
op ath
ĠG ener
ĠR ao
ĠL ois
ĠL egend
ig neur
red ict
ap y
Ġget tin
ear th
ĠK ol
ĠK af
ip ing
Ġcl icks
Ġyear ly
Ġfl aming
ock et
Ġsec uring
what ever
Ġend ow
Ġpol ish
Ġdist ribute
Ġsl ate
ĠSh awn
ĠSh ankar
Ġcons ented
ĠGod dess
Ġhigh ways
Ġdisc retion
Ch ange
AT ED
Ġair s
Al fred
Ġfore most
Ġdet ention
Ġaw akened
Ġelect rom
ĠLe vel
ode on
Ġcal ories
Ġsun rise
Ġstar ter
Ġpriv at
Ġtreat ments
isc her
Ġpolic emen
Mar cus
Ġterri fying
Ġstick er
Ġenjoy ment
ĠEr n
Ġrub bing
Ġdrag ons
Ġeld ers
198 5
Christ opher
Ġjoint s
ĠPart ners
Ġdemonstr ations
ĠAlp s
ĠBea utiful
Ġconsid ers
Ġadjust ed
Ġtiss ues
âĶĢ âĶĢ
Ġstim ulus
ĠRy ner
bus iness
Wr ong
ĠChile an
Ġtremb led
Ġcub ic
Ġrit uals
Ġdeploy ed
ĠSpeed way
ĠNAT O
" _
C z
C op
D F
D er
G a
J a
L ess
P RO
T yp
c reat
Ġa rom
er d
it tering
Ġo m
ed ia
Ġto dd
om bo
ĠI st
al bum
ow ler
et ically
Ġe re
ĠA GA
Ġme adow
Ġk itten
ch ant
Ġdo lp
ĠH ost
if ax
ol ate
Ġsh ifting
ĠF an
ie nd
Ġpro x
Ġpro jection
Ġlike lihood
Ġcl umsy
So ld
Ġqu ery
Ġun ified
orm an
Ġpre acher
Ġlet hal
sh ake
Ġsec ular
get ic
Ġcr abs
Ġfin ale
AN ING
Ġpass ions
ĠInd ex
app lause
ĠIs ab
Ġtrans mitted
Ġbas kets
Ġswe ating
com pl
Ġra ft
LE D
uk u
Ġple a
Ġhang s
ĠDem i
Ġwild life
Ġfunction ing
ĠFin ancial
Ġnation wide
197 6
lim ited
Ġfold ing
Ġcas ino
ĠConstitution al
ĠNic kel
ĠHistor ical
whe ther
Ġinteract ive
Ġearthqu akes
Ġdwell ings
ĠAdmiral ty
Mat thew
Ġcultiv ated
ĠSi oux
Ġconj unction
Ġmanuscript s
ĠSof la
Ġpersist ent
Ġhier archy
ĠNept une
Ġmicrow ave
F EMALE
J O
T ax
d river
e ither
f ty
h art
s ize
s ays
he alth
he era
in ople
Ġs ighs
it as
Ġb udd
Ġc uis
Ġm igr
Ġf olly
Ġl ep
Ġl umin
Ġn ude
Ġwe aker
ĠS pl
ĠS inger
ĠC Ã¦sar
ĠM ight
ĠM OR
ĠM yeong
ĠB ene
ĠB RE
ĠB irthday
ĠT ate
ĠT ravis
ĠW itch
Ġr apt
ĠR anger
ĠE ston
Ġout ward
ra ul
Ġman ages
ven ce
Ġtw elfth
Ġro aring
Ġcomp iled
ile e
Ġfe eds
sh ima
Ġunder went
Ġcar rot
Ġrec ess
Do ing
mber g
Ġrel ates
Ġbit ches
Ġph on
AN E
ĠAn at
Ġ10 6
ump y
Ġ17 5
Your s
Ġterm inus
wh is
Ġbreak through
Ġconf er
Ġbar riers
Ġspecial ty
Ġdear ly
Ġdi ocese
Mar io
Ġenjoy s
Ġenc omp
Ġbroad er
Ġdepend ed
Ġfool ed
Ġtour s
Ġneck s
ĠST ART
Ġunc overed
ĠRail ways
ĠEgypt ians
Ġforeign ers
197 5
ĠDid n
ĠTri p
ĠBang alore
Ġagre ements
ĠWind sor
ĠBas in
196 9
Ġlat itude
ĠSur rey
ĠTay ebi
ĠPers ia
Ġreprodu ctive
Ġnic kel
produ ced
ede ff
plete ly
Ġoverwhel med
Ġarchae ological
ĠKaz akh
Ġcray on
ĠDur ham
Ġmoist ure
Ġsab ot
ĠLithuan ia
ĠWik ipedia
Ġpand emic
ĠSacrament o
ĠEurop a
2 40
C offee
G ordon
H erm
M aur
N ay
W WE
d ate
h aul
l ass
re ci
Ġb red
Ġb ounds
en ary
Ġd ors
Ġp its
Ġp ins
Ġy u
Ġin herent
Ġhe s
ĠS kin
st en
ir is
ĠA V
ĠC T
ĠC u
ĠC ousin
Ġha iled
ch oo
and i
ĠH ok
ĠP eng
ĠP okÃ©mon
ĠT ah
ĠW i
ĠW orth
ul ia
ul ative
Ġr ites
Ġr idden
Ġj ingle
ĠR aleigh
est ial
est ablished
ĠF uture
el ope
ĠN C
ĠE C
ĠO THER
ine z
ĠK ab
Ġtr aps
Ġar ter
ass ed
ĠCh ow
She l
ident ly
li o
ĠBr ady
gr ims
ĠAl right
Ġmet abol
ung a
Just in
ĠZ am
Ġtri angular
Ġgener ating
Ġart work
Ġtra ff
Ġsk ins
Ġcur led
Ġri fles
erv ille
ĠRe f
ĠâĻª âĻª
els ius
Ġten ants
Ġconf isc
Ġvill a
Ġve x
sc reaming
ĠPe ggy
amm ing
ĠEl aine
ran ny
Ġple as
ĠSome body
Ġcast les
Ġhospital ity
Ġda isy
Ġhar ps
Ġet her
ĠBo one
rav ag
Ġcontract ed
Ġsens it
ĠMal ay
Ġcoast line
ĠSal em
Ġinvestig ations
Ġreview ed
Ġpet e
AK ING
ĠÃ ¢
Ġproud ly
comm une
197 2
197 4
some body
198 4
RI O
Ġearn ings
196 7
Cle arly
Ġreck less
Ġflood s
Ġpeak s
Ġdisappear ing
Ġlecture r
ĠMcC arthy
last ing
ĠSn ake
Ġbold ly
ĠÅ ł
Fort unately
Ġaston ishing
Ġdeleg ation
icular ly
Ġobser ver
Ġattribut es
Ġdrown ing
ĠPul itzer
Ġmarvel ous
Ġembr aced
Ġmorn ings
Ġgosp el
: ]
C ell
J u
R en
T imes
W ord
c art
f air
g art
l ost
l ical
m ember
t ill
t imes
t rees
on n
it ives
Ġf usion
ing en
Ġh ose
us o
ver b
ĠC er
ĠC otton
ĠM Ã©
ĠB iden
Ġnot ices
Ġnot icing
ĠP ale
ĠP Ã©
ĠG ob
ĠR A
ĠL ions
Ġcon form
ĠJ em
Ġcom ics
Ġch oke
Ġpro be
Ġcl icking
Ġen lar
ater nity
Ġad orn
cl aimed
pl aces
be it
Ġsm ack
Ġcr isp
Ġi bn
Ġhead quartered
Ġcons on
Ġfact ion
ĠZ ero
Ġyoung sters
me an
br ought
Ġsk yscrap
Ġ10 7
Ġair ing
ĠFor um
Ġblack s
Re ception
ĠĠĠĠĠĠĠĠĠĠĠĠĠĠĠĠ ĠĠĠĠ
Some how
Ġcost ly
Ġpress ures
ĠEx eter
Ġgen etics
Ġtrack ed
Ġmem orable
AL S
ĠGreat est
Ġinf inity
ĠSch midt
Ġsad d
sec ret
Ġrob bers
ĠBel arus
Ġund ers
ĠRob bie
Ġ185 6
pic uous
Ġminor ities
Ġwhis key
Ġindic ating
ĠTre vor
miss ions
ĠPhilipp e
RY ING
ĠCard inals
Ġstraw berries
Ġbend ing
Ġdecre ased
ĠRu f
Ġuna ware
ĠMong olia
Ġveter ans
ĠShort ly
Ġtheat res
Ġunre ason
pow ered
ĠMach ine
Ġorphan age
ĠMead ows
Ġbeet le
Fant astic
ĠObs ervatory
ĠCoal ition
ĠHAPP EN
Ġrept iles
Ġfinan cially
GEOR GE
Ġamaz ement
ĠAGA IN
A aron
C ort
C OM
F E
N ord
O pp
P oly
S F
S her
S av
b oh
l ink
n is
t ub
he ar
Ġa i
Ġa venge
on tain
at z
at ism
Ġo y
Ġf ret
ll en
Ġg it
Ġn ull
Ġn uns
Ġbe eps
id able
Ġwe ighs
ro ats
ir su
ĠA way
Ġst ained
ĠM au
ĠM obile
ch in
ce ls
ĠH ang
ĠH ollow
Ġnot orious
ĠT itan
op us
Ġr attle
Ġj est
ĠR if
ĠL ennon
ĠN ad
ab is
Ġpl aster
ra e
ĠU H
ip es
Ġpe nd
per fect
ov ies
ĠV olks
Ġbet ting
Ġfl ap
te acher
Ġcomm ittees
Ġcar p
Ġsec urities
Ġhand les
ĠAr ms
Ġac he
Ġche que
Ġcons ensus
ĠZ ach
uff ed
ĠPr ussia
Ġref lex
ann ibal
Ġbro ok
Ġins ists
Can ada
ĠCon way
Ġprot ons
Ġill umin
Ġpost ers
ĠUS SR
lin ary
Ġaccept s
Ġsocial ist
ĠChar usa
Ġide ology
16 0
ĠSte f
Ġfund ament
Pro per
ĠChe f
Ġimpro v
Ġreact s
ĠProv incial
Ġchief ly
ĠMart ian
Ġdry ing
onel iness
Le o
ĠDay ton
ĠCle ar
Ġthick ness
à¤ ¾
198 8
Ġanti qu
Ġtong ues
Ġcerem onial
Ġbat hing
Ġmort ality
Ġvent ured
Comm on
rec ord
ĠGR UN
Ġric her
ĠAst ron
ÅĤ aw
ĠAgain st
Id iot
ĠBuff y
mod ern
Ġprev ents
Ġalleged ly
Ġlun ar
ĠRet urn
ĠPrim ary
ĠDup ont
Ġincap able
ĠGibral tar
3 20
G reetings
L uke
M agn
O VER
R ome
S um
c ool
f iction
f illed
l M
n ant
p ict
r ines
t aken
w itz
he a
Ġthe sis
an za
Ġf ir
Ġin verse
ĠI X
Ġhe red
ir ring
ke ll
ĠC oke
ĠM AY
ĠM unicipal
Ġk itty
ch io
ĠB le
ĠB ears
ol era
ge nder
Ġsh an
ĠG ros
ĠN as
os idodecahedron
ard i
ĠE dd
ĠE ND
ĠE duc
Ġout comes
Ġpro stitute
ĠO wn
ip ers
Ġcl utch
Ġen rolled
Ġbl unt
ren s
Ġapp la
Ġper ish
ĠY vonne
Ġbefore hand
Ġrec urring
Ġhand ing
Ġcr imson
Ġhome land
ĠMar u
St aff
ĠNew man
Ġpop s
20 20
Ġloc ality
att en
app iness
Ġdri pping
Ġter rain
Ġfire works
Ġhope ful
Ġdesign ers
ĠPar ade
ĠFl ag
ĠWill y
Ġexpect ation
Ġdream t
uk es
ĠMy anmar
Ġhospital ized
Ġpeace fully
Ġappoint ments
Ġpack ages
Ġindivid ually
friend ly
ĠAnge ls
ĠOly a
Ġoccur rence
ĠArt icle
Ġir ony
199 1
mar ried
Ġappre hens
resp ond
uls a
cons ider
Ġcontest ants
ropol is
Ġlit ter
iat ric
ĠNorm andy
ĠPope ye
ĠGi ovanni
Ġsatell ites
Ġfert ile
Wr ite
Str ong
Gold en
Ġpier ced
Jeff rey
Ġobsc ure
Ġdrain age
ĠHerm ann
Ġfug itive
Ġbrace let
ĠBark er
Ġecc entric
Ġaster oid
Bri en
Ġraz or
stitu ency
Ġconstell ation
ĠICR C
B oo
B ox
D L
F ox
G U
J ump
K aren
K elly
P le
P od
V oice
d oh
d uring
d ered
l est
w at
Ġ 000
Ġw its
Ġs ally
at ro
Ġb anging
Ġm ule
or ian
Ġd ow
ar g
Ġp iles
ĠI BM
Ġbe held
Ġe cl
ĠM its
ĠH ast
ĠH oy
op ters
ĠD ock
ĠD Ã¼
Ġj our
ĠG E
ĠThe odore
ĠR im
ĠL ah
ĠN ote
qu in
Ġup grade
Ġpl ank
Ġint ensive
ure n
Ġpe ers
ĠSt rait
other s
Ġen er
Ġen ables
ub ble
li ked
ug ga
ĠBr ing
Ġacc use
Ġrel ativity
ph alia
ys on
Ġob li
Ġcent ered
of ty
Ġinter im
ĠWe i
ĠWe gg
Ġgame play
con c
unk y
Ġsuccess es
ĠEd itor
Ġste er
Ġview ing
Ġsuper visor
ĠEx hibition
Ã¡ r
Ġjud ging
tr ain
ĠON LY
Ġdesp ise
ĠSand ra
Ġplat eau
ĠFred dy
Ġmechan ic
Ġflo ated
Ġdu pl
Ġpoly hedron
every body
Ġwire less
Ġment or
Ġassign ments
ĠSher wood
Ġabsor b
Pat rick
ĠSpring field
Ġmos ques
ĠCarr uth
Ġrebu ild
mil o
Ġvig il
Free ze
ĠMust afa
ĠSof ia
Ġslee ves
HA EL
Ġpanc akes
ĠHig her
Mem bers
Wil son
Hea ven
ĠCau cas
Ġexcell ence
Ġimpat ient
phe us
ĠZur ich
' !
B EC
C rit
F ifteen
G ab
M anu
N ancy
T ay
V AN
Y D
d n
f ootball
h ours
m is
m ot
z ar
Ð º
Ġt iles
re ro
re cht
Ġs i
Ġs anta
on al
on ation
er us
is he
Ġp ars
as ily
et o
ĠS ob
st antly
ĠA FC
Ġst itch
ĠC S
ĠH od
ĠH erman
ĠB AR
il ot
ĠP end
ĠT roll
ea ver
ĠG ord
ist o
ĠJ oon
ig ne
Ġsu ed
ĠE AR
Ġpro se
ĠO H
Ġex otic
ĠK ILL
fe it
ĠU NDER
ub by
Ġpart ing
ĠV innie
cc ane
Ġbl aming
Ġsc am
Ġdis ast
sh in
Ġres ervation
Ġfl ashing
Ġfl ipping
Ġcr ushing
Ġend ors
ug u
ee red
Ġset up
Ġel imination
ĠAnd roid
Ġph ases
Ġadd ict
Ġem issions
Ġinter mediate
ĠCl ive
br and
AT ING
Ġ17 90
enn ial
ĠSouth west
ps ons
Ġdeal ers
ĠĠĠĠĠĠĠĠĠĠĠĠĠĠĠĠ ĠĠĠĠĠĠĠ
Ġperform s
Ġ13 5
read ing
Ġill ustration
ĠTH ING
ĠTH REE
Ġdraw ers
Ġtechn ological
Ġdi agonal
Ġple ading
Ġpot ent
ĠPaul ine
ĠEn ough
Ġenc oun
Ġfool ing
Gr ace
Fr iday
tr ue
Ġund erm
hold ing
Ġpsych oan
ĠGreen land
ĠArt ist
Ġmor on
ĠBur k
Ġexam ining
Ġremind er
Ġcontent ed
ĠEll iott
amil iar
à¤ °
add le
Ġnumer ical
Ġtick le
Ġ184 8
sk irts
izz ard
Ġnarr ator
ser ies
Ġstamp ed
Ġoptim istic
ĠAbb ott
ĠYan kees
Cons ider
ĠAud rey
Ġmarsh al
ĠRey nolds
ĠKir by
ĠSL R
Ġprejud ice
ĠHipp olyte
Ġinteg er
ĠBever ly
ĠÂł ĠÂł
atche wan
Ġmelanch oly
Ġsurg ical
ĠBanglades hi
Ġsemes ter
C ond
C ivil
C atherine
S in
S uz
b red
e un
k iss
l S
v oc
Å Ľ
Î »
Î Ĺ
in ters
re ason
er ting
is en
Ġh ilar
Ġd ime
Ġp agan
ot iation
ad h
ĠS arthe
ir ting
Ġdo ve
ĠH T
ĠH our
ĠH undred
th inking
ĠD ame
ist ent
ĠR id
ĠR ex
ĠL und
ĠL ima
od o
Ġv iral
Ġsa kes
ĠSt ry
ci ents
Ġgr unting
Ġcomp artment
erm aid
Ġbr ake
Ġpart ition
ĠV ladimir
Ġnew er
Ġ18 12
ĠBr uns
ĠNew ark
Ġpop ping
Not es
ĠZ ag
Ġins erted
Ġ12 8
umb el
Ġprot esters
urs ed
Ġthird s
que z
Ġrev ived
Ġfif teenth
Ġforg iven
Ġdep ict
Ġfail ures
Ġpur ity
IC HAEL
ĠCap t
Ġsurpr ises
OK AY
Ġjud icial
ĠGl ad
Ġfac ial
AP RIO
ĠSte fan
ĠQu ant
Ġreact or
Ġsight s
tt emberg
Ġpet roleum
ĠBur ton
Ġdisp osed
ĠSund ays
ĠBu ild
ĠMel issa
Ġstock ings
197 9
ĠMax im
Ġentertain ed
Ġwave length
Ġconsist ently
Pol itics
ĠNE VER
Pres ently
Ġunus ually
ĠAsh ley
Pre par
ĠBru ins
Cor rect
Ġtherap ist
Jul ie
Ġtoler ance
Ġprivile ges
Govern or
Ġpolite ly
ĠBak shi
PH ONE
Ġcompr ises
ĠHig gins
ĠJar vis
Ġpear ls
Jam ie
Ġrepro ach
Ġreinforce ments
SEL F
Ġdisput ed
Ġdisband ed
ĠDelph i
pronoun ced
. :
L ew
M OR
P D
P ra
R ound
T ook
Z e
d ings
n ear
o ors
p i
Ġ âĢĿ
Ġw il
on ica
at aka
Ġm oss
Ġf ade
Ġp all
Ġy acht
al ready
us ch
ĠS G
ĠA part
ĠC oming
ĠM iguel
Ġme nd
Ġdo ct
Ġdo omed
ĠH ose
ĠB CE
ĠT ut
ĠT roy
ĠT ucker
Ġkn ights
Ġli bert
Ġli vest
th ren
ĠD iscovery
ĠG aul
qu ick
ĠO mar
He h
ĠK urt
ĠK ernel
are th
amp oo
erm o
Ġun seen
Ġte ase
int ed
be ep
Ġres ur
ath olic
ĠY ard
ave nder
Ġsm arter
igh bour
ug al
ced ented
Ġform ations
ĠSh im
ĠSh il
ĠSh ield
All ah
ject ed
Ġsw ollen
Ġhear th
ex c
eb ook
ĠIs is
Ġtri fle
Ġinter course
Ch ip
Ġgener osity
fl ix
fl owers
OR D
ĠSc are
hip s
Ġvis ions
co al
Ġsupport ive
Ġband age
Ġve to
Ġ11 5
amb ia
Ġgrand daughter
IC AL
Ġport al
Ġstri ps
ran o
Mar ion
field s
gu y
ĠQu entin
ĠQu arter
ĠMor rison
ĠChe yenne
Ġdeb ates
asc us
ĠRes ources
Am azing
Ġbright ly
Ġclim ax
Ġye ast
ĠMer lin
Ġhurry ing
Ġroof s
Ġheaven ly
ĠStud ent
isher s
198 2
Ġeth ical
Ġeth ics
Ġsli pping
Cle an
Ġtor ment
Ġatmosp heric
Frank ie
ĠTra vel
ĠCorn ell
Work ing
Har old
AV ID
Ġdisturb ance
Ġairpl anes
Ġconvent ions
log y
Ġshield s
ĠBuck ingham
Mur der
ĠSupp orting
Ter rible
Ġtu ition
Mah on
ĠGard ner
ĠNegro es
ĠGriff ith
ĠConstant inople
ĠSic ily
Ġaccus ations
Ġhither to
Ġshrew d
Ġprophe cy
SCREAM ING
Ġfranc s
Ġautobi ography
DIC APRIO
ĠSask atchewan
. ).
C our
C arm
C apt
E ye
J ournal
K Y
K ore
L ine
M ich
c ars
c ussion
l ation
n ation
p al
p ound
re h
Ġw iser
Ġs ip
Ġb ishops
Ġb izarre
Ġc uc
Ġm oustache
Ġf f
Ġh olog
ar ate
Ġof the
Ġn igg
ic ating
im i
im me
Ġwe aving
ĠS ep
ĠS uddenly
Ġfor ts
st ruct
ĠC ustom
out ed
ĠM uk
ĠM eredith
ĠH ancock
ĠP od
ĠD w
ĠR ama
ĠR EM
ĠL un
art z
ĠF letcher
em porary
Ġpl acement
ĠO rient
Ġman ly
Ġsp aghetti
ick ers
ade qu
Ġad orable
oc ent
iss an
Ġsc oundrel
Ġdis may
Ġper cept
Ġper plex
und a
Ġac oustic
Ġsecond ly
aj o
Ġass ists
Ġcre eping
ĠCl imate
ĠBl u
oon er
Ġsound ing
Ġce rebral
ĠGeor getown
sc reams
with standing
ĠEl ena
Ġtax ation
Ġmad ame
iny l
Ġdecl aring
ĠSch ultz
ĠBro ck
Ġbroad ly
Ġexec ut
Ġtext ure
Ġmultip lied
Ġattract ions
Never theless
Ġshout s
ĠCast ro
ĠHy der
Ġwhis ky
Ġtravell ers
Ġproceed ing
Ġelectron ics
Ġunf old
ONE Y
Ġinsp ire
ĠLeg ion
ĠNic ole
Ġillust rate
Ġdece ived
Ġsna ils
ĠMatthew s
Ġdrill ing
Ã¼r ttemberg
ĠShel ton
Ġscratch ing
Ġexceed ingly
Ġvocal ist
pres ident
ĠPhys ics
Ġgran ite
Stud ent
ĠAnim ation
Ġapprent ice
ĠCONT IN
Breat he
Ġserm on
Ġdiscipl ines
B uzz
C ard
D AY
F ootball
K al
M T
M i
O le
b is
b ies
c ook
r ants
u o
v ig
Ġa us
in ous
ou dy
er i
Ġo st
Ġf iery
ll er
Ġl akh
ĠI g
id ity
ĠS ed
ĠS ent
ĠS ho
se at
ĠA A
Ġst aged
ĠC ell
ch ance
ĠH ands
ĠB uk
Ġ" '
Ġsh udder
Ġr ansom
ĠG yp
Ġso cially
ie g
Ġch oked
na il
ĠCh ung
ans on
Ġwork shops
Ġro gue
ub ar
Ġad vers
Ġte lev
In n
Ġpre aching
ĠUn fortunately
Ġper imeter
Ġunder take
Ġcar penter
irl ing
Ġmar athon
Ġ5 000
Ġel astic
Ġinv ade
Ġgl ob
ĠAs k
ĠAn ita
Ġcap abilities
rop ic
ĠCl air
Sh ame
br ance
ĠGr im
Ġdet ection
Ġter race
Ġtre nds
ĠBe hind
Ġhor rid
Ġseason al
anger ous
ĠWill is
ĠGu in
Ġdest ructive
ĠMe chan
Ġproject ed
Ġneg lig
ĠPhil osophy
Ġbene f
Ġbene ficial
Ġbull ying
Ġcontract or
Ġradio active
Ġdoubt ful
ĠSl ow
Sc reaming
LA UR
ĠCarl a
Ġnation ally
Ġprec ision
Ġscreen ing
EL Y
Ġsymb olic
Ġjournal ism
ĠStud y
Ġcrack s
Ġscar f
Ġapolog ise
Ġshr ink
ĠTer ror
Ġreform ed
Ġboo ze
Ġembarrass ment
Ġancest ral
Us ed
Ġcruel ty
Cong ress
Bob by
ĠSC REAM
Ġsynt hetic
Ġvic ious
Mic key
Mic helle
ĠContin ental
ikh ail
ĠSweet clover
ĠBird s
Ġpatri ot
ĠAdv anced
ĠAhm ad
ĠMoz art
Ġsusp ense
Ġanalog y
Ġmonop oly
Ġod or
angel ical
Ġreluct ant
Ġtun ed
Ã¡nd ez
ĠUNIVER SE
B arry
C razy
F ORE
H ook
P age
R os
R aj
S oph
S anta
Z ero
b ase
h ig
i ency
l ich
s ent
v ian
Ġt una
he res
re is
Ġs ire
is bury
Ġb ah
Ġm ute
Ġm hm
or ange
ar am
Ġp us
Ġp ies
Ġg hetto
om ac
le ast
Ġbe ams
ut ers
ac qu
ver ts
Ġwh ites
se in
ĠA G
ĠA WAY
Ġst umbled
ĠC lyde
ĠM atter
ĠM iddles
Ġan om
ĠH ence
ĠH OME
ĠB ian
ĠB ret
ĠB elt
ĠB oots
ĠP ayne
Ġli vel
Ġj og
ĠF resh
ĠJ agu
ĠE L
pe at
ag ging
are z
Ġar ises
ĠSt ri
ĠSt yle
Ġcl ocks
ass er
act ing
ble y
og rams
Ġun willing
ĠV ista
Ġad s
oc he
ĠTh ir
Ġpo ke
uck ily
gr owing
Ġind ifference
Ġstr ap
Ġstr ang
Ġbit ing
oun sel
Ġcap ability
ric ans
Ġopen ings
Ġext r
Ġart ic
ĠPro bably
Ġes p
Ġfuck er
ĠMin isters
Ġcompet itor
Ġste als
Ġdev ils
Ġcos mic
ĠPol o
ĠCor por
oming o
Ġconsider ations
ĠNe o
ĠAg reement
play ed
Ġsens ors
Ġrob es
ij k
Ã¨ ne
Ad miral
Ġble nd
Ġhonor able
ĠCom rade
Ġcrew s
ĠFred er
ĠEll sworth
ĠParliament ary
Ġfashion able
Ġbab ys
ati ently
Ġchat ting
Ġphilosop hers
196 8
Ġpill ar
Ġinstru cted
Ã± o
Ġdefin itions
Ġsquad ron
ĠWhe ther
ĠNik ki
Ġsubt ropical
Ġvit amins
Ġtum or
Ġpod cast
ĠChem istry
ĠFurther more
ĠToy ota
Ġinterrog ation
Ġintest ine
Ġhorm one
Ġauthent ic
hyll is
Ġscrat ched
Ġmascul ine
C ant
C orn
F il
H C
J ose
K ay
O ops
S G
S L
S cript
Y u
b ay
b ling
c am
e fficient
f ur
f un
l ob
s ided
u cc
on ut
an ie
Ġb our
Ġf ren
ing ale
Ġp als
Ġl orry
Ġbe eping
Ġon ions
im et
ĠS ach
ĠC herry
and ro
ĠB ul
ĠP OW
ĠT i
Ġli g
Ġli ability
ge e
th irty
ĠW ilm
Ġsh rill
ĠG aga
ĠR anch
ĠF ast
ĠF olk
ry an
ĠE un
ind y
fe nd
iv ores
so cial
Ġsp un
Ġcl ad
Ġlook in
Ġen forced
pt ical
Ġbr ushed
iz ational
Ġun lock
uch y
Ġneed les
land er
Ġatt itudes
ĠBr utus
ĠAr cher
ĠAl ison
Ġent ities
Ġret reated
Ġinv alid
Ġph osph
Ġrest s
ĠJohn nie
Ġref urb
aut ions
pr it
An gel
Ġprot on
Ġsuccess ive
Ġfav ored
Ġeconom ies
Ġadm irable
Ġactiv ated
Ġaccount ant
Ġplant ation
Ġwild ly
Ġtext book
ĠST ORY
ĠLat ino
ĠJer ome
Ġamb ush
Ġtarget ing
Ġautom ated
Ġbless ings
Ġflow ed
Ġgro ove
ais er
OS H
Ġapolog ies
Ġgrave ly
Ġproceed s
Ġconsequ ently
ĠBull dogs
ĠFre eman
oof y
ĠVan essa
ĠĠĠĠĠĠĠĠĠĠĠĠĠĠĠĠĠĠĠĠĠĠĠĠ ĠĠĠĠĠ
ĠOper ations
ĠHal ifax
hard t
ĠNev ille
ĠCart wright
Ġwreck ed
squ are
roph ic
Ġgrin ned
Ġepid emic
Ġilleg ally
Ġarbit rary
Oper ation
Ġpla que
Ġbod ily
ĠDarn ay
ĠFrem antle
orient ed
ĠNickel odeon
A st
B ab
J en
L iz
N i
P roduction
S ax
T D
T reat
Y up
a ic
d eg
d ramatic
o que
z one
Â ½
Ã °
Ñ ģ
Ø ±
he i
he it
Ġs acked
Ġc iting
Ġm ant
Ġd re
Ġd ine
Ġd ile
Ġd uel
Ġl ava
Ġg eor
Ġre venues
ĠA ven
ĠM iz
ĠM ummy
ct ing
ĠH es
ĠH om
ĠP aper
ĠP omer
th al
th ouse
ĠW l
ul ator
Ġr acket
Ġr oused
ĠR AF
ĠF ah
Ġall ocated
ĠN urs
em i
qu ist
ĠE z
Ġex ert
ind istinct
Ġhas h
ĠU mma
Ġar d
Ġar ithmetic
Ġsp onge
ĠSt art
orn o
Ġover throw
amp h
Ġbr ides
Ġdis abilities
Ġpre val
Ġcar b
ĠMar vel
Ġfin ite
Ġbit tern
ĠSh ik
Ġunt r
Is lam
Ġgl ancing
ex actly
me ans
Ġread ings
Ġsk irts
Ġsk ipper
ĠQ uran
Ġref ined
hm a
Ġmark y
Ġpar anoid
Ġfire fight
Wh a
Ah j
Ġlisten ers
ĠFl ash
ĠTH R
Cl aire
rel igious
Ġobject ed
ĠGl enn
Ġdisapp ears
Ġver ge
ari at
ĠBo oth
Ġdestroy er
ĠReg ent
ĠChe ers
Ġreact ing
ĠAct ing
Ġmut ation
unn el
Ġjudge ment
Ġtransl ations
ĠWH ERE
ĠDO ES
Ġencour agement
Ġscar let
ĠCy cl
Ġrespond ing
Ġfold s
Ġ184 9
comp an
Ġshel ves
izz ie
ĠEp isode
OH N
Ġcert ification
Ġstir ring
Son ny
ĠBea uty
Ġbot an
Ġsubt it
Ġven ues
Ġcoc oa
Ġske let
ĠCart oon
ĠLeb edeff
Ġâ ĪĴ
Ġchuck led
Ġresemb lance
ĠTit ans
__ __
Din ner
Dun no
Ġfertil izer
Ġbankrupt cy
serv ice
Ġmatt ress
Bast ard
Econom y
Ġamph ib
H olly
K O
K ent
M D
M U
R oad
S ummer
T erry
U CT
f ellow
h ra
i antly
k aid
p ark
v ideo
á ¼
Ġt il
Ġw ailing
Ġf iscal
Ġl oot
Ġn urt
ve ment
ad ors
ĠS we
ĠS IR
ĠC od
ĠM ae
Ġk icks
Ġu mm
ĠH un
ĠB eau
ĠP all
ul as
ĠD ew
ĠD ifferent
Ġde an
est ro
ĠF ul
Ġpro state
Ġdon ate
Ġman iac
ĠSt acy
Ġmore over
Ġcomp ly
Ġcomp ress
ĠIn v
ĠIn side
ĠV es
ĠV era
ren ched
ens ing
Ġsc oop
Ġgu ll
Ġgu ides
Ġthr ong
Ġhapp iest
Ġend orse
Ġpol ished
Ġreg ain
Ġsl ay
ale y
ĠSh ane
Ġcons ort
rist an
Ġ10 8
Ġbro om
OR K
Ġvar iant
ĠNorth ampton
ĠPar agu
aim s
ĠFl ower
unt arily
ĠGu ate
ĠMan it
Ġperiod ic
uri um
Ġhy mns
with in
Ġcry stall
roy d
Ġtrust ing
Ġtrust ees
Ġneg otiation
Ġaccount ed
Ġsubject ed
Ġver ify
Ġaud itor
ĠPort us
board ing
ĠMal ta
ĠST ILL
Ġpet als
Ġspl ash
Gu y
Ġcru c
Ġcommer cials
bur st
Ġcircum stance
ois elle
quar ium
,, .
urd ue
Ġchat tering
Jack ie
ĠLiber ation
ĠNick y
ERS ON
ĠBah rain
Ġfasc inated
ĠCro ce
ĠShut tle
Ġyield ed
mont on
Ġreprodu ce
Coll ege
ĠAlexand ra
Ġdeliber ate
ĠRow ley
Ġbri be
ĠPav lov
ĠAdvent ure
ĠBag heera
Ġobed ience
ĠVenet ian
Ġunpre cedented
boh m
Ġdisast rous
- ,
E ventually
F un
F eed
G or
I ER
J i
L ie
M erry
P V
S outhern
T ypes
a unt
c atch
c ards
d ong
m ad
t u
Ġa we
Ġa uster
Ġb atch
or ax
Ġh oof
Ġth ine
Ġl ace
Ġn oses
Ġit er
im ation
ĠS ire
ro x
ĠC hing
ĠC het
ĠM oor
Ġk ernel
Ġas c
Ġse ctors
ĠB ard
ĠB ren
ĠB order
Ġnot ing
ĠP au
ĠP iet
op a
Ġj an
ĠG Ã¶
ĠL illy
ab as
Ġcon ced
ĠJ ACK
qu ito
Ġch ords
ĠE VEN
od ied
ra f
ag ascar
pt ed
end ers
ru ly
Ġcont ing
ob ic
ĠBr as
Ġmar riages
ph in
All ison
gg le
Ġimp osing
Ġrep orters
Are a
ĠPr act
ĠCl in
Ġbuild er
Ġdead line
pr ising
ĠRe in
Ġest ates
AS ON
ĠSe enu
ald i
ĠGu ards
sc rew
Ġpost al
ĠAfter wards
Ġsuper vision
Ġinvest or
Ġcry stals
Ġgen res
Ġlim p
Ġgrad ual
[...]
