{"<s>":0,"<pad>":1,"</s>":2,"<unk>":3,"<mask>":4,"!":5,"\"":6,"#":7,"$":8,"%":9,"&":10,"'":11,"(":12,")":13,"*":14,"+":15,",":16,"-":17,".":18,"/":19,"0":20,"1":21,"2":22,"3":23,"4":24,"5":25,"6":26,"7":27,"8":28,"9":29,":":30,";":31,"<":32,"=":33,">":34,"?":35,"@":36,"A":37,"B":38,"C":39,"D":40,"E":41,"F":42,"G":43,"H":44,"I":45,"J":46,"K":47,"L":48,"M":49,"N":50,"O":51,"P":52,"Q":53,"R":54,"S":55,"T":56,"U":57,"V":58,"W":59,"X":60,"Y":61,"Z":62,"[":63,"\\":64,"]":65,"^":66,"_":67,"`":68,"a":69,"b":70,"c":71,"d":72,"e":73,"f":74,"g":75,"h":76,"i":77,"j":78,"k":79,"l":80,"m":81,"n":82,"o":83,"p":84,"q":85,"r":86,"s":87,"t":88,"u":89,"v":90,"w":91,"x":92,"y":93,"z":94,"{":95,"|":96,"}":97,"~":98,"¡":99,"¢":100,"£":101,"¤":102,"¥":103,"¦":104,"§":105,"¨":106,"©":107,"ª":108,"«":109,"¬":110,"®":111,"¯":112,"°":113,"±":114,"²":115,"³":116,"´":117,"µ":118,"¶":119,"·":120,"¸":121,"¹":122,"º":123,"»":124,"¼":125,"½":126,"¾":127,"¿":128,"À":129,"Á":130,"Â":131,"Ã":132,"Ä":133,"Å":134,"Æ":135,"Ç":136,"È":137,"É":138,"Ê":139,"Ë":140,"Ì":141,"Í":142,"Î":143,"Ï":144,"Ð":145,"Ñ":146,"Ò":147,"Ó":148,"Ô":149,"Õ":150,"Ö":151,"×":152,"Ø":153,"Ù":154,"Ú":155,"Û":156,"Ü":157,"Ý":158,"Þ":159,"ß":160,"à":161,"á":162,"â":163,"ã":164,"ä":165,"å":166,"æ":167,"ç":168,"è":169,"é":170,"ê":171,"ë":172,"ì":173,"í":174,"î":175,"ï":176,"ð":177,"ñ":178,"ò":179,"ó":180,"ô":181,"õ":182,"ö":183,"÷":184,"ø":185,"ù":186,"ú":187,"û":188,"ü":189,"ý":190,"þ":191,"ÿ":192,"Ā":193,"ā":194,"Ă":195,"ă":196,"Ą":197,"ą":198,"Ć":199,"ć":200,"Ĉ":201,"ĉ":202,"Ċ":203,"ċ":204,"Č":205,"č":206,"Ď":207,"ď":208,"Đ":209,"đ":210,"Ē":211,"ē":212,"Ĕ":213,"ĕ":214,"Ė":215,"ė":216,"Ę":217,"ę":218,"Ě":219,"ě":220,"Ĝ":221,"ĝ":222,"Ğ":223,"ğ":224,"Ġ":225,"ġ":226,"Ģ":227,"ģ":228,"Ĥ":229,"ĥ":230,"Ħ":231,"ħ":232,"Ĩ":233,"ĩ":234,"Ī":235,"ī":236,"Ĭ":237,"ĭ":238,"Į":239,"į":240,"İ":241,"ı":242,"Ĳ":243,"ĳ":244,"Ĵ":245,"ĵ":246,"Ķ":247,"ķ":248,"ĸ":249,"Ĺ":250,"ĺ":251,"Ļ":252,"ļ":253,"Ľ":254,"ľ":255,"Ŀ":256,"ŀ":257,"Ł":258,"ł":259,"Ń":260,"Ġt":261,"he":262,"Ġa":263,"in":264,"Ġthe":265,"re":266,"Ġw":267,"ou":268,"Ġs":269,"on":270,"er":271,"at":272,"an":273,"is":274,"it":275,"Ġo":276,"Ġb":277,"Ġc":278,"Ġm":279,"nd":280,"Ġf":281,"or":282,"ing":283,"ed":284,"en":285,"Ġh":286,"ll":287,"Ġd":288,"Ġto":289,"es":290,"Ġth":291,"ar":292,"Ġof":293,"Ġp":294,"Ġy":295,"as":296,"Ġin":297,"Ġand":298,"Ġl":299,"Ġyou":300,"Ġg":301,"om":302,"ĠĊ":303,"Ġn":304,"ĠI":305,"ic":306,"al":307,"ow":308,"ve":309,"le":310,"ot":311,"et":312,"Ġhe":313,"us":314,"'s":315,"ay":316,"Ġit":317,"Ġis":318,"Ġbe":319,"Ġthat":320,"ion":321,"Ġon":322,"Ġe":323,"id":324,"ad":325,"gh":326,"ent":327,"Ġwas":328,"Ġre":329,"am":330,"im":331,"ld":332,"ut":333,"ac":334,"Ġwe":335,"ver":336,"ĠS":337,"The":338,"Ġwh":339,"Ġfor":340,"st":341,"ly":342,"ro":343,"ri":344,"..":345,"ir":346,"se":347,"ĠA":348,"ke":349,"Ġst":350,"ĠC":351,"oo":352,"ght":353,"'t":354,"all":355,"out":356,"ith":357,"ĠM":358,"Ġha":359,"Ġme":360,"Ġk":361,"ur":362,"Ġan":363,"Ġu":364,"Ġ.":365,"Ġwith":366,"ct":367,"ch":368,"Ġas":369,"ce":370,"Ġdo":371,"her":372,"and":373,"ĠH":374,"ter":375,"Ġ1":376,"ill":377,"if":378,"Ġse":379,"ĠB":380,"ome":381,"il":382,"Ġare":383,"hat":384,"Ġat":385,"Ġhave":386,"Ġnot":387,"Ġthis":388,"ant":389,"ust":390,"ould":391,"ation":392,"ĠP":393,"ĠT":394,"op":395,"Ġgo":396,"ain":397,"Ġkn":398,"Ġli":399,"un":400,"ĠĠ":401,"You":402,"ea":403,"ol":404,"ge":405,"th":406,"ĠW":407,"rom":408,"ul":409,"Ġhis":410,"Ġ\"":411,"ell":412,"Ġ2":413,"ĠD":414,"Ġknow":415,"ore":416,"Ġsh":417,"our":418,"Ġne":419,"Ġr":420,"Ġj":421,"ĠG":422,"Ġde":423,"âĢ":424,"pp":425,"...":426,"um":427,"ist":428,"Ġcan":429,"ĠThe":430,"ĠR":431,"est":432,"ĠL":433,"Ġthey":434,"art":435,"Ġal":436,"ers":437,"Ġfrom":438,"ĠF":439,"Ġso":440,"Ġby":441,"Ġall":442,"el":443,"ĠN":444,"Ġab":445,"ab":446,"Ġmy":447,"ess":448,"Ġyour":449,"nt":450,"ate":451,"Ġ?":452,"ie":453,"os":454,"Ġcon":455,"ĠJ":456,"Ġor":457,"em":458,"ig":459,"Ġone":460,"ally":461,"Ġwhat":462,"Ġwhe":463,"ard":464,"ight":465,"Ġsu":466,"Ġthere":467,"Ġcom":468,"Ġ(":469,"qu":470,"Ġup":471,"red":472,"one":473,"'re":474,"Ġch":475,"ap":476,"ry":477,"Ġhad":478,"res":479,"Ġwor":480,"Ġbut":481,"ack":482,"ive":483,"Ġher":484,"ĠE":485,"Ġout":486,"very":487,"Ġhim":488,"Ġpl":489,"Ġus":490,"ood":491,"ame":492,"Ġ,":493,"ake":494,"Ġpro":495,"Ġlike":496,"Ġ19":497,"ook":498,"ong":499,"od":500,"ĠO":501,"'m":502,"ort":503,"ity":504,"Ġv":505,"Ġ20":506,"ast":507,"Ġwere":508,"ink":509,"Ġex":510,"ich":511,"ound":512,"Ġabout":513,"ck":514,"It":515,"Ġget":516,"ind":517,"ber":518,"Ġsa":519,"Ġdon":520,"Ġshe":521,"ra":522,"ear":523,"Ġjust":524,"And":525,"right":526,"ies":527,"pe":528,"ak":529,"He":530,"Ġwho":531,"ud":532,"ime":533,"eah":534,"Ġdid":535,"ine":536,"ment":537,"Ġhere":538,"Ġno":539,"Ġthem":540,"Ġman":541,"ous":542,"ĠK":543,"ep":544,"Ġwant":545,"ven":546,"ost":547,"'ll":548,"Ġwould":549,"Ġthink":550,"ag":551,"Ġif":552,"ice":553,"ĠHe":554,"Ġwill":555,"Ġsome":556,"Ġint":557,"What":558,"Ġhas":559,"hing":560,"own":561,"ide":562,"Ġany":563,"ough":564,"Ġtr":565,"use":566,"Ġright":567,"ther":568,"Ġwhich":569,"itt":570,"ian":571,"Ġgot":572,"ure":573,"fe":574,"Ġ=":575,"are":576,"ĠU":577,"Ġar":578,"Ġsee":579,"iv":580,"ip":581,"ia":582,"ĠIt":583,"Ġag":584,"Ġpe":585,"Ġwhen":586,"Ġtw":587,"Ġsay":588,"Ġbeen":589,"so":590,"Ġtime":591,"Ġbec":592,"ĠĠĠĠ":593,"way":594,"ace":595,"ove":596,"We":597,"Ġnow":598,"Ġsp":599,"'ve":600,"ople":601,"ary":602,"Ġle":603,"ish":604,"Ġ'":605,"ick":606,"ĠSt":607,"Ġcl":608,"Th":609,"ause":610,"ose":611,"Ġsaid":612,"Ġtheir":613,"age":614,"ated":615,"ree":616,"Yeah":617,"ci":618,"Ġmore":619,"ount":620,"ue":621,"Ġgoing":622,"Ġthen":623,"irst":624,"ond":625,"ang":626,"ite":627,"Ġlook":628,"Ġpeople":629,"Ġother":630,"ass":631,"No":632,"other":633,"So":634,"orn":635,"Ġgr":636,"na":637,"00":638,"ĠCh":639,"Ġcould":640,"ans":641,"act":642,"ew":643,"Ġwork":644,"Ġover":645,"Oh":646,"Ġback":647,"ble":648,"ank":649,"Ġoff":650,"ings":651,"Ġqu":652,"But":653,"per":654,"Ġvery":655,"Ġtwo":656,"Ġ201":657,"amp":658,"fter":659,"ord":660,"ire":661,"ase":662,"Ġro":663,"That":664,"reat":665,"Ġcomp":666,"og":667,"ff":668,"ne":669,"Ġfirst":670,"Ġen":671,"ance":672,"mer":673,"oll":674,"pt":675,"ub":676,"--":677,"sel":678,"erm":679,"Ġbr":680,"ions":681,"Ġgood":682,"the":683,"Ġtoo":684,"ade":685,"end":686,"omet":687,"Ġpart":688,"Ġinto":689,"Ġyear":690,"iz":691,"ĠIn":692,"Ġalso":693,"ov":694,"hed":695,"kay":696,"Ġun":697,"ĠV":698,"hy":699,"we":700,"Ġhow":701,"alk":702,"Ġpr":703,"Ġdown":704,"Ġway":705,"Ġcall":706,"oy":707,"Ġour":708,"ach":709,"cc":710,"ater":711,"ittle":712,"av":713,"Ġim":714,"Ġam":715,"ild":716,"ought":717,"Ġad":718,"Well":719,"nder":720,"oc":721,"wn":722,"Ġcome":723,"Ġonly":724,"Ġbl":725,"Ġwhere":726,"ife":727,"Ġagain":728,"Ġplay":729,"ren":730,"Ġte":731,"ru":732,"urn":733,"cl":734,"Ġevery":735,"Ġbet":736,"oh":737,"ark":738,"Ġsomet":739,"Ġlittle":740,"Ġday":741,"iss":742,"Yes":743,"Ġact":744,"ress":745,"Ġwell":746,"ence":747,"uch":748,"In":749,"Ġneed":750,"Ġcont":751,"ory":752,"ile":753,"Ġmake":754,"pl":755,"able":756,"Ġbecause":757,"ict":758,"ical":759,"Ġafter":760,"Ġfe":761,"ign":762,"fore":763,"int":764,"orm":765,"ens":766,"ty":767,"be":768,"self":769,"here":770,"Ġsc":771,"Ġreally":772,"Ġtake":773,"Ġdis":774,"Ġthan":775,"Ġgu":776,"âĢĻ":777,"au":778,"land":779,"Ġbu":780,"les":781,"ied":782,"Ġwr":783,"Ġshould":784,"Ġapp":785,"ool":786,"Ġpre":787,"ĠUn":788,"thing":789,"Ġlet":790,"âĢľ":791,"ult":792,"ĠTh":793,"ng":794,"Ġtell":795,"Ġthr":796,"Ġthese":797,"ather":798,"sh":799,"Ġper":800,"ft":801,"Ġunder":802,"ction":803,"Ġmean":804,"ob":805,"Ġhapp":806,"Ġser":807,"old":808,"Ġnew":809,"Ġdoes":810,"Ġmuch":811,"ons":812,"âĢĿ":813,"Ġres":814,"ates":815,"Ġpo":816,"This":817,"hen":818,"Ġmade":819,"Ġsomething":820,".\"":821,"ved":822,"ath":823,"uck":824,"onna":825,"Ġfl":826,"Ġer":827,"du":828,"Ġput":829,"te":830,"ail":831,"ĠY":832,"Ġ3":833,"Ġits":834,"Ġlong":835,"ving":836,"They":837,"ody":838,"aw":839,"Ġgonna":840,"Ġmay":841,"port":842,"ition":843,"ited":844,"'d":845,"ull":846,"vers":847,"Ġtalk":848,"Ġbefore":849,"ave":850,"Ġeven":851,"ock":852,"ors":853,"Ġcomm":854,"Ġ200":855,"ually":856,"ious":857,"Ġrem":858,"Ġyears":859,"Ġnever":860,"Ġdidn":861,"ouse":862,"ily":863,"ect":864,"ward":865,"ady":866,"Ġcar":867,"Ġsm":868,"vel":869,"Ġrec":870,"Ġmany":871,"ting":872,"ix":873,"igh":874,"Ġke":875,"There":876,"ise":877,"She":878,"ial":879,"Ġmost":880,"ah":881,"ations":882,"Ġsec":883,"ince":884,"Ġthrough":885,"Ġdif":886,"get":887,"lp":888,"ec":889,"anc":890,"ried":891,"Ġthree":892,"rent":893,"Ġstart":894,"ful":895,"ho":896,"Ġhand":897,"If":898,"air":899,"day":900,"tain":901,"Ġlife":902,"Ġold":903,"Ġthing":904,"you":905,"Ġspe":906,"Ġcount":907,"Ġused":908,"Ġdes":909,"Ġgreat":910,"Ġthose":911,"Ġcr":912,"Ġfound":913,"up":914,"Ġbel":915,"Ġthings":916,"ident":917,"oss":918,"Ġstill":919,"ves":920,"li":921,"Ġthought":922,"ican":923,"Ġhelp":924,"oth":925,"Ġco":926,"gin":927,"tern":928,"Ġfind":929,"Ġmust":930,"How":931,"Ġcalled":932,"Ġ18":933,"Ġask":934,"Ġlast":935,"Ġhome":936,"âĢĵ":937,"imes":938,"what":939,"Ġdoing":940,"\".":941,"ĠYou":942,"oney":943,"Ġlove":944,"hes":945,"Ġown":946,"Ġi":947,"Ġend":948,"als":949,"xt":950,"riend":951,"Ġshow":952,"ange":953,"Ġaway":954,"ug":955,"Ġatt":956,"Ġbeing":957,"any":958,"ational":959,"Ġear":960,"Ġlea":961,"Ġname":962,"Ġwon":963,"Ġcour":964,"gan":965,"Ġgive":966,"ened":967,"Ġmin":968,"ĠShe":969,"lease":970,"chool":971,"Ġwent":972,"ents":973,"ny":974,"ember":975,"atch":976,"ĠBr":977,"ĠAmer":978,"irl":979,"Ġcame":980,"Ġfam":981,"Ġpol":982,"ont":983,"Ġsame":984,"oot":985,"man":986,"Do":987,"ĠMar":988,"Ġsuch":989,"mber":990,"form":991,"ning":992,"aking":993,"Ġlot":994,"Ġmov":995,"ĠAr":996,"âĻ":997,"ways":998,"ait":999,"ib":1000,"gr":1001,"ĠĠĠĠĠĠĠĠ":1002,"outh":1003,"ased":1004,"Ġdiffe":1005,"erson":1006,"my":1007,").":1008,"uring":1009,"Ġkind":1010,"Now":1011,"\",":1012,"ced":1013,"Ġsupp":1014,"Ġele":1015,"ubl":1016,"Ġworld":1017,"Ġfeel":1018,"Ġ4":1019,"Ġcare":1020,"Ġfin":1021,"oup":1022,"Why":1023,"ee":1024,"Ġplace":1025,"Ġwhy":1026,"Ġtry":1027,"ever":1028,"ower":1029,"),":1030,"ĠMr":1031,"rest":1032,"âĻª":1033,"Ġbig":1034,"Ġhead":1035,"clud":1036,"body":1037,"Ġuse":1038,"Ġchild":1039,"Ġop":1040,"Ġnight":1041,"Ġnum":1042,"side":1043,"Ġmar":1044,"ating":1045,"ss":1046,"ween":1047,"Ġacc":1048,"Ġaround":1049,"Ġmight":1050,"ute":1051,"Ġind":1052,"Ġkill":1053,"Ġset":1054,"ener":1055,"Ġrel":1056,"ork":1057,"uh":1058,"io":1059,"mb":1060,"Ġwom":1061,"und":1062,"Ġfour":1063,"Ġform":1064,"Ġdist":1065,"Ġ5":1066,"pect":1067,"vent":1068,"Ġreg":1069,"Ġpres":1070,"Ġfriend":1071,"IN":1072,"Ġsl":1073,"ible":1074,"Let":1075,"Ġsy":1076,"Ġ!":1077,"Ġanother":1078,"orry":1079,"az":1080,"Ġac":1081,"Ġche":1082,"Ġ199":1083,"Ġknown":1084,"ale":1085,"ER":1086,"ph":1087,"Ġstr":1088,"Ġturn":1089,"ics":1090,"Ġsur":1091,"Don":1092,"Ġbetween":1093,"Ġalways":1094,"ular":1095,"ollow":1096,"ĠThey":1097,"Ġhouse":1098,"ek":1099,"ts":1100,"ason":1101,"St":1102,"Ġmon":1103,"ĠNew":1104,"ces":1105,"cial":1106,"Ġanything":1107,"Ġleft":1108,"ual":1109,"Ġrun":1110,"that":1111,"Ġsure":1112,"Ġreal":1113,"Ġbetter":1114,"ished":1115,"ĠDe":1116,"ĠUnited":1117,"Ġbit":1118,"der":1119,"ye":1120,"ĠAl":1121,"Ġel":1122,"ĠFr":1123,"led":1124,"Ġinclud":1125,"ĠAnd":1126,"Ġgirl":1127,"ness":1128,"ĠSh":1129,"All":1130,"orth":1131,"gg":1132,"Ġsecond":1133,"Ġdone":1134,"ĠThis":1135,"Come":1136,"Ġmoney":1137,"arm":1138,"Ġ''":1139,"ys":1140,"Ġdifferent":1141,"``":1142,"aught":1143,"but":1144,"Ġkeep":1145,"Ġword":1146,"ton":1147,"akes":1148,"oun":1149,"Ġbelie":1150,"ĠâĢľ":1151,"Ġdr":1152,"Ġschool":1153,"Ġstud":1154,"ird":1155,"fect":1156,"ative":1157,"vern":1158,"Ġent":1159,"ters":1160,"Ġpoint":1161,"Ġunt":1162,"Ġsub":1163,"ner":1164,"Ġret":1165,"Okay":1166,"Ġperson":1167,"Ġdec":1168,"ret":1169,"Ġob":1170,"Ġwhile":1171,"Ġtold":1172,"Ġmet":1173,"to":1174,"Ġcons":1175,"olog":1176,"ities":1177,"My":1178,"Ġbo":1179,"row":1180,"Ġinv":1181,"Ġbus":1182,"Ġcent":1183,"its":1184,"Ġever":1185,"Is":1186,"Ġmus":1187,"Ġmom":1188,"Ġph":1189,"Ġmat":1190,"ames":1191,"Ġcity":1192,"ars":1193,"Hey":1194,"aj":1195,"Ġboy":1196,"Ġuh":1197,"ivers":1198,"Ġfollow":1199,"ject":1200,"Ġpop":1201,"ctor":1202,"ote":1203,"yes":1204,"Ġgl":1205,"Thank":1206,"HE":1207,"Ġerm":1208,"no":1209,"Ġuntil":1210,"ott":1211,"Ġcourse":1212,"une":1213,"Ġbook":1214,"ĠAmerican":1215,"eak":1216,"ax":1217,"Ġtook":1218,"Ġprodu":1219,"Ġnext":1220,"of":1221,"ok":1222,"Ġokay":1223,"ash":1224,"ling":1225,"Ġmen":1226,"ĠAs":1227,"Ġinst":1228,"ohn":1229,"Ġboth":1230,"ĠStates":1231,"Ġsing":1232,"ins":1233,"ier":1234,"cept":1235,"Ã©":1236,"Ġlar":1237,"Ġinc":1238,"ision":1239,"ures":1240,",\"":1241,"Ġ-":1242,"19":1243,"Ġass":1244,"Ġeach":1245,"Ġwater":1246,"ĠWhat":1247,"Ġlater":1248,"Ġfather":1249,"When":1250,"AN":1251,"Ġcre":1252,"Ġstop":1253,"stand":1254,"Ġcle":1255,"ĠAn":1256,"Ġpass":1257,"ĠEng":1258,"eg":1259,"Ġseem":1260,"Ġlist":1261,"Ġbest":1262,"Ġnothing":1263,"Ġ198":1264,"Ġcap":1265,"ern":1266,"Not":1267,"ope":1268,"Ġsw":1269,"Ġnumber":1270,"Ġstate":1271,"omm":1272,"blem":1273,"Ġ6":1274,"ross":1275,"Ġactually":1276,"Ġsmall":1277,"Ġimp":1278,"Ġdied":1279,"uth":1280,"ung":1281,"ister":1282,"20":1283,"Ġbre":1284,"ĠGod":1285,"iness":1286,"Ġhigh":1287,"osed":1288,"ĠInd":1289,"Ġchar":1290,"ired":1291,"cess":1292,"Ġhard":1293,"ines":1294,"Ġdoesn":1295,"Ġfun":1296,"Ġagainst":1297,"Ġyeah":1298,"Ġfive":1299,"Ġadd":1300,"ific":1301,"ĠNo":1302,"where":1303,"Ġem":1304,"On":1305,"ric":1306,"Ġfr":1307,"Ġfamily":1308,"Ġteam":1309,"Ġbecame":1310,"Ġproblem":1311,"Ġsaw":1312,"ane":1313,"ered":1314,"Ġloc":1315,"Ġpubl":1316,"ury":1317,"Ġrep":1318,"Ġenough":1319,"Ġyes":1320,"alf":1321,"Ġelse":1322,"att":1323,"ral":1324,"uc":1325,"ably":1326,"Ġborn":1327,"Ġ7":1328,"ger":1329,"Ġwar":1330,"Ġmother":1331,"Ġdire":1332,"app":1333,"Ġtoget":1334,"ina":1335,"Ġtogether":1336,"Ġduring":1337,"Who":1338,"Ġseen":1339,"ball":1340,"Ġtown":1341,"rop":1342,"Ġonce":1343,"ared":1344,"Just":1345,"Ġwithout":1346,"less":1347,"Ġfact":1348,"Ġ197":1349,"iet":1350,"let":1351,"ments":1352,"Ġfew":1353,"stem":1354,"Mm":1355,"Ġwait":1356,"Ġweek":1357,"rist":1358,"Ġsince":1359,"part":1360,"Ġsays":1361,"Ġsorry":1362,"Ġrest":1363,"000":1364,"OU":1365,"Ġsix":1366,"cted":1367,"ik":1368,"Where":1369,"ĠZ":1370,"uff":1371,"Ġdisc":1372,"ten":1373,"ertain":1374,"Ġside":1375,"Ġwanted":1376,"Ġhear":1377,"Ġsign":1378,"ital":1379,"Ġcoll":1380,"ex":1381,"Ġsim":1382,"Ġ8":1383,"Ġyoung":1384,"Ġmeet":1385,"Ġimport":1386,"ield":1387,"ĠBut":1388,"Ġroom":1389,"son":1390,"Ġinte":1391,"eb":1392,"Ġeverything":1393,"ism":1394,"ream":1395,"ĠIs":1396,"Ġstand":1397,"Ġbad":1398,"Ġtri":1399,"Ġlight":1400,"Ġlead":1401,"Ġstay":1402,"aid":1403,"rew":1404,"Ġid":1405,"ĠSp":1406,"me":1407,"Ġlive":1408,"Ġread":1409,"Ġev":1410,"Then":1411,"Ġmind":1412,"Are":1413,"Ġunderstand":1414,"Ġleave":1415,"Ġquite":1416,"ense":1417,"ants":1418,"Ġmove":1419,"rict":1420,"Ġcoming":1421,"Ġson":1422,"Ġopen":1423,"Uh":1424,"Ġinter":1425,"Ch":1426,"Look":1427,"Ġmusic":1428,"ĠPr":1429,"Ġhum":1430,"orning":1431,"ised":1432,"Ġnear":1433,"ĠCl":1434,"Ġtoday":1435,"ING":1436,"Ġexp":1437,"Ġsort":1438,"iversity":1439,"Ġtimes":1440,"uss":1441,"Ġland":1442,"ike":1443,"Sh":1444,"ists":1445,"ined":1446,"Ġbelieve":1447,".âĢĿ":1448,"Ġdays":1449,"iew":1450,"Ġ196":1451,"ene":1452,"Ġgener":1453,"Ġtrans":1454,"Ġed":1455,"Ġext":1456,"Ġquest":1457,"ĠJohn":1458,"br":1459,"ober":1460,"ets":1461,"Ġchildren":1462,"ĠCount":1463,"ilm":1464,"Ġbuild":1465,"idd":1466,"Ġart":1467,"Right":1468,"Ġtra":1469,"Ġfar":1470,"Ġcol":1471,"Ġsk":1472,"Ġgroup":1473,"Ġmain":1474,"cy":1475,"ution":1476,"Ġmed":1477,"ready":1478,"Ġsit":1479,"Ġhappened":1480,"Ġthough":1481,"Ġupon":1482,"Ġisn":1483,"ries":1484,"ey":1485,"Ġlooking":1486,"Ġnice":1487,"Ġsystem":1488,"Ġ10":1489,"amed":1490,"Ġposs":1491,"ĠQ":1492,"ains":1493,"Ġref":1494,"ĠâĢĵ":1495,"ives":1496,"Ġ9":1497,"ery":1498,"by":1499,"Ġinterest":1500,"ize":1501,"Ġcountry":1502,"AT":1503,"Ġwhole":1504,"Ġplease":1505,"Ġgovern":1506,"rap":1507,"aut":1508,"gt":1509,"ized":1510,"Ġeas":1511,"Ġcur":1512,"Ġgetting":1513,"ues":1514,"Âł":1515,"ither":1516,"Ġhour":1517,"Ġpower":1518,"Ġmod":1519,"Ġheart":1520,"Ġhimself":1521,"okay":1522,"Ġface":1523,"Ġdri":1524,"ĠGr":1525,"Ġpret":1526,"Ġstarted":1527,"As":1528,"fess":1529,"leep":1530,"Ġimportant":1531,"For":1532,"Ġheard":1533,"ats":1534,"ann":1535,"Ġjob":1536,"Ġbeh":1537,"Ġdeath":1538,"ows":1539,"ĠMay":1540,"Ġyet":1541,"arr":1542,"Ġarea":1543,"Ġbro":1544,"Ġ--":1545,"ai":1546,"Ġhalf":1547,"Ġmorning":1548,"ĠGerm":1549,"ison":1550,"ility":1551,"Ġpay":1552,"anna":1553,"dd":1554,"Ġhaving":1555,"anu":1556,"Ġsong":1557,"Ġwin":1558,"aster":1559,"Ġeyes":1560,"fl":1561,"Ġalready":1562,"ĠWe":1563,"ature":1564,"ality":1565,"Ġrecord":1566,"Ġplayed":1567,"Ġmil":1568,"do":1569,"Ġdra":1570,"ON":1571,"Ġri":1572,"velop":1573,"Ġair":1574,"Ġprob":1575,"lish":1576,"ted":1577,"Ġprov":1578,"Ġmonth":1579,"Good":1580,"ĠHow":1581,"Ġbrother":1582,"Ġremember":1583,"Ġalong":1584,"ump":1585,"Ġ[":1586,"Ġsaying":1587,"Ġwoman":1588,"Ġknew":1589,"Ġgame":1590,"ided":1591,"ĠKing":1592,"ices":1593,"most":1594,"Did":1595,"Ġhold":1596,"Al":1597,"Ġpolit":1598,"Ġmeans":1599,"Ġgave":1600,"ural":1601,"Ġreturn":1602,"Ġsir":1603,"yeah":1604,"Ġtalking":1605,"ept":1606,"Ġcase":1607,"Ġmiss":1608,"ĠThere":1609,"wards":1610,"ages":1611,"aps":1612,"Ġwrong":1613,"ering":1614,"ony":1615,"aby":1616,"Ġty":1617,"ĠCounty":1618,"Ġage":1619,"Ġjo":1620,"Ġins":1621,"hm":1622,"Ġserv":1623,"Go":1624,"Ġwalk":1625,"Ġlaw":1626,"Ġprom":1627,"ounds":1628,"Ġfull":1629,"Ġgi":1630,"Ġtop":1631,"ta":1632,"ple":1633,"not":1634,"ulation":1635,"reen":1636,"ead":1637,"ĠAt":1638,"Ġbusiness":1639,"ically":1640,"ional":1641,"Ġidea":1642,"Ġeat":1643,"Ġsoon":1644,"gy":1645,"iter":1646,"Ġkid":1647,"aughter":1648,"Ġequ":1649,"ying":1650,"Ġasked":1651,"ĠSo":1652,"Ġdead":1653,"uly":1654,"unic":1655,"AR":1656,"ship":1657,"Ġhur":1658,"Er":1659,"Ġfoot":1660,"ched":1661,"pr":1662,"Can":1663,"aken":1664,"Ġmill":1665,"cle":1666,"leased":1667,"born":1668,"ator":1669,"Ġcontin":1670,"ately":1671,"Ġans":1672,"ecause":1673,"Ġtrying":1674,"Ġhist":1675,"anuary":1676,"ĠOh":1677,"Ġexpl":1678,"ĠBrit":1679,"Ġclass":1680,"Ġ15":1681,"Ġwife":1682,"ĠOn":1683,"uro":1684,"Ġchang":1685,"Ġ17":1686,"cri":1687,"erv":1688,"ley":1689,"dy":1690,"ured":1691,"Ġdoor":1692,"pend":1693,"Ġbring":1694,"urch":1695,"ama":1696,"arl":1697,"Ġoften":1698,"Ġbegan":1699,"con":1700,"now":1701,"Ġbas":1702,"Ġfore":1703,"rence":1704,"Ġoffic":1705,"Ġspeak":1706,"ĠPro":1707,"orld":1708,"ica":1709,"enn":1710,"Ġmatter":1711,"Ġlear":1712,"Ġ194":1713,"Ġpri":1714,"Ġcertain":1715,"ides":1716,"ĠAll":1717,"At":1718,"ape":1719,"Ġ195":1720,"ĠRe":1721,"Ġable":1722,"Ġmaking":1723,"ĠBl":1724,"Ġchange":1725,"ĠChrist":1726,"ffect":1727,"oice":1728,"ilt":1729,"ush":1730,"Ġdet":1731,"Ġpain":1732,"ĠFor":1733,"Ġfilm":1734,"Ġwind":1735,"Ġsent":1736,"Ġlost":1737,"ĠJanuary":1738,"ole":1739,"ĠUniversity":1740,"Ġless":1741,"ĠHis":1742,"Ġsomeone":1743,"Get":1744,"Ġplan":1745,"Ġgone":1746,"arch":1747,"Ġdevelop":1748,"orrow":1749,"Ġfight":1750,"OR":1751,"Your":1752,"iver":1753,"Ġdef":1754,"Ġround":1755,"eth":1756,"Ġguy":1757,"Ġhappen":1758,"Ġthank":1759,"Ġlarge":1760,"iam":1761,"Ġpartic":1762,"Ġstory":1763,"ĠSc":1764,"rigin":1765,"Ġmoment":1766,"inc":1767,"Ġshall":1768,"One":1769,"ract":1770,"ief":1771,"?\"":1772,"Ġwond":1773,"ĠTHE":1774,"ster":1775,"ĠâĻª":1776,"ugust":1777,"gram":1778,"Ġwomen":1779,"ĠCon":1780,"Ġwatch":1781,"ained":1782,"Ġadv":1783,"Ġwasn":1784,"Ġline":1785,"aces":1786,"arent":1787,"ĠYork":1788,"well":1789,"An":1790,"Ġearly":1791,"Ġorder":1792,"Ġconc":1793,"ians":1794,"pri":1795,"gue":1796,"Ġes":1797,"Ġmark":1798,"ently":1799,"Ġ_":1800,"ello":1801,"Ġprobably":1802,"Ġgoes":1803,"Ġshort":1804,"Ġleg":1805,"ĠThat":1806,"pped":1807,"hip":1808,"eptember":1809,"Ġpos":1810,"Ġfall":1811,"enty":1812,"alth":1813,"Ġbecome":1814,"Ġpretty":1815,"eng":1816,"ajor":1817,"Ġbeaut":1818,"ES":1819,"Here":1820,"Ġ;":1821,"Ġworking":1822,"Ġter":1823,"ĠWar":1824,"Ġexamp":1825,"Ġhands":1826,"Ġbody":1827,"reet":1828,"aus":1829,"Ġrece":1830,"Ġtrue":1831,"Ġexper":1832,"Ġfell":1833,"Ġterm":1834,"Ġspec":1835,"To":1836,"Ġeight":1837,"Ġvar":1838,"Ġdiv":1839,"ron":1840,"Ġyourself":1841,"Ġsleep":1842,"Ġconst":1843,"Ġmovie":1844,"angu":1845,"undred":1846,"omp":1847,"May":1848,"med":1849,"Ġvis":1850,"Ġocc":1851,"Ġfree":1852,"Ġcomes":1853,"ĠCan":1854,"LL":1855,"Ġpat":1856,"Ġsol":1857,"Ġcompany":1858,"Ġgiven":1859,"Ġ16":1860,"ived":1861,"Ġclose":1862,"Ġhaven":1863,"Ġwouldn":1864,"Ġcontro":1865,"ention":1866,"Ġgovernment":1867,"mp":1868,"Ġago":1869,"aper":1870,"ety":1871,"eal":1872,",âĢĿ":1873,"vious":1874,"ĠSouth":1875,"ards":1876,"ert":1877,"Ġfine":1878,"Ġorgan":1879,"Ġfuck":1880,"Ġtre":1881,"ium":1882,"Ġcut":1883,"ĠAugust":1884,"Ġcor":1885,"ĠSeptember":1886,"Ġlate":1887,"eor":1888,"ney":1889,"wh":1890,"Ġoper":1891,"ĠWorld":1892,"Ġ193":1893,"Ġcomple":1894,"eter":1895,"ĠEnglish":1896,"Ġpublic":1897,"ccess":1898,"Ġpar":1899,"Ġ12":1900,"Ġwanna":1901,"wer":1902,"ĠTr":1903,"ĠComm":1904,"els":1905,"Ġquestion":1906,"Ġdrink":1907,"ouble":1908,"ĠAust":1909,"ps":1910,"ĠĠĠ":1911,"Ġorigin":1912,"huh":1913,"Because":1914,"Ġdeal":1915,"Ġfire":1916,"Ġbed":1917,"oon":1918,"Ġreleased":1919,"Ġest":1920,"Ġhope":1921,"âĢĶ":1922,"Ġseries":1923,"Ġleast":1924,"Ġpresent":1925,"Ġguys":1926,"mm":1927,"ĠBe":1928,"Ġalmost":1929,"Wh":1930,"Ġsqu":1931,"bum":1932,"Ġready":1933,"ology":1934,"ĠJuly":1935,"Ġbegin":1936,"Ġhor":1937,"Ġhundred":1938,"osp":1939,"de":1940,"Ġlooked":1941,"for":1942,"Ġ&":1943,"Ġbaby":1944,"Ġbreak":1945,"Ġsever":1946,"oint":1947,"ler":1948,"umb":1949,"Ġopp":1950,"utes":1951,"Ġ...":1952,"Ġten":1953,"ĠPres":1954,"selves":1955,"EN":1956,"hern":1957,"co":1958,"Ġwords":1959,"Ġmaybe":1960,"Ġmyself":1961,"Ah":1962,"Ġpick":1963,"pril":1964,"Ġblack":1965,"Ġconf":1966,"iful":1967,"Ġpie":1968,"Ġnews":1969,"Ġkilled":1970,"ĠEuro":1971,"Ġmarried":1972,"Ġprogram":1973,"Ġanim":1974,"Ġoh":1975,"Ġfriends":1976,"Ġseason":1977,"Ġdem":1978,"Ġnamed":1979,"ĠYes":1980,"Ġblood":1981,"Ġtaken":1982,"iting":1983,"ĠMarch":1984,"Ġann":1985,"Ġaw":1986,"Ġseveral":1987,"ograp":1988,"ones":1989,"Ġfood":1990,"apan":1991,"ze":1992,"ĠNorth":1993,"oud":1994,"Ġprot":1995,"ege":1996,"ctober":1997,"Ġmakes":1998,"elt":1999,"Re":2000,"head":2001,"Ġship":2002,"Ġdad":2003,"ĠJune":2004,"Ġ2019":2005,"atic":2006,"Ġreason":2007,"ude":2008,"unk":2009,"Ġdesign":2010,"aced":2011,"Ġreport":2012,"oke":2013,"ese":2014,"ances":2015,"lev":2016,"Ġeng":2017,"Ġpopulation":2018,"bed":2019,"che":2020,"Ġclear":2021,"Ġexample":2022,"rench":2023,"resent":2024,"Ġguess":2025,"ĠMin":2026,"ior":2027,"Ġsupport":2028,"min":2029,"Ġhon":2030,"ĠWh":2031,"ned":2032,"ency":2033,"bo":2034,"ged":2035,"cember":2036,"ales":2037,"ĠPh":2038,"Ġpast":2039,"urs":2040,"Ġwhite":2041,"Ġbrought":2042,"ĠAd":2043,"Ġtrain":2044,"bs":2045,"oad":2046,"Please":2047,"Ġlangu":2048,"ament":2049,"Ġmillion":2050,"Ġelect":2051,"ĠĠĠĠĠĠĠĠĠĠĠĠĠĠĠĠ":2052,"Ġalbum":2053,"ĠPar":2054,"Ġfig":2055,"Ġfront":2056,"oman":2057,"ĠGo":2058,"come":2059,"Ġtaking":2060,"Ġhappy":2061,"ĠBritish":2062,"ient":2063,"ĠLe":2064,"ĠApril":2065,"Every":2066,"Ġmag":2067,"fic":2068,"Ġalone":2069,"Ġallow":2070,"Ġmember":2071,"Ġstuff":2072,"ĠFrance":2073,"Ġhuman":2074,"ĠSw":2075,"ĠCal":2076,"Ġswe":2077,"ode":2078,"Ġparty":2079,"Ġcharac":2080,"Ġliving":2081,"Ġbehind":2082,"ovember":2083,"unity":2084,"Ġresp":2085,"Ġsuccess":2086,"!\"":2087,"over":2088,"ĠOr":2089,"Ġval":2090,"ĠNational":2091,"ĠOctober":2092,"work":2093,"ĠEurope":2094,"ully":2095,"Ġheld":2096,"Ġdistrict":2097,"Ġinform":2098,"ĠYeah":2099,"haps":2100,"Ġincluding":2101,"Ġhot":2102,"Ġdaughter":2103,"Ġarm":2104,"Ġeither":2105,"ford":2106,"Ġ2010":2107,"Ġband":2108,"itten":2109,"raz":2110,"Ġgrow":2111,"Ġsat":2112,"ounc":2113,"Ġperform":2114,"ches":2115,"Ġvill":2116,"Ġbar":2117,"Mr":2118,"Ġothers":2119,"band":2120,"men":2121,"sy":2122,"idge":2123,"Ġquick":2124,"Ġstrong":2125,"ĠDecember":2126,"Ġformer":2127,"Ġtem":2128,"Ġattack":2129,"Ġwithin":2130,"ĠJapan":2131,"Ġhell":2132,"ring":2133,"ĠCity":2134,"ĠMiss":2135,"ĠCar":2136,"zer":2137,"Ġprofess":2138,"ider":2139,"ience":2140,"Ġve":2141,"Ġcamp":2142,"ĠDo":2143,"Ġlived":2144,"Ġsingle":2145,"Ġrather":2146,"wo":2147,"Be":2148,"ousand":2149,"ĠRep":2150,"ĠWhen":2151,"Ġsold":2152,"Ġbuilt":2153,"aim":2154,"Ġ11":2155,"unicip":2156,"ĠX":2157,"Ġresult":2158,"lt":2159,"Ġroad":2160,"ruary":2161,"Ġred":2162,"ana":2163,"Ġlisten":2164,"ebruary":2165,"Ġappear":2166,"Ġsum":2167,"ĠFl":2168,"iving":2169,"AS":2170,"TH":2171,"ask":2172,"Ġlevel":2173,"rit":2174,"Ġminutes":2175,"amb":2176,"ĠPl":2177,"Ex":2178,"Ġ$":2179,"cient":2180,"ĠCol":2181,"Ġthinking":2182,"augh":2183,"ots":2184,"Ġlooks":2185,"ĠNovember":2186,"lic":2187,"Ġnorth":2188,"par":2189,"Ġstation":2190,"chn":2191,"IS":2192,"Ġ14":2193,"Ġworked":2194,"Ġcommon":2195,"ories":2196,"anger":2197,"Some":2198,"aul":2199,"oe":2200,"ondon":2201,"gest":2202,"Ġthird":2203,"Ġfollowing":2204,"Ġsound":2205,"ĠPresident":2206,"Ġstru":2207,"Ġtou":2208,"Ġball":2209,"Ġdog":2210,"ped":2211,"Ġwants":2212,"ued":2213,"Ġpict":2214,"Ġcouldn":2215,"key":2216,"Ġ13":2217,"Ġmemb":2218,"ored":2219,"Ġwonder":2220,"ĠSe":2221,"Ġbeautiful":2222,"Ġspecial":2223,"oub":2224,"ipp":2225,"oor":2226,"ĠWill":2227,"actly":2228,"Ġsometimes":2229,"Ġturned":2230,"RE":2231,"Ġrepl":2232,"Ġmajor":2233,"uthor":2234,"Or":2235,"Ġplaying":2236,"ĠFrench":2237,"Ġexpect":2238,"unt":2239,"Ġtot":2240,"Ġdepart":2241,"que":2242,"Ġtest":2243,"Hello":2244,"Ġminute":2245,"Ġ|":2246,"ha":2247,"Ġthousand":2248,"how":2249,"Ġhit":2250,"Ġusing":2251,"Ġce":2252,"ffic":2253,"Ġmess":2254,"go":2255,"Ġbuilding":2256,"can":2257,"II":2258,"ĠFebruary":2259,"itting":2260,"aur":2261,"Ġmonths":2262,"airs":2263,"Ġacross":2264,"ino":2265,"Ġappro":2266,"Ġinde":2267,"attle":2268,"fully":2269,"Ġcir":2270,"ald":2271,"Ġinside":2272,"Ġpossible":2273,"Ġdie":2274,"there":2275,"Ġhistory":2276,"ternational":2277,"Ġcost":2278,"ĠGeor":2279,"ham":2280,"Ġseven":2281,"ases":2282,"Ġamong":2283,"urg":2284,"ĠGu":2285,"ae":2286,"Ġking":2287,"Ġoutside":2288,"Ġeffect":2289,"Ġusually":2290,"usband":2291,"iod":2292,"overed":2293,"cent":2294,"lf":2295,"ĠHer":2296,"read":2297,"Ġsouth":2298,"ĠMan":2299,"Ġmembers":2300,"Have":2301,"Ġrequ":2302,"though":2303,"After":2304,"Ġdream":2305,"ma":2306,"like":2307,"ĠLondon":2308,"Any":2309,"Ġtom":2310,"por":2311,"Ġoffice":2312,"fort":2313,"Ġill":2314,"itions":2315,"ration":2316,"Ġteac":2317,"ĠAf":2318,"unch":2319,"ached":2320,"Ġcheck":2321,"omin":2322,"ĠEd":2323,"Ġ30":2324,"Ġdest":2325,"oul":2326,"Ġhours":2327,"Ġav":2328,"soci":2329,"Ġrock":2330,"ĠAb":2331,"eared":2332,"yn":2333,"ĠĠĊ":2334,"com":2335,"ĠItal":2336,"Ġgun":2337,"Ġrev":2338,"Ġcompet":2339,"Ġste":2340,"Ġworks":2341,"ified":2342,"Ġaf":2343,"Ġra":2344,"cer":2345,"iddle":2346,"ĠCent":2347,"ĠBar":2348,"Ġpolice":2349,"Maybe":2350,"Ġbased":2351,"iron":2352,"sc":2353,"Ġhusband":2354,"Ġnational":2355,"aring":2356,"Ġsea":2357,"With":2358,"Ġcurrent":2359,"ata":2360,"ox":2361,"ement":2362,"Ġsil":2363,"ays":2364,"Ġfif":2365,"Ġrad":2366,"Ġcond":2367,"Ġview":2368,"rodu":2369,"ani":2370,"itch":2371,"Ġclub":2372,"Ġiss":2373,"Ġbuy":2374,"ĠWest":2375,"Ġcentury":2376,"Ġsend":2377,"Ġpost":2378,"Ġproper":2379,"een":2380,"Ġanyone":2381,"Ġmoved":2382,"Ġcomplete":2383,"ĠIf":2384,"Ġdear":2385,"fer":2386,"Ġfav":2387,"Ġfield":2388,"Ġfelt":2389,"Ġcontrol":2390,"ĠEngland":2391,"levision":2392,"Ġdark":2393,"10":2394,"Ġmunicip":2395,"Ġtried":2396,"Ġfre":2397,"ara":2398,"Ġmur":2399,"Ġparticular":2400,"ks":2401,"Ġwritten":2402,"arty":2403,"Ġvide":2404,"Ġgold":2405,"Ġcop":2406,"ĠAfter":2407,"Ġgets":2408,"Ġexc":2409,"Ġlocal":2410,"irth":2411,"Ġparent":2412,"Ġcreated":2413,"estern":2414,"ician":2415,"idence":2416,"aged":2417,"ressed":2418,"more":2419,"Ġstra":2420,"ission":2421,"Ġpoor":2422,"Ġhair":2423,"Ġfa":2424,"Ġincre":2425,"Ġdam":2426,"Ġtwenty":2427,"Ġcal":2428,"ĠTH":2429,"Ġperiod":2430,"ouncil":2431,"conom":2432,"Ġlow":2433,"Ġwrote":2434,"LE":2435,"Ġabs":2436,"Ġ192":2437,"uk":2438,"Ġmer":2439,"Ġgotta":2440,"raid":2441,"oved":2442,"Ġevent":2443,"ument":2444,"Ġsn":2445,"Ġeveryone":2446,"Of":2447,"Ġwhether":2448,"Ġdescri":2449,"Ġlanguage":2450,"Ġcoup":2451,"Ġsun":2452,"ising":2453,"Ġord":2454,"Ġpract":2455,"ĠLea":2456,"Ġcareer":2457,"ourn":2458,"aff":2459,"ording":2460,"Ġdev":2461,"18":2462,"Ġgeneral":2463,"Ġvoice":2464,"Ġlives":2465,"hys":2466,"Ġbox":2467,"ĠYOU":2468,"Ġfootball":2469,"Ġanswer":2470,"Ġcaus":2471,"ĠUS":2472,"ctions":2473,"rie":2474,"Ġton":2475,"Ġgrand":2476,"ĠTe":2477,"Ġchance":2478,"irty":2479,"Ġeasy":2480,"Ġcannot":2481,"ĠGerman":2482,"Ġwish":2483,"Ġsense":2484,"Ġforg":2485,"Ġchanged":2486,"aint":2487,"Ġ25":2488,"Ġreceived":2489,"ization":2490,"Ġhig":2491,"Ġservice":2492,"ĠMrs":2493,"itive":2494,"Ġdefe":2495,"iding":2496,"light":2497,"ule":2498,"Ġworry":2499,"Ġfur":2500,"Ġmot":2501,"Ġinvol":2502,"Ġlay":2503,"ada":2504,"ribut":2505,"Ġdiffic":2506,"dom":2507,"ogn":2508,"ĠJack":2509,"Ġcounty":2510,"ED":2511,"rem":2512,"Ġknows":2513,"room":2514,"Ġtable":2515,"cience":2516,"Ġfeet":2517,"Ġmine":2518,"Ġrepresent":2519,"ien":2520,"Ġwall":2521,"uation":2522,"Ġinformation":2523,"Ġauthor":2524,"Ġtomorrow":2525,"Ġdep":2526,"Ġnat":2527,"Ġseems":2528,"Ġbird":2529,"Ġones":2530,"ĠAm":2531,"ula":2532,"Ġground":2533,"âĢĺ":2534,"?âĢĿ":2535,"avy":2536,"Ġprop":2537,"Ġsuper":2538,"Ġpull":2539,"Ġdin":2540,"ĠTO":2541,"Ġ2016":2542,"Ġprocess":2543,"she":2544,"ination":2545,"Ġfail":2546,"Ġstep":2547,"ended":2548,"uri":2549,"ille":2550,"Ġphone":2551,"they":2552,"tle":2553,"emy":2554,"ĠDr":2555,"ĠPe":2556,"ĠOne":2557,"Ġsweet":2558,"Ġcharacter":2559,"Ġcouple":2560,"Ġpur":2561,"ĠHar":2562,"cially":2563,"Ġtill":2564,"Ġtrad":2565,"Ġbott":2566,"ensus":2567,"ift":2568,"asure":2569,"look":2570,"Ġhy":2571,"eder":2572,"used":2573,"ĠAustral":2574,"with":2575,"ĠMc":2576,"ges":2577,"Ġwrite":2578,"ocr":2579,"Ġpress":2580,"Ġdraw":2581,"Ġafraid":2582,"Ġpaper":2583,"acy":2584,"ael":2585,"Ġrunning":2586,"Ġsister":2587,"Ġeduc":2588,"ĠThen":2589,"His":2590,"Erm":2591,"OM":2592,"See":2593,"Ġtelevision":2594,"oose":2595,"Ġvillage":2596,"Ġtit":2597,"Ġmount":2598,"ĠState":2599,"lands":2600,"ills":2601,"Ġhowever":2602,"Ġlonger":2603,"Ġpresident":2604,"rog":2605,"Ġabove":2606,"Ġstar":2607,"lex":2608,"bers":2609,"IC":2610,"Ġ]":2611,"itary":2612,"Ġserved":2613,"ospital":2614,"ĠDon":2615,"ivil":2616,"ĠAmerica":2617,"Ġran":2618,"Ġtechn":2619,"Ġthemselves":2620,"Ġtype":2621,"irm":2622,"Ġkids":2623,"Ġcold":2624,"IT":2625,"Ġexactly":2626,"lin":2627,"Ġdeep":2628,"arth":2629,"ampions":2630,"stit":2631,"ĠColl":2632,"Ġconne":2633,"eneral":2634,"Ġinvest":2635,"ĠIndian":2636,"Ġcross":2637,"alt":2638,"Ġfair":2639,"Ġclean":2640,"Ġvers":2641,"Ġrul":2642,"Ġhurt":2643,"irt":2644,"ilar":2645,"Ġregion":2646,"Ġcry":2647,"Ġcos":2648,"Ġ24":2649,"Ġplayer":2650,"ĠEx":2651,"Ġposition":2652,"Ġsupposed":2653,"ĠSchool":2654,"ffe":2655,"Ġshot":2656,"Ġ2013":2657,"Ġla":2658,"Ġwhate":2659,"ption":2660,"Ġinclude":2661,"Ġgen":2662,"Ġwhatever":2663,"Ġseemed":2664,"Ġfast":2665,"Ġtrouble":2666,"ĠPol":2667,"Ġ0":2668,"ĠHouse":2669,"avid":2670,"Ġarri":2671,"viously":2672,"Take":2673,"ĠCap":2674,"Ġtruth":2675,"ĠWell":2676,"Ġled":2677,"Ġtonight":2678,"Ġneeds":2679,"Ar":2680,"Wait":2681,"Ġserious":2682,"Ġfut":2683,"who":2684,"Ġsex":2685,"Ġ2018":2686,"Ġvideo":2687,"Ġaff":2688,"Cl":2689,"ĠQue":2690,"Ġbirth":2691,"ially":2692,"Ġcapital":2693,"Ġinfl":2694,"olution":2695,"Ġdirect":2696,"ublic":2697,"Ġpopular":2698,"Ġlim":2699,"entle":2700,"Ġshoot":2701,"Ġpriv":2702,"Ġaccept":2703,"Ġdepartment":2704,"OW":2705,"Ġcat":2706,"Ġwood":2707,"Ġ2014":2708,"Ġwaiting":2709,"iol":2710,"Ġlab":2711,"cture":2712,"ĠHowever":2713,"Ġentire":2714,"Ġport":2715,"Ġblue":2716,"Ġforget":2717,"amm":2718,"ĠMe":2719,"this":2720,"Ġlik":2721,"Ġdue":2722,"ror":2723,"joy":2724,"Like":2725,"Ġitself":2726,"Ġinstead":2727,"ĠTo":2728,"omb":2729,"ĠMy":2730,"Ġkept":2731,"iforn":2732,"Ġfinished":2733,"Ġcreat":2734,"ploy":2735,"Ġpen":2736,"Ġsomebody":2737,"roy":2738,"off":2739,"ĠMich":2740,"uz":2741,"reg":2742,"teen":2743,"Thanks":2744,"Ġbank":2745,"Ġtouch":2746,"Ġluck":2747,"ĠSec":2748,"Ġproblems":2749,"ference":2750,"Ġ2017":2751,"ĠLeague":2752,"Ġsell":2753,"Ġtree":2754,"Ġstri":2755,"Ġtreat":2756,"Ġspace":2757,"rug":2758,"ĠSy":2759,"Ġproject":2760,"Ġeconom":2761,"Ġ2015":2762,"ĠGermany":2763,"Ġparents":2764,"Ġcult":2765,"Ġrespect":2766,"CH":2767,"Ġboys":2768,"ĠRuss":2769,"ĠEl":2770,"ifornia":2771,"Ġsecret":2772,"ander":2773,"ran":2774,"ression":2775,"ergy":2776,"ĠThese":2777,"Ġvol":2778,"Ġesc":2779,"Ġhealth":2780,"Ġcountries":2781,"bit":2782,"ray":2783,"Ġdecided":2784,"Ġdi":2785,"Ġaren":2786,"Ġ2011":2787,"Ġcourt":2788,"Ġsugg":2789,"line":2790,"Ġsuggest":2791,"Ġhuh":2792,"isc":2793,"Ġpiece":2794,"Ġrese":2795,"Tell":2796,"ev":2797,"Ġdoctor":2798,"Ġperhaps":2799,"Ġnorm":2800,"hel":2801,"Ġcrit":2802,"Ġmist":2803,"ival":2804,"Ġcarry":2805,"Ġstraight":2806,"Ġ2012":2807,"Ġ(\"":2808,"Ġfamous":2809,"Sorry":2810,"Ġdifficult":2811,"ĠParty":2812,"Ġfinal":2813,"Ġrecogn":2814,"ĠNot":2815,"cause":2816,"Ġnine":2817,"inal":2818,"Ġimag":2819,"atter":2820,"Ġexist":2821,"Ġspecies":2822,"Ġseat":2823,"Ġgrad":2824,"dden":2825,"ius":2826,"GH":2827,"ciety":2828,"Ġ202":2829,"Ġfuture":2830,"Ġz":2831,"Ġtakes":2832,"ĠLord":2833,"olute":2834,"Ġang":2835,"Ġtrack":2836,"Ġsurpr":2837,"ager":2838,"Ġprison":2839,"Ġphot":2840,"Ġmunicipality":2841,"itor":2842,"Ġhorse":2843,"Ġple":2844,"Ġsus":2845,"Ġeverybody":2846,"Ġpicture":2847,"sp":2848,"val":2849,"Ġtyp":2850,"was":2851,"ĠSm":2852,"illy":2853,"Ġsafe":2854,"ĠGovern":2855,"Ġfly":2856,"Ġweeks":2857,"ĠCalifornia":2858,"Ġeye":2859,"af":2860,"Ġgirls":2861,"Ġlearn":2862,"Ġtrust":2863,"empt":2864,"Ġfix":2865,"Ġ21":2866,"yle":2867,"Ġcook":2868,"Ġengine":2869,"imate":2870,"Ġfeeling":2871,"owers":2872,"Ġsocial":2873,"Ġrole":2874,"Ġsudden":2875,"ops":2876,"Ġbooks":2877,"Ġanyway":2878,"ĠSome":2879,"Ġcover":2880,"Ġspir":2881,"pecially":2882,"Ġphys":2883,"Ġep":2884,"Ġletter":2885,"Ġlady":2886,"Ġfurther":2887,"Ġneg":2888,"Ġevening":2889,"Ġexcept":2890,"Ġperfect":2891,"Ġ100":2892,"US":2893,"Ġadm":2894,"Ġvict":2895,"Ġum":2896,"udd":2897,"itted":2898,"amer":2899,"Ġworth":2900,"bor":2901,"Ġdro":2902,"ky":2903,"rel":2904,"Ġnon":2905,"Ġprotect":2906,"Ġmeeting":2907,"Ġmult":2908,"Ġcomput":2909,"ĠPark":2910,"Will":2911,"Un":2912,"oes":2913,"ken":2914,"Hi":2915,"ampionship":2916,"Ġopened":2917,"Stop":2918,"rey":2919,"Ġpot":2920,"ĠRoman":2921,"Ġamount":2922,"see":2923,"Ġpolitical":2924,"Ġmouth":2925,"isten":2926,"Ġ2020":2927,"Ġfigure":2928,"razy":2929,"Ġcast":2930,"ume":2931,"ĠEm":2932,"ceed":2933,"ĠTom":2934,"ivid":2935,"15":2936,"\")":2937,"Ġpublished":2938,"irgin":2939,"omes":2940,"Ġfear":2941,"ashing":2942,"hem":2943,"Ġobject":2944,"ĠOF":2945,"ĠSan":2946,"riage":2947,"Ġrelig":2948,"Ġdoub":2949,"Ġtotal":2950,"Ġmem":2951,"These":2952,"Ġmass":2953,"Ġhappens":2954,"Ġcorn":2955,"Ġearth":2956,"Ġshit":2957,"Ġcell":2958,"Ġactiv":2959,"Ġgod":2960,"Ġmeant":2961,"ĠDist":2962,"Ġring":2963,"Ġsave":2964,"Ġant":2965,"Ġgames":2966,"Ġdanger":2967,"Ġpassed":2968,"OK":2969,"Ġaut":2970,"Ġriver":2971,"ĠPhil":2972,"Ġfunny":2973,"Ġcensus":2974,"ĠSu":2975,"Ġestab":2976,"Ġpolic":2977,"Ġtelling":2978,"ping":2979,"Ġcause":2980,"Ġenergy":2981,"ĠHigh":2982,"Ġtax":2983,"Ġain":2984,"Ġfeat":2985,"Ġ23":2986,"time":2987,"Ġreturned":2988,"Ġcirc":2989,"Ã¡":2990,"Ġlocated":2991,"ĠSer":2992,"ĠEast":2993,"Ġaccount":2994,"aining":2995,"Ġchurch":2996,"AL":2997,"Ġjud":2998,"lect":2999,"la":3000,"ĠGeorge":3001,"17":3002,"12":3003,"bour":3004,"Ġmiddle":3005,"reme":3006,"Mar":3007,"Ġlad":3008,"ĠMary":3009,"Ġahead":3010,"ansas":3011,"Ġforce":3012,"Ġsimilar":3013,"Ġslow":3014,"iment":3015,"ND":3016,"iers":3017,"Ġhost":3018,"Ġdoll":3019,"ĠGl":3020,"Ġoriginal":3021,"urb":3022,"ĠChar":3023,"Ġterri":3024,"Ġident":3025,"ĠRiver":3026,"Ġrelation":3027,"ishing":3028,"Ġstudents":3029,"medi":3030,"ades":3031,"Ġannoun":3032,"Ġcomb":3033,"||":3034,"ĠWilliam":3035,"Ġ*":3036,"ĠMed":3037,"iled":3038,"ĠIndia":3039,"Ġparts":3040,"Ġfucking":3041,"ĠPer":3042,"Ġmatch":3043,"Ġspend":3044,"Me":3045,"Ġstick":3046,"Ġ2006":3047,"Ġhop":3048,"Ġhang":3049,"Ġmater":3050,"oly":3051,"Ġ``":3052,"Ġsepar":3053,"raft":3054,"Ġself":3055,"Ġproduct":3056,"Ġhospital":3057,"ises":3058,"Ġnin":3059,"Ġstat":3060,"Ġenjoy":3061,"Ġ22":3062,"Ġclot":3063,"Ġpolitician":3064,"De":3065,"Ġcool":3066,"Ġviol":3067,"osing":3068,"reed":3069,"Ġplaces":3070,"Ġgreen":3071,"Ġwhom":3072,"orthern":3073,"Ġda":3074,"ET":3075,"Ġsoft":3076,"rill":3077,"Ġfamil":3078,"14":3079,"ĠJames":3080,"Ġmad":3081,"ĠâĢĺ":3082,"Ġdeg":3083,"Ġwhose":3084,"Ġbeginning":3085,"Ġfill":3086,"Ġdisapp":3087,"cast":3088,"Ġfollowed":3089,"uge":3090,"!âĢĿ":3091,"minist":3092,"AM":3093,"ĠCor":3094,"Ġnecess":3095,"Ġrespons":3096,"Ġalright":3097,"Ġcommunity":3098,"Ġinn":3099,"Ġfem":3100,"Ġsubject":3101,"Ġintrodu":3102,"Ġgentle":3103,"Ġneigh":3104,"Ġsick":3105,"Ġteacher":3106,"Ġforward":3107,"rian":3108,"Ġide":3109,"Ġstood":3110,"Ġcrazy":3111,"oyal":3112,"oming":3113,"Ġquickly":3114,"Ġleaving":3115,"ams":3116,"Ġherself":3117,"Ġ2008":3118,"Ġhoney":3119,"Ġfac":3120,"Ġbill":3121,"ensive":3122,"Ġtowards":3123,"put":3124,"ĠGeneral":3125,"Ġmach":3126,"ago":3127,"Ġver":3128,"Ġ`":3129,"Ġsuppose":3130,"Ã¼":3131,"Ġmodern":3132,"Really":3133,"Ġinteresting":3134,"From":3135,"ĠMark":3136,"Ġfish":3137,"inger":3138,"ĠII":3139,"Ġappeared":3140,"ĠPaul":3141,"cher":3142,"Ġclaim":3143,"Ġbeat":3144,"cell":3145,"200":3146,"Ġindust":3147,"ĠJe":3148,"ires":3149,"Ġgiving":3150,"Ġbene":3151,"Ġbelong":3152,"Ġbag":3153,"outhern":3154,"Ġmarket":3155,"Ġinflu":3156,"Ġ2007":3157,"ĠDistrict":3158,"ellow":3159,"ĠGood":3160,"ĠMus":3161,"ĠPeter":3162,"ply":3163,"Ġlaugh":3164,"Ġmis":3165,"Ġshut":3166,"Ġthrow":3167,"Ġ26":3168,"ĠGreat":3169,"rave":3170,"Ġpeace":3171,"Ġchair":3172,"Ġvarious":3173,"Ġisland":3174,"Ġdrive":3175,"Ġwest":3176,"Ġmoving":3177,"Ġarch":3178,"bert":3179,"Ġburn":3180,"Ġlargest":3181,"erve":3182,"Ġinf":3183,"ĠMinister":3184,"50":3185,"hood":3186,"isk":3187,"itional":3188,"Ġobs":3189,"Ġnatural":3190,"viron":3191,"ruction":3192,"Ġprofessional":3193,"Ġcatch":3194,"Ġstore":3195,"Give":3196,"ability":3197,"ĠWhy":3198,"ĠMon":3199,"Ġconsider":3200,"Ġmention":3201,"Ġearli":3202,"ĠLou":3203,"rican":3204,"Ġstage":3205,"Ġrace":3206,"inn":3207,"Ġreached":3208,"Ġstudy":3209,"Ġquiet":3210,"Ġconcern":3211,"VE":3212,"ĠĠĠĠĠ":3213,"Ġcolor":3214,"By":3215,"just":3216,"iles":3217,"Ġfloor":3218,"TER":3219,"Ġpark":3220,"Tr":3221,"Ġanimals":3222,"wood":3223,"Ġhar":3224,".,":3225,"uty":3226,"orts":3227,"str":3228,"Ġways":3229,"Even":3230,"het":3231,"inite":3232,"ico":3233,"Ġfarm":3234,"hod":3235,"Ġsitting":3236,"Ġyours":3237,"Ġperm":3238,"Ġpaid":3239,"Ġsituation":3240,"ville":3241,"ĠCo":3242,"16":3243,"Ġquar":3244,"Ġcand":3245,"Ġet":3246,"Ġsimple":3247,"Ġcertainly":3248,"ett":3249,"ĠDem":3250,"Ġjump":3251,"Ġtravel":3252,"AY":3253,"Ġjoined":3254,"Ġ2009":3255,"inary":3256,"AP":3257,"Ġ)":3258,"Ġlose":3259,"ĠCup":3260,"ĠIts":3261,"ari":3262,"Ġdrug":3263,"Ġapart":3264,"Ġmiles":3265,"Ġbreat":3266,"Ġeast":3267,"ĠCouncil":3268,"Ġelection":3269,"iny":3270,"Ġquestions":3271,"night":3272,"Ġice":3273,"Ġincluded":3274,"Ġrail":3275,"field":3276,"ĠBy":3277,"Ġmid":3278,"Ġdecl":3279,"Ġsurv":3280,"Ġpal":3281,"Ġpoints":3282,"ĠGree":3283,"did":3284,"Ġequal":3285,"esus":3286,"cul":3287,"Ġvisit":3288,"face":3289,"Ġmilitary":3290,"ĠNe":3291,"Bl":3292,"ĠAre":3293,"istic":3294,"ĠSte":3295,"Ġkey":3296,"Ġ#":3297,"Ġemb":3298,"Ġappoint":3299,"ĠWith":3300,"ĠRich":3301,"olly":3302,"ining":3303,"Ġterms":3304,"Ġallowed":3305,"ida":3306,"ils":3307,"cious":3308,"ĠEn":3309,"gar":3310,"iff":3311,"Ġofficial":3312,"Ġexperience":3313,"Pe":3314,"Ġpack":3315,"ĠDep":3316,"ming":3317,"ĠIN":3318,"which":3319,"ĠCr":3320,"Ġplant":3321,"Ġneeded":3322,"rer":3323,"ĠSch":3324,"Ġinvolved":3325,"ĠStreet":3326,"Ġmaterial":3327,"30":3328,"ding":3329,"gu":3330,"ĠQu":3331,"ĠBo":3332,"ĠVirgin":3333,"Ġfinally":3334,"Ġindivid":3335,"bl":3336,"ya":3337,"Ġstreet":3338,"Ġanymore":3339,"Ġhung":3340,"Ġegg":3341,"Ġdinner":3342,"ences":3343,"ĠBlack":3344,"ĠCollege":3345,"ocked":3346,"ength":3347,"shire":3348,"Ġwide":3349,"Ġsad":3350,"Ġbull":3351,"ĠSen":3352,"ĠHen":3353,"Ġroll":3354,"Ġnet":3355,"friend":3356,"oid":3357,"anish":3358,"pper":3359,"OT":3360,"Ġfavor":3361,"Ġproduced":3362,"ĠRed":3363,"Ġalive":3364,"Ġshows":3365,"ites":3366,"Ġx":3367,"urity":3368,"ĠBro":3369,"rav":3370,"ĠJust":3371,"vironment":3372,"aven":3373,"olutely":3374,"Ġenc":3375,"anch":3376,"Ġbroad":3377,"Ġlie":3378,"Ġaction":3379,"Ġemploy":3380,"Ġdepend":3381,"Ġstrange":3382,"Ġspent":3383,"Ġglad":3384,"Ġ50":3385,"Ġdestroy":3386,"Ne":3387,"Somet":3388,"ears":3389,"ĠUnion":3390,"ena":3391,"Ġespecially":3392,"ID":3393,"Ġbase":3394,"istory":3395,"Ġfund":3396,"Ġboard":3397,"ĠReg":3398,"kn":3399,"Ġbought":3400,"Ġattempt":3401,"Ġcollege":3402,"AC":3403,"Ġpers":3404,"Ġdel":3405,"Ġglass":3406,"Ġcivil":3407,"Ġnumbers":3408,"Ġ28":3409,"Nothing":3410,"Ġwindow":3411,"ĠAnt":3412,"Ġ27":3413,"Ġwriting":3414,"AND":3415,"Ġdevelopment":3416,"uel":3417,"oph":3418,"ĠJapanese":3419,"Ġdress":3420,"Ġconv":3421,"Ġpercent":3422,"AD":3423,"Ġsour":3424,"Ġadded":3425,"ki":3426,"Listen":3427,"Ġrefer":3428,"Ġshop":3429,"ancy":3430,"cuse":3431,"Ġprim":3432,"resh":3433,"Ġdiscuss":3434,"Ġcried":3435,"van":3436,"ĠWho":3437,"Ġhate":3438,"Ġseeing":3439,"ibility":3440,"Ġanybody":3441,"Ġstopped":3442,"bye":3443,"asons":3444,"Ġnature":3445,"view":3446,"Which":3447,"Ġwat":3448,"Our":3449,"ls":3450,"Ġboat":3451,"Ġvalue":3452,"nes":3453,"iling":3454,"ĠMad":3455,"Ġcompan":3456,"ĠFrank":3457,"ĠMor":3458,"ris":3459,"ify":3460,"Ġhous":3461,"itude":3462,"Ġbear":3463,"ĠComp":3464,"Ġ190":3465,"Ġlo":3466,"Ġfool":3467,"God":3468,"asing":3469,"Ġredu":3470,"fact":3471,"Ġcy":3472,"ĠEarth":3473,"Ġpurp":3474,"ĠTV":3475,"Ġimmedi":3476,"edy":3477,"Ġdate":3478,"upid":3479,"ĠPal":3480,"Ġ2000":3481,"ĠThank":3482,"Ġgives":3483,"rica":3484,"ography":3485,"Ġsummer":3486,"house":3487,"Ġconside":3488,"Ġconsidered":3489,"fit":3490,"Ġkiss":3491,"ĠAir":3492,"Ġtitle":3493,"Ġliter":3494,"Ġcaught":3495,"erry":3496,"Ġsomewhere":3497,"Ġhistor":3498,"Ġprivate":3499,"Ġcommune":3500,"olic":3501,"Ġscience":3502,"incip":3503,"Ġarmy":3504,"Ġfort":3505,"Ġaud":3506,"ĠDavid":3507,"Ġrid":3508,"Ġmix":3509,"ux":3510,"Ġdance":3511,"arden":3512,"Ġbud":3513,"ĠChurch":3514,"ograph":3515,"....":3516,"Ġalthough":3517,"Ġpersonal":3518,"Br":3519,"incess":3520,"Ġeducation":3521,"Ġwild":3522,"don":3523,"Ġcommand":3524,"Ġsize":3525,"Ġformed":3526,"itzer":3527,"sociation":3528,"Ġaver":3529,"inct":3530,"13":3531,"obert":3532,"back":3533,"Ġareas":3534,"Pro":3535,"ĠSam":3536,"ounded":3537,"ĠQueen":3538,"Would":3539,"Ġcollect":3540,"ĠCour":3541,"Ġcard":3542,"Her":3543,"Ġnames":3544,"ĠAnge":3545,"sych":3546,"ique":3547,"ĠEuropean":3548,"Ab":3549,"ĠChe":3550,"ĠPort":3551,"Ġsal":3552,"terday":3553,"Ġcontract":3554,"ustom":3555,"ĠLet":3556,"Ġspirit":3557,"omas":3558,"inese":3559,"ĠChina":3560,"iction":3561,"Ġasking":3562,"Ġprep":3563,"ively":3564,"ĠTur":3565,"Ġdifference":3566,"Ġcompletely":3567,"Ġavail":3568,"Â´":3569,"Ġdise":3570,"Ġrain":3571,"Ġgrew":3572,"Two":3573,"Ġwarm":3574,"ging":3575,"yr":3576,"Ġwear":3577,"Ġleader":3578,"Ġarr":3579,"wered":3580,"Gr":3581,"Sure":3582,"ĠJim":3583,"mas":3584,"ground":3585,"Ġrelationship":3586,"Ġcharge":3587,"ĠAg":3588,"ĠHey":3589,"ĠLa":3590,"Ġclos":3591,"Ġannounced":3592,"Ġshare":3593,"raw":3594,"ĠNow":3595,"Ġbottom":3596,"wise":3597,"noon":3598,"Ġradio":3599,"gress":3600,"ĠLaw":3601,"ators":3602,"ĠPri":3603,"pen":3604,"iday":3605,"board":3606,"ails":3607,"Ġbroke":3608,"John":3609,"hi":3610,"under":3611,"Ġvot":3612,"ashington":3613,"Ġ29":3614,"Ġ:":3615,"Ġhigher":3616,"Pl":3617,"Ġpounds":3618,"Ġfounded":3619,"Ġaward":3620,"ocks":3621,"THE":3622,"Ġdoc":3623,"antly":3624,"Ġindepend":3625,"Ġimpro":3626,"Ġstanding":3627,"Ġcaused":3628,"hest":3629,"Ġreact":3630,"Ġfoc":3631,"ĠCong":3632,"Ġarms":3633,"ological":3634,"ests":3635,"ria":3636,"ĠBer":3637,"Does":3638,"Ġattention":3639,"ection":3640,"Ġnearly":3641,"chie":3642,"set":3643,"Ġsite":3644,"Ġbow":3645,"Qu":3646,"Ġfle":3647,"Ġmodel":3648,"Ġdoubt":3649,"his":3650,"lebr":3651,"ĠOkay":3652,"Ġresearch":3653,"Ġhat":3654,"play":3655,"ledge":3656,"pro":3657,"Ġscient":3658,"Ġdrop":3659,"sec":3660,"Ġimm":3661,"Ġlength":3662,"ka":3663,"ether":3664,"Ġhelped":3665,"Ġevidence":3666,"Ġindeed":3667,"west":3668,"ĠKh":3669,"rect":3670,"Very":3671,"aly":3672,"usion":3673,"ĠMex":3674,"Ġsoul":3675,"ĠSir":3676,"ston":3677,"Ġextra":3678,"ĠAustralia":3679,"11":3680,"Ġcontinued":3681,"ĠJo":3682,"Ġheavy":3683,"Ġtour":3684,"omen":3685,"atives":3686,"Fr":3687,"cing":3688,"ĠHall":3689,"Ġsimply":3690,"Ġgas":3691,"Ġmeaning":3692,"Ġversion":3693,"osition":3694,"Ġsuff":3695,"Ġsens":3696,"ĠAc":3697,"ĠÂ":3698,"ĠIll":3699,"Ġrob":3700,"ĠProv":3701,"win":3702,"Ġarrest":3703,"Ġdaddy":3704,"ĠJew":3705,"Ġthanks":3706,"Ġsearch":3707,"ĠChristian":3708,"Um":3709,"Ġdata":3710,"aker":3711,"Ġclothes":3712,"ĠVirginia":3713,"Ġeff":3714,"Ġtraining":3715,"icle":3716,"Ġnovel":3717,"Ġdemand":3718,"Ġcomputer":3719,"Sp":3720,"uke":3721,"ĠMichael":3722,"Ġbattle":3723,"asion":3724,"Ġactor":3725,"ners":3726,"Ġtemper":3727,"Ġthirty":3728,"Ġ2005":3729,"aha":3730,"Per":3731,"ÃŃ":3732,"anced":3733,"Ġmarriage":3734,"burg":3735,"ij":3736,"aud":3737,"berg":3738,"Ġtalked":3739,"Ġmarry":3740,"aign":3741,"Ġinit":3742,"ential":3743,"ĠMal":3744,"Ġforest":3745,"Ġestabl":3746,"eds":3747,"Ġgroups":3748,"Ġmanage":3749,"ously":3750,"tered":3751,"hab":3752,"Ġdirector":3753,"aine":3754,"aves":3755,"astic":3756,"Ġsongs":3757,"bon":3758,"Ġexec":3759,"Ġcapt":3760,"ĠRepublic":3761,"Ġmurder":3762,"ables":3763,"Ġcup":3764,"ĠInternational":3765,"Ġshouldn":3766,"ares":3767,"Ġservices":3768,"Ġearlier":3769,"order":3770,"Ġanswered":3771,"antic":3772,"Ġcarried":3773,"iced":3774,"Ġtend":3775,"Ġchief":3776,"Ġtext":3777,"sequ":3778,"Ġwatching":3779,"ĠBel":3780,"Ġ186":3781,"Ġwonderful":3782,"Ġdig":3783,"itzerland":3784,"ĠPat":3785,"Ġrout":3786,"Ġchem":3787,"ĠNor":3788,"Ġwel":3789,"Ġstupid":3790,"Ġopport":3791,"ns":3792,"Ġplays":3793,"Ġdeb":3794,"ĠIsland":3795,"Ġassist":3796,"Ġtea":3797,"aries":3798,"Ġclosed":3799,"asc":3800,"Ġcoast":3801,"ĠDemocr":3802,"ĠOly":3803,"Ġaccident":3804,"Ġmultip":3805,"UT":3806,"wr":3807,"Ġlower":3808,"ĠFrom":3809,"mhm":3810,"ĠChampionship":3811,"tr":3812,"reng":3813,"ĠItalian":3814,"Man":3815,"ĠCaptain":3816,"sey":3817,"alley":3818,"ords":3819,"ĠDad":3820,"Ġarg":3821,"Ġ40":3822,"Ġchanges":3823,"gl":3824,"Ġpray":3825,"Ġinternational":3826,"ĠKansas":3827,"Ġinterested":3828,"ĠWhere":3829,"Ġweren":3830,"Ġloved":3831,"Ġenvironment":3832,"Ġregular":3833,"year":3834,"ĠAward":3835,"Ġblow":3836,"ims":3837,"SE":3838,"Ġmaster":3839,"Ġreach":3840,"Ġstarting":3841,"Ġafternoon":3842,"elve":3843,"Ġden":3844,"ĠGrand":3845,"cean":3846,"ini":3847,"Ġelected":3848,"Ġnormal":3849,"Ġsight":3850,"Ġoccur":3851,"Ġsounds":3852,"Ġcant":3853,"Ġfellow":3854,"Ġweap":3855,"Ġrich":3856,"Ġoffer":3857,"Ġinj":3858,"ibly":3859,"Ġwed":3860,"ĠSwitzerland":3861,"ĠCome":3862,"Ġbroken":3863,"Ġund":3864,"ids":3865,"Ġrate":3866,"Ġaccess":3867,"ĠCanada":3868,"Ġthreat":3869,"ĠAfrica":3870,"appy":3871,"ilities":3872,"aste":3873,"Ġ2004":3874,"Ġshowed":3875,"Ġpromise":3876,"su":3877,"amn":3878,"ĠSal":3879,"king":3880,"Ġchoice":3881,"Ġlines":3882,"ĠAlex":3883,"ĠRes":3884,"ension":3885,"Ġdeterm":3886,"apers":3887,"ĠIT":3888,"ittee":3889,"Ġstars":3890,"Ġbelow":3891,"Ġavailable":3892,"hold":3893,"Ġstates":3894,"ĠChinese":3895,"_,":3896,"roll":3897,"Ġschools":3898,"Ġadminist":3899,"Ġcreate":3900,"eep":3901,"Ġepis":3902,";&":3903,"ification":3904,"hib":3905,"Ġfit":3906,"Ġtrade":3907,"Ġexplain":3908,"Ġ189":3909,"ĠWashington":3910,"ccording":3911,"rief":3912,"Ġofficer":3913,"Ġlearned":3914,"ĠParis":3915,"Ġfunction":3916,"Ġbi":3917,"Ġpath":3918,"ĠRob":3919,"ĠOf":3920,"Ġmovement":3921,"Ġaverage":3922,"Ġfat":3923,"ĠHenry":3924,"Ġdeveloped":3925,"Ġsand":3926,"Ġcelebr":3927,"arily":3928,"oseph":3929,"Ġhappening":3930,"People":3931,"Ġap":3932,"ĠTex":3933,"Ġevents":3934,"Ġended":3935,"Ġproduction":3936,"Ġhuge":3937,"Dr":3938,"Ġhero":3939,"ĠLi":3940,"Ã¶":3941,".'":3942,"Ġbur":3943,"ĠMart":3944,"Ġmovies":3945,"Ġtrees":3946,"Ġfinish":3947,"Ġdirected":3948,"Excuse":3949,"Ġcred":3950,"Ġdistance":3951,"ĠItaly":3952,"chen":3953,"Ġsuddenly":3954,"ST":3955,"ĠAct":3956,"ĠMount":3957,"liament":3958,"bing":3959,"Ġmethod":3960,"Ġstyle":3961,"ĠPet":3962,"ushed":3963,"Ġdecision":3964,"Ġcases":3965,"ĠMac":3966,"Ġyesterday":3967,"RO":3968,"Ġtired":3969,"ech":3970,"Ġprincip":3971,"ĠSum":3972,"Ġsociety":3973,"apt":3974,"ĠSl":3975,"Ġ1990":3976,"Ġrights":3977,"ips":3978,"Ġ188":3979,"Ġregard":3980,"uts":3981,"ĠYour":3982,"Ġputting":3983,"olf":3984,"ĠOlymp":3985,"bes":3986,"ffee":3987,"Ġdeli":3988,"Ġstories":3989,"ĠMag":3990,"Ġ()":3991,"azing":3992,"rag":3993,"Sc":3994,"ĠFlor":3995,"ees":3996,"Ġbrain":3997,"ateg":3998,"aped":3999,"Was":4000,"Ã³":4001,"ems":4002,"Ġspread":4003,"Ġsevent":4004,"useum":4005,"icks":4006,"ĠDuring":4007,"aph":4008,"tt":4009,"oring":4010,"acing":4011,"Am":4012,"Ġpun":4013,"Ġscared":4014,"First":4015,"Ġride":4016,"Ġagree":4017,"ques":4018,"ĠArmy":4019,"Ġfifty":4020,"ĠOK":4021,"ĠKore":4022,"ĠWhite":4023,"Ġru":4024,"Ġcenter":4025,"erved":4026,"iation":4027,"Ġstreng":4028,"Ġscene":4029,"Ġhol":4030,"Ġprice":4031,"ware":4032,"why":4033,"Ġlying":4034,"Ġlikely":4035,"atory":4036,"Ġsigned":4037,"Ġanimal":4038,"Ġraised":4039,"ournal":4040,"za":4041,"Ã¨":4042,"ĠMil":4043,"ĠBen":4044,"erc":4045,"Ġcoffee":4046,"urt":4047,"Ġcalling":4048,"Ġfirm":4049,"Ġestablished":4050,"den":4051,"ossible":4052,"Ġsettle":4053,"Con":4054,"Ġstorm":4055,"known":4056,"Sir":4057,"Ġworse":4058,"Ġharm":4059,"ĠDan":4060,"Ġcondu":4061,"Ġplus":4062,"ĠCharles":4063,"chan":4064,"Ġmommy":4065,"Ġcorner":4066,"Ġhun":4067,"Ġneck":4068,"ĠFranc":4069,"arn":4070,"Ġnor":4071,"peror":4072,"utch":4073,"oday":4074,"oves":4075,"Ġfamilies":4076,"ĠON":4077,"ĠRoad":4078,"Ġimmediately":4079,"Ġpsych":4080,"Ġfaith":4081,"iar":4082,"Ġsinger":4083,"Ġinvestig":4084,"Se":4085,"ĠBay":4086,"Ġjoin":4087,"Ġsquare":4088,"Ġbusy":4089,"Ġhonest":4090,"Ġcampaign":4091,"uments":4092,"Ġcareful":4093,"ket":4094,"ĠPrince":4095,"had":4096,"Ġcontinue":4097,"Ġnetwork":4098,"ĠCourt":4099,"ĠTexas":4100,"yer":4101,"Ġoffe":4102,"Ġsuit":4103,"Ġlovely":4104,"Ġbright":4105,"History":4106,"Ġcomfort":4107,"Ġsnow":4108,"Ġloss":4109,"orses":4110,"ĠSun":4111,"Ġcancer":4112,"ĠOld":4113,"Ġsett":4114,"Ġfourth":4115,"initely":4116,"Ġnecessary":4117,"IR":4118,"Ġmessage":4119,"Ġdouble":4120,"Ġmostly":4121,"Ġbes":4122,"Ġlog":4123,"Ġdistribut":4124,"Äģ":4125,"Ġlif":4126,"ota":4127,"ols":4128,"oms":4129,"Ġvac":4130,"Ġsuccessful":4131,"ental":4132,"ulf":4133,"Ġnobody":4134,"ictor":4135,"Ġbirthday":4136,"ERE":4137,"Ġrule":4138,"Ġspecific":4139,"Ġbath":4140,"izing":4141,"Ġtall":4142,"Ġrules":4143,"ĠST":4144,"Ġcab":4145,"olk":4146,"Ġaged":4147,"Ġpractice":4148,"BC":4149,"Ġtheory":4150,"Ġren":4151,"Ġbelieved":4152,"Ġpurpose":4153,"Dad":4154,"Ġspeed":4155,"mon":4156,"Ġcities":4157,"Ġrank":4158,"Ġspoke":4159,"Ġaddress":4160,"ona":4161,"gen":4162,"Ġdiscovered":4163,"Ġfault":4164,"rupt":4165,"craft":4166,"Ġforces":4167,"Ġbirds":4168,"Ġarrived":4169,"Che":4170,"Ġachie":4171,"iot":4172,"Ġcustom":4173,"icket":4174,"Ġpieces":4175,"Ġintell":4176,"ĠGreen":4177,"Ġoil":4178,"Ġaffect":4179,"ĠAND":4180,"Ġkick":4181,"Ġthroughout":4182,"ga":4183,"ĠBE":4184,"Ġshown":4185,"ĠScott":4186,"kin":4187,"itation":4188,"Ġdry":4189,"Ġpage":4190,"ruit":4191,"ĠKingdom":4192,"Ġmountain":4193,"Ġreb":4194,"ĠBrown":4195,"Ġemer":4196,"Ġterrible":4197,"ademy":4198,"ĠRoyal":4199,"Ġdisease":4200,"IM":4201,"Ġcode":4202,"icro":4203,"ights":4204,"Ġissue":4205,"icago":4206,"Ġtherefore":4207,"Ġformula":4208,"ola":4209,"Ġpressure":4210,"aching":4211,"Ġ2001":4212,"ancing":4213,"Ġcontact":4214,"Ġpolicy":4215,"LD":4216,"Ġplayers":4217,"Ġgoal":4218,"Ġreading":4219,"Ġmilk":4220,"ients":4221,"arling":4222,"ĠĠĠĠĠĠ":4223,"Only":4224,"ita":4225,"ĠArt":4226,"Ġimagine":4227,"semb":4228,"Ġideas":4229,"km":4230,"ĠSmith":4231,"yond":4232,"Ġincludes":4233,"Ġwit":4234,"ĠSat":4235,"Ġobviously":4236,"Ġcow":4237,"Ġspeaking":4238,"ederal":4239,"iant":4240,"itar":4241,"Ġmedic":4242,"Ġstaff":4243,"ĠSecret":4244,"Ġangry":4245,"Ġmachine":4246,"40":4247,"etic":4248,"Ġ2022":4249,"Ġenemy":4250,"inois":4251,"Ġir":4252,"Ġstone":4253,"Ġclim":4254,"Ġslight":4255,"Ġmum":4256,"rig":4257,"Ġfemale":4258,"Ġyellow":4259,"yl":4260,"Ġcamer":4261,"Ġhall":4262,"Ġrange":4263,"Ġleaves":4264,"fast":4265,"Ġspot":4266,"arp":4267,"Ġtells":4268,"Ġteams":4269,"Ġpred":4270,"Ġnone":4271,"ala":4272,"vere":4273,"Ġ2003":4274,"Ġ..":4275,"UN":4276,"Ġolder":4277,"lected":4278,"rial":4279,"illa":4280,"Ġsac":4281,"oma":4282,"ĠArab":4283,"Ġ1980":4284,"Ġgradu":4285,"Ġattract":4286,"Ġaccording":4287,"ĠLouis":4288,"isions":4289,"ĠSim":4290,"oses":4291,"hand":4292,"Ġcovered":4293,"Ġmor":4294,"Ġbell":4295,"Ġfighting":4296,"lam":4297,"Ġrepe":4298,"Ġcurrently":4299,"Ġdescribed":4300,"UR":4301,"Ġtro":4302,"aled":4303,"Ġeating":4304,"Ġrisk":4305,"Ġletters":4306,"ĠSpanish":4307,"uten":4308,"Ġentered":4309,"Ġliked":4310,"Ġcoun":4311,"WE":4312,"ĠCath":4313,"ĠWil":4314,"ĠMa":4315,"Ġknowledge":4316,"Ġfeed":4317,"Ġopin":4318,"Ġstudent":4319,"Ġwa":4320,"Ġcompl":4321,"Ġreview":4322,"ĠRussian":4323,"Ġsignific":4324,"would":4325,"Ġpet":4326,"Ġtwice":4327,"Ġsurface":4328,"ĠScot":4329,"ĠEr":4330,"Ġpositive":4331,"ores":4332,"pping":4333,"Ġwelcome":4334,"Ġut":4335,"Ġforty":4336,"Ġextreme":4337,"vert":4338,"Ġdegree":4339,"ĠFlorida":4340,"va":4341,"iverse":4342,"Ġge":4343,"isted":4344,"ours":4345,"Ġplaced":4346,"Ġvote":4347,"igned":4348,"Ġcaptain":4349,"Ġought":4350,"Ġspl":4351,"Ġskin":4352,"Ġlots":4353,"enth":4354,"oop":4355,"Ġprovince":4356,"Ġcrow":4357,"Ġhighest":4358,"ĠSing":4359,"Ġprint":4360,"aving":4361,"annel":4362,"rees":4363,"Ġholding":4364,"adian":4365,"ĠCarol":4366,"Ġdangerous":4367,"nie":4368,"Ġrelease":4369,"Ġsurr":4370,"Ġ00":4371,"itz":4372,"lor":4373,"Ġnewsp":4374,"mark":4375,"itiz":4376,"ube":4377,"IGH":4378,"Ġparticip":4379,"arly":4380,"Ġ2002":4381,"NA":4382,"Ġacqu":4383,"ms":4384,"rol":4385,"Ġbeyond":4386,"Ġdirection":4387,"ĠCentral":4388,"enny":4389,"iety":4390,"Ġcompetition":4391,"ĠRobert":4392,"ĠRichard":4393,"Ġgar":4394,"Ġelectric":4395,"alled":4396,"ĠCharl":4397,"pir":4398,"artment":4399,"AK":4400,"En":4401,"Ġess":4402,"Ġfresh":4403,"ĠJesus":4404,"Ġcentral":4405,"Ġopening":4406,"Ġrecorded":4407,"ĠDel":4408,"Ġlink":4409,"Ġsmell":4410,"Ġoccup":4411,"onel":4412,"Ġhey":4413,"ĠSar":4414,"ĠGold":4415,"astern":4416,"Ġsystems":4417,"road":4418,"Ġkit":4419,"Ġuses":4420,"Ġ187":4421,"Gu":4422,"ĠEmp":4423,"Ġcalls":4424,"Ġdebut":4425,"Ad":4426,"Ġuncle":4427,"Ġpromot":4428,"ĠMont":4429,"because":4430,"ĠCongress":4431,"stitute":4432,"Ġconvers":4433,"odes":4434,"Ġwalking":4435,"Ġconstit":4436,"ĠProvince":4437,"phone":4438,"Ġcondition":4439,"Ġwriter":4440,"Ġcommun":4441,"ĠBoy":4442,"Ġ1970":4443,"vell":4444,"Ġindividual":4445,"ĠIllinois":4446,"gypt":4447,"Ġcru":4448,"umber":4449,"eless":4450,"ALL":4451,"Ġchall":4452,"Ġhasn":4453,"Could":4454,"Ġhide":4455,"Ġabsolutely":4456,"Ġsecurity":4457,"Ġtar":4458,"Ġassoci":4459,"ĠHill":4460,"Ġbridge":4461,"ĠSuper":4462,"Ġgarden":4463,"ĠDes":4464,"osh":4465,"ram":4466,"199":4467,"Ġnomin":4468,"ste":4469,"Ġtaught":4470,"Ġsle":4471,"Ġbrothers":4472,"Ġdropped":4473,"ĠÃ":4474,"Ġble":4475,"estival":4476,"Ġtwelve":4477,"oom":4478,"Ġtail":4479,"iance":4480,"ĠIr":4481,"Ġweight":4482,"Ġcars":4483,"ĠLat":4484,"Ġuniversity":4485,"Ġemot":4486,"Ġthus":4487,"ĠMany":4488,"anta":4489,"Hel":4490,"Ġchoose":4491,"iano":4492,"Ġqual":4493,"Ġunc":4494,"Ġexpected":4495,"otten":4496,"Ġremain":4497,"LA":4498,"mar":4499,"Ġmissing":4500,"Ġload":4501,"Ġdesp":4502,"ĠChicago":4503,"Ġhorses":4504,"Ġsmaller":4505,"Amer":4506,"Ġaddition":4507,"Ġder":4508,"25":4509,"Ġmedia":4510,"Alright":4511,"ĠAfrican":4512,"ĠAssociation":4513,"Ġdesigned":4514,"Ġwedding":4515,"Ġye":4516,"Ġreve":4517,"Ġspell":4518,"ĠThomas":4519,"ĠPeople":4520,"Ġescape":4521,"anned":4522,"Ġintern":4523,"ashion":4524,"idden":4525,"Since":4526,"ĠBob":4527,"ĠFin":4528,"down":4529,"ĠJer":4530,"Ġphil":4531,"Ġbread":4532,"ĠCa":4533,"Ġweak":4534,"Ġ31":4535,"Ġremained":4536,"Le":4537,"Ġcrime":4538,"Ġeasily":4539,"Ġperformance":4540,"Ġwalked":4541,"Bye":4542,"Ġcoach":4543,"Ġmission":4544,"ĠDay":4545,"Ġlegs":4546,"anda":4547,"Ġpaint":4548,"ĠChief":4549,"Ġboss":4550,"Ġchick":4551,"istry":4552,"Ġsky":4553,"Î¿":4554,"utive":4555,"Ġcentre":4556,"Ġprovide":4557,"Ġgrowing":4558,"Wow":4559,"Ġnotice":4560,"Ġdollars":4561,"Ġappointed":4562,"80":4563,"when":4564,"ĠDiv":4565,"ĠRail":4566,"Ġmedical":4567,"Put":4568,"Ġforced":4569,"Ġnose":4570,"have":4571,"Ġremark":4572,"Ġswim":4573,"fessor":4574,"Ġcompanies":4575,"Ġleading":4576,"ĠOx":4577,"Ġ1960":4578,"Ġyouth":4579,"Ġmistake":4580,"Ġinvent":4581,"icles":4582,"abor":4583,"Ġanywhere":4584,"ĠChristmas":4585,"ĠBur":4586,"roat":4587,"Ġships":4588,"good":4589,"Ġeventually":4590,"Ġlarger":4591,"Ġpossess":4592,"ĠGreek":4593,"Ġforms":4594,"Ġcritic":4595,"Ġbound":4596,"ĠWestern":4597,"Ġtruck":4598,"New":4599,"azine":4600,"Ġcommunic":4601,"Ġfrequ":4602,"from":4603,"Ġox":4604,"stairs":4605,"Ġdisp":4606,"ĠGovernment":4607,"Ġwinter":4608,"Ġfocus":4609,"ĠMet":4610,"Ġspring":4611,"Ġbigger":4612,"Ġmir":4613,"Ġpoet":4614,"uit":4615,"Ġsides":4616,"then":4617,"Ġreported":4618,"Ġstudied":4619,"Those":4620,"Ġhouses":4621,"host":4622,"tained":4623,"Ġancient":4624,"Ġgenerally":4625,"ĠMost":4626,"Ġindustry":4627,"Ġbiggest":4628,"Ġdefend":4629,"ĠRec":4630,"ĠFirst":4631,"pty":4632,"ĠâĢĶ":4633,"Ġopt":4634,"Ġproperty":4635,"Ġissues":4636,"Fuck":4637,"isl":4638,"Ġstrength":4639,"Ġchap":4640,"VER":4641,"ĠSund":4642,"ĠJoe":4643,"Ġrelated":4644,"Ġincrease":4645,"ĠTown":4646,"Ġsoldiers":4647,"asty":4648,"Ġbasket":4649,"Ġbloody":4650,"Everything":4651,"upp":4652,"Ġmoon":4653,"Ġopportunity":4654,"zen":4655,"Ġrom":4656,"aug":4657,"Ġtrip":4658,"aniel":4659,"ION":4660,"Ġpowerful":4661,"ĠBill":4662,"Ġteach":4663,"Ġactress":4664,"Ġterrit":4665,"ulations":4666,"isters":4667,"Ġpush":4668,"ighs":4669,"Ġparticularly":4670,"Ġflat":4671,"Ġtypes":4672,"Ooh":4673,"60":4674,"Ġsen":4675,"Ġrose":4676,"asant":4677,"Ġvan":4678,"Keep":4679,"Ġsch":4680,"Ġnorthern":4681,"agn":4682,"Ġcanton":4683,"Never":4684,"ros":4685,"ĠMat":4686,"Ġruns":4687,"Ġhonor":4688,"Got":4689,"icated":4690,"ette":4691,"Ġprote":4692,"zy":4693,"istan":4694,"Ġoriginally":4695,"ĠSand":4696,"igg":4697,"utenant":4698,"itan":4699,"ĠCarl":4700,"Ġkinds":4701,"ĠAcademy":4702,"icans":4703,"Ġunless":4704,"Ġmemory":4705,"Ġleaders":4706,"ĠSpain":4707,"Ġdivided":4708,"Ġcomplet":4709,"Act":4710,"Ġmentioned":4711,"gn":4712,"Ġcorrect":4713,"Ġagreed":4714,"arry":4715,"Ġwine":4716,"Ġnation":4717,"aging":4718,"Ġcandid":4719,"Ġfrog":4720,"lection":4721,"ĠLee":4722,"ĠJul":4723,"ĠEgypt":4724,"mes":4725,"isco":4726,"Ġplans":4727,"cket":4728,"Ġblock":4729,"Ġprec":4730,"ootball":4731,"IF":4732,"Ġbeg":4733,"Ġnote":4734,"Ġsource":4735,"Ġplants":4736,"ĠCanadian":4737,"Ġrough":4738,"ĠGovernor":4739,"Ġworried":4740,"cks":4741,"Ġstudio":4742,"Ġheat":4743,"Ġsaved":4744,"ĠVictor":4745,"rough":4746,"----":4747,"Ġiron":4748,"bered":4749,"Ġproud":4750,"ocol":4751,"Ġfeatures":4752,"Ġquarter":4753,"Ġsatis":4754,"ĠIS":4755,"ĠServ":4756,"ĠApp":4757,"Ġprevious":4758,"Pr":4759,"ĠMer":4760,"Ġbecoming":4761,"arrow":4762,"cend":4763,"Ġsection":4764,"Ġenter":4765,"ĠLos":4766,"Ġartist":4767,"Ġwearing":4768,"Ġstre":4769,"Ġshape":4770,"Ġbecomes":4771,"ĠHere":4772,"Ġreplaced":4773,"ĠCom":4774,"ĠCle":4775,"Ġplat":4776,"Ġpan":4777,"vey":4778,"ĠSecretary":4779,"Ġscreen":4780,"Ġcharacters":4781,"Ġforth":4782,"Ġgreater":4783,"Ġdriving":4784,"Ġarchite":4785,"Ġthinks":4786,"oned":4787,"ĠPac":4788,"Ġaware":4789,"Ġsouthern":4790,"Ġconditions":4791,"ĠBu":4792,"Ġimpossible":4793,"Ġamb":4794,"Ġspeech":4795,"Ġpictures":4796,"law":4797,"ctors":4798,"ulous":4799,"Ġcommer":4800,"Ġexam":4801,"EL":4802,"Ġmut":4803,"Ġacting":4804,"ancial":4805,"ĠWal":4806,"istics":4807,"Ġreligious":4808,"Ġappl":4809,"ishop":4810,"Ġresults":4811,"Ġsuspect":4812,"Great":4813,"change":4814,"unn":4815,"odies":4816,"Ġbehav":4817,"Ġforgot":4818,"Ġ1999":4819,"imately":4820,"agon":4821,"Ġguard":4822,"Ġdamn":4823,"ipe":4824,"mit":4825,"Ġprince":4826,"Ġforeign":4827,"Ġjudge":4828,"Ġeggs":4829,"Ġtransl":4830,"ĠMass":4831,"Ġbrown":4832,"rael":4833,"Ġteeth":4834,"Ġculture":4835,"Ind":4836,"gent":4837,"heast":4838,"Ġrub":4839,"Ġstandard":4840,"Ġya":4841,"Ġpicked":4842,"Ġinfluence":4843,"Ġcitiz":4844,"aded":4845,"Ġretired":4846,"oz":4847,"oken":4848,"cies":4849,"imin":4850,"Ġtele":4851,"Ġbasically":4852,"Ġappre":4853,"ealand":4854,"ato":4855,"Ġlaid":4856,"Ġlunch":4857,"YOU":4858,"yan":4859,"ĠMel":4860,"Ġtotally":4861,"Ġzer":4862,"Ġstream":4863,"Ġhotel":4864,",--":4865,"Ph":4866,"Ġbrand":4867,"Ġflowers":4868,"Rem":4869,"ening":4870,"Ġproduce":4871,"ĠBritain":4872,"isse":4873,"Ġcrew":4874,"Ġrap":4875,"Ġstructure":4876,"Ġwee":4877,"Ġgrown":4878,"Ġgreatest":4879,"Ġcomplex":4880,"ĠMexico":4881,"Three":4882,"while":4883,"Ġlegal":4884,"Ġpound":4885,"Ġmanager":4886,"Ġcompos":4887,"Huh":4888,"Te":4889,"Ġ1992":4890,"ĠAustralian":4891,"ĠDepartment":4892,"ses":4893,"ĠAtl":4894,"Ġlucky":4895,"Ġkitchen":4896,"Ġcrowd":4897,"Ġpig":4898,"Ġstarts":4899,"Ġkilling":4900,"ĠCatholic":4901,"Ġresour":4902,"Ġperformed":4903,"Ġmm":4904,"Ġfinger":4905,"aval":4906,"rated":4907,"Ġlawyer":4908,"stood":4909,"Ġfailed":4910,"bre":4911,"ado":4912,"Ġserve":4913,"ĠDoctor":4914,"Ġsymb":4915,"Ġlack":4916,"ĠCont":4917,"anged":4918,"Ġinstr":4919,"Ġreplied":4920,"aches":4921,"Ġplanet":4922,"Hold":4923,"lo":4924,"Ġah":4925,"iring":4926,"During":4927,"Ġthou":4928,"Ġsail":4929,"Ġattend":4930,"Ġbrief":4931,"Tom":4932,"Ġblind":4933,"ĠFather":4934,"clock":4935,"Ġhandle":4936,"24":4937,"Ġprevent":4938,"ima":4939,"Ġcouncil":4940,"Ġrealize":4941,"Ġnegative":4942,"Ġdocument":4943,"da":4944,"Ġfilled":4945,"Ġtarget":4946,"Ġsuc":4947,"Miss":4948,"ĠIran":4949,"Ġshout":4950,"Ġbuildings":4951,"Ġconcerned":4952,"ourney":4953,"ĠFore":4954,"Ġactive":4955,"rat":4956,"Ġadult":4957,"Ġflight":4958,"Ġpleasure":4959,"ĠBest":4960,"Ġourselves":4961,"ishes":4962,"urance":4963,"Ġlies":4964,"ĠRad":4965,"gged":4966,"ĠZealand":4967,"bur":4968,"Ġonto":4969,"urday":4970,"onds":4971,"Ġteaching":4972,"ĠCompany":4973,"Ġmale":4974,"ucky":4975,"osen":4976,"ĠFred":4977,"Ġmainly":4978,"fortun":4979,"will":4980,"ĠHi":4981,"Ġamazing":4982,"ali":4983,"ĠWH":4984,"ĠLittle":4985,"aked":4986,"Ġ185":4987,"Ġma":4988,"Ġmechan":4989,"ouri":4990,"ĠCH":4991,"ĠCons":4992,"Ġtransfer":4993,"ĠDutch":4994,"umn":4995,"ĠDemocratic":4996,"Ġopinion":4997,"enge":4998,"Ġhurry":4999,"orough":5000,"Ġwaste":5001,"Ġexcl":5002,"Ġdefinitely":5003,"hered":5004,"anted":5005,"ĠTHAT":5006,"Ġdirectly":5007,"Ġslowly":5008,"Ġbal":5009,"Ġsurprise":5010,"ĠAngeles":5011,"Ġoffered":5012,"book":5013,"Ġhill":5014,"ĠSea":5015,"Ġplane":5016,"aren":5017,"Ġadop":5018,"Ġsucceed":5019,"Ġmere":5020,"ĠPrime":5021,"Ġtechnology":5022,"Ġrare":5023,"'.":5024,"Ġdrunk":5025,"Ġlistening":5026,"EC":5027,"uan":5028,"Ġorganization":5029,"Ġninet":5030,"Ġhole":5031,"esar":5032,"ili":5033,"ception":5034,"him":5035,"Ġfright":5036,"ĠGirl":5037,"igan":5038,"ios":5039,"Ġdecide":5040,"sm":5041,"Ġstock":5042,"Ġinterview":5043,"Ġtransport":5044,"Ġjournal":5045,"Ġseparate":5046,"Cos":5047,"rate":5048,"rences":5049,"Lea":5050,"comm":5051,"Ġweather":5052,"Ġdemon":5053,"Ġmagn":5054,"Ġsmile":5055,"Say":5056,"ĠMom":5057,"ĠTwo":5058,"Ġprepared":5059,"ĠHol":5060,"ĠPenn":5061,"esty":5062,"ĠJoseph":5063,"ĠHaw":5064,"ĠOther":5065,"ker":5066,"Ġstrugg":5067,"Ġcalm":5068,"Ġseconds":5069,"Ġepisode":5070,"23":5071,"Ġca":5072,"Ġremind":5073,"ĠPrincess":5074,"ĠOxford":5075,"ournament":5076,"ano":5077,"ĠMur":5078,"ĠHel":5079,"aret":5080,"ucle":5081,"Ġlikes":5082,"Ġcontribut":5083,"ulty":5084,"ĠJud":5085,"Ġgrass":5086,"Ġleague":5087,"Ġbreath":5088,"ĠCast":5089,"Ġresponsible":5090,"Ġindependent":5091,"Ġfavour":5092,"uries":5093,"Ġreasons":5094,"ĠBell":5095,"abb":5096,"resp":5097,"Ġminus":5098,"197":5099,"uzz":5100,"Ġwitness":5101,"Ġweird":5102,"Ġunit":5103,"Ġofficers":5104,"ĠIre":5105,"alys":5106,"urry":5107,"asy":5108,"ardon":5109,"ENT":5110,"Ġtape":5111,"Ġexperien":5112,"OD":5113,"ĠDou":5114,"Ġcontr":5115,"Ġsmart":5116,"Mom":5117,"Ġduty":5118,"olar":5119,"Ġcontent":5120,"Ġbomb":5121,"ĠMike":5122,"Ġadvant":5123,"Ġcopy":5124,"Ġintroduced":5125,"Ġempty":5126,"Ġpatient":5127,"Ġwilling":5128,"Something":5129,"Ġroof":5130,"Ġlearning":5131,"Other":5132,"ĠDire":5133,"rs":5134,"Ġpair":5135,"ockey":5136,"ĠEmpire":5137,"WH":5138,"ĠTor":5139,"vis":5140,"Ġturning":5141,"Ġorders":5142,"pre":5143,"iger":5144,"Ġfreed":5145,"LY":5146,"adow":5147,"Ġ1998":5148,"Ġrecords":5149,"Ġrecently":5150,"Ġnative":5151,"Ġordered":5152,"inter":5153,"Ġheaven":5154,"kins":5155,"Ġ1994":5156,"Ġhungry":5157,"Ġshoes":5158,"orial":5159,"enced":5160,"ĠCat":5161,"ĠPan":5162,"ĠStud":5163,"27":5164,"Ġign":5165,"isher":5166,"ĠHon":5167,"ĠME":5168,"osop":5169,"Ġprove":5170,"Ġcontains":5171,"ĠSov":5172,"Ġturns":5173,"Ġ1996":5174,"Ġneighbor":5175,"iously":5176,"Ġdestroyed":5177,"lim":5178,"Ġmagic":5179,"Ġcircum":5180,"Ġban":5181,"ashed":5182,"ĠTheir":5183,"arently":5184,"Ġtal":5185,"Ġstuck":5186,"ĠSoviet":5187,"Ġmeasure":5188,"oking":5189,"Ġchemical":5190,"ĠEll":5191,"may":5192,"imum":5193,"Ġjobs":5194,"Ġzero":5195,"Ġunits":5196,"Isn":5197,"Ġhardly":5198,"ja":5199,"Ġjoy":5200,"ĠClub":5201,"ĠGeorg":5202,"Ġloud":5203,"ĠGet":5204,"ĠFer":5205,"Ġmissed":5206,"Ġconstruction":5207,"Ġdogs":5208,"Ġbitch":5209,"ĠHy":5210,"ĠRussia":5211,"ĠClass":5212,"ĠGroup":5213,"Tw":5214,"ji":5215,"arian":5216,"Ġ1995":5217,"atre":5218,"ĠDO":5219,"ĠDid":5220,"leg":5221,"ĠLake":5222,"Ha":5223,"pic":5224,"ooper":5225,"ĠTri":5226,"Ġapplic":5227,"Ġphysical":5228,"Ġmusical":5229,"abad":5230,"Ġedge":5231,"Ġmeas":5232,"Ġmetal":5233,"ĠTrans":5234,"Ġsake":5235,"Ġtoward":5236,"ĠSqu":5237,"Ġprem":5238,"sembly":5239,"ropical":5240,"Ġpartner":5241,"ĠIsrael":5242,"ault":5243,"ĠParliament":5244,"About":5245,"Ġcamera":5246,"ĠKent":5247,"imp":5248,"Ġalt":5249,"Ġclearly":5250,"Ġsurprised":5251,"Ġprovided":5252,"Ġtraditional":5253,"Ġbudget":5254,"ĠAng":5255,"ĠUK":5256,"azz":5257,"fied":5258,"Ġwestern":5259,"Ġmeat":5260,"ĠYoung":5261,"Ġheads":5262,"Ġeasier":5263,"Ġdetect":5264,"heart":5265,"Ġreality":5266,"your":5267,"Ġeconomic":5268,"father":5269,"elcome":5270,"urious":5271,"Mhm":5272,"ĠMajor":5273,"Ġjack":5274,"Ġsinging":5275,"Ġstatement":5276,"Ġtrial":5277,"Ġwinning":5278,"Ġbeauty":5279,"Ġhyd":5280,"ĠSwed":5281,"Ġ2021":5282,"uman":5283,"Ġfinancial":5284,"cts":5285,"ĠCenter":5286,"Nice":5287,"och":5288,"Ġbreakfast":5289,"ĠBet":5290,"Ġkeeping":5291,"Ġinhab":5292,"Ġquality":5293,"Ġminor":5294,"Ġrestaur":5295,"boy":5296,"ingu":5297,"ANT":5298,"Ġsilver":5299,"Ġencour":5300,"Ġmanaged":5301,"Ġactual":5302,"Ġpromised":5303,"orter":5304,"Ġlic":5305,"ĠFootball":5306,"Ġmanu":5307,"col":5308,"rid":5309,"ĠWood":5310,"21":5311,"Ġsaf":5312,"Ġfigures":5313,"Ġfavorite":5314,"bury":5315,"uous":5316,"Ġcash":5317,"Ġfashion":5318,"Ġtight":5319,"osite":5320,"Ġrelative":5321,"Ġreligion":5322,"Ġladies":5323,"Perhaps":5324,"ĠSunday":5325,"Ġfought":5326,"ĠRock":5327,"idding":5328,"some":5329,"Ġthick":5330,"Ġworst":5331,"Ġinstit":5332,"Most":5333,"Ġneither":5334,"Ġpossibly":5335,"Ġscore":5336,"ĠTw":5337,"Ġaltern":5338,"Ġfixed":5339,"Ġdrag":5340,"Ġtemperature":5341,"ĠScotland":5342,"Â¶":5343,"Ġdare":5344,"ushing":5345,"iana":5346,"Ġ1997":5347,"Ġthrew":5348,"ching":5349,"Ġremains":5350,"Ġeld":5351,"Ok":5352,"ua":5353,"water":5354,"Ġfruit":5355,"ĠSince":5356,"Ġforever":5357,"Ġgentlemen":5358,"American":5359,"ĠSil":5360,"ĠWE":5361,"Ġjourney":5362,"icked":5363,"Ġfinding":5364,"Ġstayed":5365,"lig":5366,"ĠLuc":5367,"Ġ60":5368,"Ġvari":5369,"Before":5370,"wing":5371,"Ġflying":5372,"amil":5373,"ĠDor":5374,"abeth":5375,"Ġsports":5376,"Ġappears":5377,"Ġbother":5378,"Ġpattern":5379,"Ġetc":5380,"Ġawarded":5381,"Ġlaws":5382,"Ġlanguages":5383,"Help":5384,"mi":5385,"Ġpil":5386,"Ġlibr":5387,"place":5388,"IGHT":5389,"App":5390,"Bet":5391,"ĠBecause":5392,"utions":5393,"Ġju":5394,"Ġcomment":5395,"Ġprefer":5396,"Ġhearing":5397,"Ġsleeping":5398,"ĠIreland":5399,"ĠAh":5400,"Ġevil":5401,"Ġoperation":5402,"ĠBig":5403,"stitution":5404,"ipped":5405,"ache":5406,"unny":5407,"ĠStep":5408,"Ġends":5409,"Ġrequest":5410,"Ġcrack":5411,"Ġplanning":5412,"Ġrat":5413,"Ġbutter":5414,"Ġworkers":5415,"Ġappreci":5416,"Ġbab":5417,"vania":5418,"ĠDivision":5419,"Ġmanufact":5420,"Ġstudies":5421,"Ġdreams":5422,"iques":5423,"ĠDar":5424,"Ġscream":5425,"Once":5426,"Ġautom":5427,"Ġcontroll":5428,"Ġloves":5429,"keep":5430,"ĠInstitute":5431,"ĠVal":5432,"Ġlocation":5433,"Sm":5434,"Ã¤":5435,"Ġborder":5436,"Ġsteal":5437,"anche":5438,"Ġcompleted":5439,"ogether":5440,"Ġbless":5441,"ĠWhile":5442,"Ġrepresented":5443,"Ġpit":5444,"ummy":5445,"Ġassum":5446,"Ġwalls":5447,"à¤":5448,"Ġwhis":5449,"Ġcomplic":5450,"Ġremem":5451,"Ġowned":5452,"Ġconsum":5453,"gel":5454,"OME":5455,"Ġtaste":5456,"Ġlock":5457,"Ġyounger":5458,"Ġtroops":5459,"Ġtask":5460,"oving":5461,"razil":5462,"onse":5463,"ias":5464,"uals":5465,"Ġ(;":5466,"ampion":5467,"Ġsilly":5468,"ĠOk":5469,"Ġspr":5470,"Ġelement":5471,"Ġfeels":5472,"Ġswear":5473,"Ġveh":5474,"Ġraise":5475,"cles":5476,"Ġdrugs":5477,"aning":5478,"ĠPak":5479,"Ġprogress":5480,"Ġdivision":5481,"ĠMah":5482,"Ġsmoke":5483,"Ġhumans":5484,"Ġdom":5485,"198":5486,"lement":5487,"ĠSpe":5488,"ĠJane":5489,"ondisse":5490,"Ġflow":5491,"ĠAmericans":5492,"Ġprograms":5493,"Ġprofessor":5494,"wan":5495,"RI":5496,"ĠDick":5497,"ĠRome":5498,"Ġrequired":5499,"\"?":5500,"Ġcart":5501,"ingers":5502,"ira":5503,"ĠRay":5504,"apes":5505,"Ġpapers":5506,"Ġasleep":5507,"ĠSociety":5508,"ties":5509,"Ġusual":5510,"Ġappearance":5511,"Ġmel":5512,"Ġburied":5513,"Ġdying":5514,"venue":5515,"Ġscrew":5516,"Ġtreatment":5517,"Ġfal":5518,"Ġdrew":5519,"kend":5520,"Ġexpress":5521,"29":5522,"Ġtim":5523,"cellent":5524,"Ġeffort":5525,"zz":5526,"Ġlosing":5527,"elly":5528,"icted":5529,"ĠMartin":5530,"Over":5531,"Ġ1993":5532,"Ġmotor":5533,"Ġpoll":5534,"ĠSaint":5535,"Ġmagazine":5536,"Ġthousands":5537,"Ġchart":5538,"ĠSaturday":5539,"Ġresident":5540,"syl":5541,"Ġguns":5542,"ĠEmperor":5543,"ĠNorthern":5544,"Another":5545,"28":5546,"alm":5547,"about":5548,"ublican":5549,"Ġtraffic":5550,"porary":5551,"han":5552,"Ġmicro":5553,"Ġgro":5554,"ĠFar":5555,"Actually":5556,"add":5557,"Ġconfl":5558,"Ġexhib":5559,"ĠSummer":5560,"Ġmultiple":5561,"Ġstreets":5562,"Ġsequ":5563,"duc":5564,"Ġears":5565,"ĠProfessor":5566,"ois":5567,"Ġdamage":5568,"Ġeconomy":5569,"Ġhadn":5570,"Ġapproach":5571,"Ġbodies":5572,"Ġpurs":5573,"ĠDen":5574,"Ġnoise":5575,"Shut":5576,"oices":5577,"GE":5578,"Many":5579,"stances":5580,"ĠWI":5581,"ĠOff":5582,"ĠRev":5583,"Ġoccasion":5584,"Ġast":5585,"Ġimage":5586,"alright":5587,"Ġnoticed":5588,"ĠTy":5589,"Ġadvance":5590,"Ġplain":5591,"Ġ1991":5592,"ĠCarolina":5593,"Ġconcent":5594,"ervation":5595,"Today":5596,"Ġcous":5597,"Ġawful":5598,"Make":5599,"Ġwake":5600,"Ġroy":5601,"Ġrequire":5602,"Ġrailway":5603,"Ġintellig":5604,"alysis":5605,"ĠWomen":5606,"Ġproducts":5607,"ella":5608,"Ġnumer":5609,"said":5610,"Ġmaid":5611,"Anyway":5612,"Damn":5613,"ais":5614,"worth":5615,"ĠStar":5616,"two":5617,"aming":5618,"ĠMore":5619,"sylvania":5620,"ĠBang":5621,"ila":5622,"ĠGO":5623,"oured":5624,"ura":5625,"Ġanx":5626,"har":5627,"ĠCamp":5628,"Ġshowing":5629,"Ag":5630,"ĠMaj":5631,"Ġgrowth":5632,"ĠDis":5633,"Ġexerc":5634,"Ġ--&":5635,"stead":5636,"ĠMother":5637,"Ġopposite":5638,"Ġpalace":5639,"Ġmedicine":5640,"mn":5641,"Ġbringing":5642,"Ġaccepted":5643,"Ġbroadcast":5644,"weet":5645,"ĠLook":5646,"Ġcastle":5647,"26":5648,"ador":5649,"stra":5650,"Ġmanner":5651,"aura":5652,"Ġsteps":5653,"war":5654,"essel":5655,"Ġstruck":5656,"kes":5657,"arge":5658,"cel":5659,"emic":5660,"Fine":5661,"rain":5662,"ĠLab":5663,"Ġfalling":5664,"Ġcrying":5665,"Ġgay":5666,"Ġagent":5667,"vention":5668,"Ġanti":5669,"Ġimprove":5670,"fall":5671,"Ġdelight":5672,"ĠLady":5673,"Ġfeelings":5674,"Ġkingdom":5675,"Ġentirely":5676,"rd":5677,"Ġcolon":5678,"Ġrise":5679,"coh":5680,"Ġrecent":5681,"Ġpretend":5682,"Ġfully":5683,"Ġdrinking":5684,"ĠSenate":5685,"bel":5686,"Ġpure":5687,"Ġhelping":5688,"Ġnewspaper":5689,"jo":5690,"Ġrow":5691,"Ġsupply":5692,"Ġreceive":5693,"While":5694,"uted":5695,"Ġadvice":5696,"ĠCommission":5697,"Ġded":5698,"Ġflu":5699,"Out":5700,"Ġeth":5701,"Ġocean":5702,"ĠLife":5703,"quar":5704,"Ġ1989":5705,"Ġmanagement":5706,"ĠMax":5707,"Ġexcuse":5708,"Ġpulled":5709,"RA":5710,"oir":5711,"ĠJackson":5712,"rick":5713,"Ġmate":5714,"amin":5715,"Ġability":5716,"Ġwheel":5717,"ĠColumb":5718,"ustration":5719,"Ġdirty":5720,"Ġgall":5721,"iform":5722,"Ġremoved":5723,"Ġauthority":5724,"Ġsafety":5725,"Ġspoken":5726,"Ġmajority":5727,"Ġconversation":5728,"Ġadvantage":5729,"icide":5730,"Ġwebs":5731,"obal":5732,"Mrs":5733,"Ġgift":5734,"ĠFilm":5735,"Ġ(,":5736,"vest":5737,"adium":5738,"Ġuseful":5739,"nam":5740,"eral":5741,"Ġwatched":5742,"Ġcredit":5743,"tering":5744,"ĠBa":5745,"Ġmotion":5746,"western":5747,"ĠRight":5748,"eman":5749,"Ġunion":5750,"Ġwet":5751,"amber":5752,"ĠFort":5753,"izabeth":5754,"Ġsignificant":5755,"eed":5756,"spect":5757,"...?":5758,"Ġeverywhere":5759,"ĠMusic":5760,"oles":5761,"Ġstrike":5762,"ĠPacific":5763,"Ġbeach":5764,"oos":5765,"Ġcoat":5766,"Ġbasic":5767,",,":5768,"ĠMill":5769,"ĠBrazil":5770,"Ġbillion":5771,"Hmm":5772,"uses":5773,"ĠSee":5774,"Ġroute":5775,"ĠPennsylvania":5776,"ĠSouthern":5777,"Ġconcept":5778,"ĠStan":5779,"Ġnineteen":5780,"vin":5781,"ouch":5782,"ati":5783,"urd":5784,"Ġprior":5785,"Remember":5786,"mus":5787,"ington":5788,"Ġrent":5789,"Didn":5790,"Ġcards":5791,"ĠLove":5792,"Ġprof":5793,"Ġagre":5794,"bey":5795,"Ġeh":5796,"oger":5797,"ĠUncle":5798,"Ġvictory":5799,"Ġtiny":5800,"rible":5801,"ĠMaster":5802,"unes":5803,"olks":5804,"Ġclimate":5805,"Ġearn":5806,"Ġ1950":5807,"Ġconnected":5808,"Ġmax":5809,"Ġdarling":5810,"Ġnucle":5811,"Sometimes":5812,"stein":5813,"Ġghost":5814,"Ġknock":5815,"ĠKe":5816,"ulture":5817,"Ġdrama":5818,"Everybody":5819,"Ġmo":5820,"Stay":5821,".]":5822,"hell":5823,"Ġafford":5824,"Ġaudience":5825,"Ġfired":5826,"achel":5827,"Ġscar":5828,"Ġpaying":5829,"Everyone":5830,"ĠMissouri":5831,"Ġdeclared":5832,"Ġmole":5833,"ĠEvery":5834,"Ġcloud":5835,"ĠLatin":5836,"Ġguitar":5837,"Ġpocket":5838,"Ġmatters":5839,"Ġexpression":5840,"Ġexpensive":5841,"Ġdivor":5842,"CK":5843,"Ġdiam":5844,"Ġscr":5845,"Ġemp":5846,"ora":5847,"Ġ80":5848,"Ġeffects":5849,"Ġbast":5850,"load":5851,"Ġstret":5852,"thank":5853,"Ġknowing":5854,"uckles":5855,"Ġresponse":5856,"Next":5857,"Ġodd":5858,"Ġchat":5859,"ĠKim":5860,"oston":5861,"onder":5862,"Ġadvent":5863,"Ġfifth":5864,"pa":5865,"Ġroles":5866,"Ġbelief":5867,"ieutenant":5868,"Cause":5869,"Ġpresence":5870,"EP":5871,"stone":5872,"ailed":5873,"ĠArch":5874,"Ġsplit":5875,"ĠBank":5876,"Ġscale":5877,"Ġelements":5878,"Ġcream":5879,"Ġarrange":5880,"una":5881,"Ġplatform":5882,".)":5883,"ba":5884,"iest":5885,"OS":5886,"Ġincreased":5887,"Call":5888,"ario":5889,"ĠIm":5890,"ĠMic":5891,"Ġlevels":5892,"Ġult":5893,"Ġresist":5894,"Ġproducer":5895,"Ġweekend":5896,"Ġcro":5897,"ports":5898,"ilty":5899,"ipl":5900,"Ġentertain":5901,"Su":5902,"ented":5903,"Ġkeeps":5904,"enger":5905,"Ġscri":5906,"erman":5907,"Ġindic":5908,"EM":5909,"cont":5910,"Ã¢":5911,"Ġdyn":5912,"Ġliber":5913,"Ġcapac":5914,"Ġshooting":5915,"ocolate":5916,"rative":5917,"onic":5918,"Ġuniverse":5919,"Ġflo":5920,"Ġthoughts":5921,"Ser":5922,"bow":5923,"orpor":5924,"Ġash":5925,"Ġsubs":5926,"ĠIslam":5927,"Ġextremely":5928,"rant":5929,"wa":5930,"real":5931,"Ġdelic":5932,"Ġ35":5933,"Ġarrested":5934,"Ge":5935,"Love":5936,"ĠHot":5937,"fection":5938,"Ġcarefully":5939,"Ġavoid":5940,"ĠJeff":5941,"Ġtong":5942,"ĠBern":5943,"ivity":5944,"Ġconnection":5945,"Ġslightly":5946,"Ġdim":5947,"geant":5948,"ordin":5949,"ĠInter":5950,"Ġphilosop":5951,"Ġpurch":5952,"Ġsees":5953,"Ġupset":5954,"Ġcerem":5955,"Ġapolog":5956,"Ġlimited":5957,"Leave":5958,"OP":5959,"ĠFox":5960,"Ġinvited":5961,"Ġhighly":5962,"ĠEdward":5963,"Ġgrave":5964,"More":5965,"era":5966,"Ġfro":5967,"lyn":5968,"Ġvessel":5969,"Nobody":5970,"Ġcircle":5971,"Je":5972,"Ġbat":5973,"Ġfant":5974,"ĠWAS":5975,"ĠJun":5976,"Ġsolution":5977,"Ġcosts":5978,"Ġdefeated":5979,"isa":5980,"elled":5981,"ĠValley":5982,"ĠPlay":5983,"Ġfaces":5984,"lying":5985,"ĠHello":5986,"Ġresc":5987,"Ġ1987":5988,"fficient":5989,"Ġbottle":5990,"aughed":5991,"iven":5992,"Ġthee":5993,"ĠFOR":5994,"Ġcomedy":5995,"Ġconflict":5996,"37":5997,"ca":5998,"Ġpiano":5999,"Ġtrick":6000,"Ġblank":6001,"ĠAsia":6002,"Ġexpand":6003,"ctic":6004,"Ġpra":6005,"Ġune":6006,"Ġmeters":6007,"Ġachieve":6008,"were":6009,"Ġflag":6010,"ĠRepublican":6011,"ĠWales":6012,"osa":6013,"Ġinhabit":6014,"ĠAccording":6015,"ĠVen":6016,"Ġminister":6017,"Ġmatches":6018,"Ġdressed":6019,"ĠHE":6020,"Ġ1988":6021,"ĠCommittee":6022,"Ġfailure":6023,"Ġinnoc":6024,"Ġprimary":6025,"thur":6026,"ĠOs":6027,"La":6028,"wide":6029,"Ġtough":6030,"ĠAss":6031,"ĠCam":6032,"22":6033,"Ġfingers":6034,"sell":6035,"Ġbranch":6036,"Ġmort":6037,"Ġlips":6038,"Ġchosen":6039,"Ġtravell":6040,"Ġgovernor":6041,"Ġpolitics":6042,"Ġcounter":6043,"vy":6044,"inet":6045,"Ġupper":6046,"Ġeastern":6047,"ulated":6048,"Ġcells":6049,"isp":6050,"Ġgate":6051,"Ġliqu":6052,"them":6053,"ĠLand":6054,"onday":6055,"Ġrecomm":6056,"yo":6057,"âĢİ":6058,"ruct":6059,"Ġchest":6060,"Ġcloser":6061,"Ġresources":6062,"ĠGe":6063,"Ġnotes":6064,"ĠWind":6065,"ĠAN":6066,"ishment":6067,"Think":6068,"Ġparties":6069,"Ġsettled":6070,"45":6071,"Ġtur":6072,"Ġsli":6073,"Ġthin":6074,"icy":6075,"ĠAwards":6076,"Ġdetails":6077,"Ġchicken":6078,"iminal":6079,"acle":6080,"ĠHA":6081,"Ġterror":6082,"Ġlabor":6083,"Ġcommercial":6084,"Ġwid":6085,"aron":6086,"cript":6087,"Ġweapons":6088,"ĠCaesar":6089,"Ġroyal":6090,"Ġrapid":6091,"hey":6092,"elling":6093,",'":6094,"after":6095,"Ġfurn":6096,"Ġsignal":6097,"Ġtournament":6098,"enes":6099,"ĠLike":6100,"inson":6101,"ĠPortug":6102,"\").":6103,"overy":6104,"Ġwave":6105,"Ġnerv":6106,"Ġquant":6107,"awa":6108,"Ġcarrying":6109,"ĠPre":6110,"ĠFe":6111,"Ġfields":6112,"Ġgentleman":6113,"Ġterritory":6114,"Early":6115,"Christ":6116,"El":6117,"Ġtick":6118,"Ġcollection":6119,"Ġfilms":6120,"Ġcitizens":6121,"Ġsugar":6122,"ĠForce":6123,"Ġestim":6124,"Ġattacked":6125,"Ġmurd":6126,"acher":6127,"olved":6128,"ĠFriday":6129,"Shit":6130,"Ġmaintain":6131,"Ġmap":6132,"Ġhomes":6133,"oln":6134,"Ġfederal":6135,"ĠPrize":6136,"onia":6137,"Ġlaughed":6138,"izes":6139,"Ġfifteen":6140,"alities":6141,"ĠLong":6142,"itors":6143,"Ġthy":6144,"Ġplanned":6145,"Ġsport":6146,"ildren":6147,"Ġflower":6148,"However":6149,"Ġsword":6150,"Whoa":6151,"MAN":6152,"ĠRom":6153,"Ġafterwards":6154,"Ġunderstood":6155,"Ġdesire":6156,"ĠDev":6157,"Ġlaughing":6158,"eding":6159,"Ġotherwise":6160,"Cap":6161,"Jack":6162,"Ġincome":6163,"Ġlights":6164,"NOW":6165,"pret":6166,"Ġstated":6167,"angers":6168,"Ġexcited":6169,"Ġforgive":6170,"Ġapartment":6171,"Ġargument":6172,"Ġalcoh":6173,"Ġdriver":6174,"Ġdistricts":6175,"wich":6176,"Ġsilence":6177,"aki":6178,"aimed":6179,"ĠIrish":6180,"Ġshore":6181,"Ġaband":6182,"Ġproceed":6183,"mother":6184,"Ġpreviously":6185,"bridge":6186,"Ġpainting":6187,"ĠĠĠĠĠĠĠĠĠĠĠĠĠĠĠĠĠĠĠĠĠĠĠĠĠĠĠĠĠĠĠĠ":6188,"mond":6189,"Ġfan":6190,"uls":6191,"andy":6192,"Ġjail":6193,"Ġcalcul":6194,"Ġmixed":6195,"ulate":6196,"acks":6197,"Ġweapon":6198,"Ġfreedom":6199,"Ġmob":6200,"Ġinstance":6201,"Ġ1986":6202,"Ġactivities":6203,"OL":6204,"Ġsharp":6205,"Ġbye":6206,"ĠStr":6207,"Ġartists":6208,".[":6209,"erk":6210,"ĠBudd":6211,"Ġcolour":6212,"Ġbare":6213,"Ġpleased":6214,"Ġkidding":6215,"unched":6216,"achus":6217,"Ġcauses":6218,"Ġfairly":6219,"CE":6220,"Ed":6221,"Ġfaster":6222,"owed":6223,"Ġoldest":6224,"ĠAlan":6225,"Ġbasis":6226,"ĠHarr":6227,"ĠLater":6228,"Ġjoke":6229,"car":6230,"oti":6231,"ĠEv":6232,"Ġactivity":6233,"Back":6234,"wick":6235,"uns":6236,"ĠGar":6237,"ĠLy":6238,"Ġunivers":6239,"writer":6240,"ĠKorea":6241,"owa":6242,"ĠAnn":6243,"Ġ90":6244,"Ġ1930":6245,"Ġsuggested":6246,"Ġdetermined":6247,"wers":6248,"Ġwealth":6249,"ĠOlympics":6250,"bably":6251,"orse":6252,"ĠCy":6253,"ĠMuseum":6254,"Ġsuffe":6255,"Ġpassing":6256,"egal":6257,"Should":6258,"Ġmountains":6259,"rif":6260,"oops":6261,"Ġkil":6262,"Ġshr":6263,"Whatever":6264,"Ġdrawn":6265,"BE":6266,"isation":6267,"Ġguilty":6268,"Welcome":6269,"gency":6270,"ĠBas":6271,"Ġjun":6272,"Ġunderstanding":6273,"ĠJewish":6274,"Ġsomehow":6275,"ocal":6276,"Ġattended":6277,"ĠAlab":6278,"ammy":6279,"ĠUnder":6280,"ĠLiber":6281,"David":6282,"ĠGames":6283,"Ġconsist":6284,"Ġmedal":6285,"Ġaircraft":6286,"ennis":6287,"Ġax":6288,"stant":6289,"Ġsav":6290,"196":6291,"Car":6292,"Ġlat":6293,"Ġhabit":6294,"Ġmathem":6295,"Ġpresented":6296,"Ġneighbour":6297,"CA":6298,"Ġduck":6299,"Ġnarrow":6300,"eau":6301,"Ġowner":6302,"Ġstations":6303,"ounding":6304,"ĠArk":6305,"Ġincident":6306,"ichael":6307,"Ġsupported":6308,"Ġreaction":6309,"ĠHa":6310,"ums":6311,"ĠRam":6312,"Ġsexual":6313,"Still":6314,"Ġ1985":6315,"incoln":6316,"say":6317,"ads":6318,"Ġproof":6319,"itty":6320,"Ġpassion":6321,"Ġstaying":6322,"Ġeditor":6323,"Ġninety":6324,"des":6325,"Ġsons":6326,"Ġbrave":6327,"Ġplenty":6328,"Ġhyp":6329,"Ġwings":6330,"Ġcateg":6331,"Ġincreasing":6332,"Ġdiss":6333,"ĠIII":6334,"istor":6335,"Ġintegr":6336,"verse":6337,"Ġveget":6338,"etts":6339,"illed":6340,"Someone":6341,"Cle":6342,"Ġcoal":6343,"eaking":6344,"ĠYear":6345,"Ġflew":6346,"ĠGeorgia":6347,"mosp":6348,"Ġscored":6349,"Ġgirlfriend":6350,"ĠAnne":6351,"Ġjoint":6352,"Ill":6353,"Ġgrab":6354,"athan":6355,"Ġexperiment":6356,"Ġstatus":6357,"ĠAlabama":6358,"Ġhiding":6359,"Ġwondering":6360,"Ġforgotten":6361,"ĠTim":6362,"ĠTime":6363,"reek":6364,"Ġserving":6365,"Ġrealized":6366,"Ġ1983":6367,"Ġchanging":6368,"Ġproposed":6369,"angle":6370,"Ġvariety":6371,"Ġdegrees":6372,"ducation":6373,"ez":6374,"Ġpowers":6375,"ropri":6376,"Ġbub":6377,"ĠTer":6378,"Ġfeature":6379,"Ġsoldier":6380,"Ġapprox":6381,"._":6382,"35":6383,"ko":6384,"heim":6385,"Ġpool":6386,"roke":6387,"ĠCivil":6388,"Ġdoors":6389,"Ġjustice":6390,"action":6391,"Ġcontain":6392,"Ġpregn":6393,"Watch":6394,"urse":6395,"ĠGal":6396,"Ġperfectly":6397,"nÃ©":6398,"Ġsin":6399,"Ġsamp":6400,"ĠBattle":6401,"agement":6402,"Ġgiant":6403,"ĠConf":6404,"Ġresponsibility":6405,"Ġscientific":6406,"ading":6407,"Ġwash":6408,"Ġ1984":6409,"Ġseriously":6410,"Ġbasketball":6411,"ĠOut":6412,"Ġ1982":6413,"Ġnormally":6414,"Geor":6415,"sur":6416,"Äĩ":6417,"Ġdomin":6418,"Ġdancing":6419,"Ġreform":6420,"riff":6421,"Ġcommission":6422,"Ġimpact":6423,"Ġoccurred":6424,"uce":6425,"Ġgang":6426,"ession":6427,"Ġhelps":6428,"Try":6429,"Ġonline":6430,"urally":6431,"Ġknife":6432,"ĠLine":6433,"Ġselling":6434,"Ġ/":6435,"Ġtears":6436,"oted":6437,"ami":6438,"Ġdisplay":6439,"Ġhappiness":6440,"Ġaspect":6441,"Ġwindows":6442,"aughs":6443,"amily":6444,"Ġvirt":6445,"does":6446,"Ġviolence":6447,"achusetts":6448,"hin":6449,"inent":6450,"Ġdu":6451,"Ġnea":6452,"cons":6453,"Ġchampionship":6454,"Ġcontinues":6455,"ĠOhio":6456,"Ġsettlement":6457,"According":6458,"ĠNat":6459,"Ġ1979":6460,"hetic":6461,"Hurry":6462,"eh":6463,"ĠJan":6464,"Ġunique":6465,"Ġfollows":6466,"Ġgolden":6467,"Ġfalse":6468,"pet":6469,"Ġprime":6470,"Ġlisted":6471,"rogen":6472,"bly":6473,"Ġunknown":6474,"standing":6475,"Ġcomfortable":6476,"Ġtie":6477,"Ġgather":6478,"ĠHave":6479,"estic":6480,"TS":6481,"Ġboo":6482,"ĠHan":6483,"ĠJac":6484,"Ġgraph":6485,"Ġdrawing":6486,"Ġsuffered":6487,"Ġfallen":6488,"Ġrestaurant":6489,"esides":6490,"Ġpill":6491,"ĠSus":6492,"Ġearned":6493,"ĠRepresent":6494,"Ġfile":6495,"Ġwithd":6496,".âĢĻ":6497,"Open":6498,"Ġhanging":6499,"Ġdaily":6500,"Ġbunch":6501,"stance":6502,"ĠWay":6503,"Ġremembered":6504,"sure":6505,"Ġhidden":6506,"Ġgodd":6507,"Ġinstru":6508,"Ġclasses":6509,"five":6510,"gor":6511,"rier":6512,"Ġpatients":6513,"Ġtreated":6514,"Ġhello":6515,"ĠFrancisco":6516,"Col":6517,"EF":6518,"Ste":6519,"rical":6520,"erves":6521,"ĠAT":6522,"ologist":6523,"Ġtradition":6524,"rell":6525,"Ġsixty":6526,"Ġfamiliar":6527,"point":6528,"Ġbeside":6529,"lN":6530,"Ġtank":6531,"Ġsched":6532,"Ġ70":6533,"Ġtor":6534,"ĠMichigan":6535,"Ġvictim":6536,"Ġprotection":6537,"only":6538,"Ġimpl":6539,"ĠSecond":6540,"po":6541,"33":6542,"ĠWall":6543,"ĠOl":6544,"Ġconscious":6545,"Ġbegins":6546,"Ġfeatured":6547,"Ġnervous":6548,"Under":6549,"ingham":6550,"ĠMem":6551,"Although":6552,"Ġordinary":6553,"ĠBerlin":6554,"Ġtone":6555,"ela":6556,"Ġblame":6557,"Ġconstant":6558,"Ġassociated":6559,"Ġsenior":6560,"Des":6561,"Paul":6562,"Ġhonour":6563,"ĠService":6564,"Ġconfess":6565,"Ġconsequ":6566,"Ġspect":6567,"Ġfinds":6568,"Ġ1981":6569,"Ġelectron":6570,"bles":6571,"sl":6572,"Ġthroat":6573,"Ġchocolate":6574,"inda":6575,"Ġ45":6576,"Ġsetting":6577,"Ġhook":6578,"Ġlatter":6579,"Ġislands":6580,"Ġshell":6581,"Ġtowns":6582,"Ġlegisl":6583,"James":6584,"imal":6585,"Ġseasons":6586,"elle":6587,"aka":6588,"ĠShow":6589,"Ġentr":6590,"UST":6591,"Ġteachers":6592,"ĠBus":6593,"Ġate":6594,"ĠTimes":6595,"Ġaim":6596,"Ġpin":6597,"ĠBoston":6598,"venge":6599,"Ġclient":6600,"Ġcontest":6601,"Eng":6602,"iber":6603,"Ġshame":6604,"Ġsymbol":6605,"iac":6606,"Ġur":6607,"Ġdial":6608,"ĠMiddle":6609,"Ġnoted":6610,"Ġmyst":6611,"Ġappeal":6612,"ĠArgent":6613,"gery":6614,"ĠHu":6615,"ĠBre":6616,"Ġwrit":6617,"force":6618,"Ġrocks":6619,"gend":6620,"abbit":6621,"Looks":6622,"ĠJohnny":6623,"Ġinhabitants":6624,"APTER":6625,"long":6626,"ĠMassachusetts":6627,"Ġcousin":6628,"Mother":6629,"Ġconference":6630,"Ġcorresp":6631,"Ġath":6632,"Ġcheese":6633,"rich":6634,"Ġshirt":6635,"Ġrefused":6636,"aling":6637,"Ġclock":6638,"Ġkiller":6639,"rilliant":6640,"PE":6641,"RB":6642,"Ġnurs":6643,"ĠFestival":6644,"Ġintended":6645,"Ġ01":6646,"ĠWilson":6647,"Ġinstrument":6648,"Ġinsurance":6649,"cest":6650,"Ġtied":6651,"ĠInt":6652,"ĠBull":6653,"osc":6654,"emies":6655,"ĠSur":6656,"ĠJones":6657,"ĠUp":6658,"urban":6659,"Fl":6660,"ĠBoth":6661,"Ġpriest":6662,"ĠJean":6663,"Ġlake":6664,"Ġloose":6665,"ĠTony":6666,"ropol":6667,"Ġ1976":6668,"Ġnearby":6669,"Ġofficially":6670,"Ġseek":6671,"ĠTurk":6672,"fortunately":6673,"BA":6674,"Up":6675,"bar":6676,"ĠSol":6677,"ĠĠĠĠĠĠĠ":6678,"Ġpotential":6679,"Ġreferred":6680,"Ġcaptured":6681,"Peter":6682,"ĠFre":6683,"ĠEastern":6684,"Com":6685,"Ġcig":6686,"Ġreck":6687,"Ġunf":6688,"Ġpoison":6689,"Ġstring":6690,"Ġincred":6691,"Ġadditional":6692,"ĠMod":6693,"Ġflood":6694,"Ġatmosp":6695,"ĠNick":6696,"Ġupstairs":6697,";/":6698,"Sec":6699,"Ġmayor":6700,"Ġbreaking":6701,"ĠJimmy":6702,"Ġtongue":6703,"90":6704,"IG":6705,"Pol":6706,"bell":6707,"Ġlord":6708,"ĠLu":6709,"ĠNaz":6710,"Ġshoulder":6711,"shall":6712,"arrass":6713,"nic":6714,"isis":6715,"Ġheight":6716,"Ġrooms":6717,"ĠDirector":6718,"Ġquit":6719,"Ġguest":6720,"Ġlocked":6721,"Ġassistant":6722,"Ġcake":6723,"Ġham":6724,"Ġorange":6725,"ĠKar":6726,"ĠKenn":6727,"Ġrespond":6728,"Ġdisappoint":6729,"ĠMajesty":6730,"500":6731,"Move":6732,"Sit":6733,"eer":6734,"Ġselected":6735,"Ġchain":6736,"Ġ500":6737,"ipping":6738,"Ġfold":6739,"Ġconqu":6740,"Ġtroub":6741,"Ġqueen":6742,"Ġ1978":6743,"Ġdisappeared":6744,"Ġlibrary":6745,"ero":6746,"Ġchose":6747,"ĠEven":6748,"Ġpoly":6749,"apping":6750,"Ġdeliver":6751,"life":6752,"using":6753,"acter":6754,"Ġexchange":6755,"Ġuniform":6756,"ĠAndrew":6757,"Ġsolve":6758,"Ġcircumstances":6759,"ext":6760,"atherine":6761,"Ġ1973":6762,"Ġadmit":6763,"100":6764,"iral":6765,"eps":6766,"Ġcompared":6767,"Ġapparently":6768,"ĠAssembly":6769,"Ġheav":6770,"ĠTre":6771,"okes":6772,"ervative":6773,"Ġgoods":6774,"Ġstands":6775,"Ġwinner":6776,"Ġequip":6777,"Ġsolid":6778,"Has":6779,"otte":6780,"ĠRose":6781,"Ġretire":6782,"ĠIslands":6783,"Ġtrail":6784,"Ġbenefit":6785,"FL":6786,"alo":6787,"osaur":6788,"ava":6789,"also":6790,"ĠRon":6791,"Ġeleven":6792,"Ġhousehold":6793,"Ġreports":6794,"Ġsoftware":6795,"Ġpeak":6796,"ĠNE":6797,"ĠNavy":6798,"Ġsuffering":6799,"ih":6800,"Ġdies":6801,"ĠMen":6802,"osal":6803,"Ġ1975":6804,"aire":6805,"ender":6806,"Ġlit":6807,"alls":6808,"ĠWat":6809,"Ġchannel":6810,"ĠUN":6811,"Ġhistorical":6812,"UGH":6813,"Ġboot":6814,"Ġ180":6815,"Ġarticle":6816,"ĠColonel":6817,"70":6818,"uing":6819,"ĠBon":6820,"ĠThree":6821,"Ġrelax":6822,"36":6823,"oto":6824,"ĠBook":6825,"ĠTem":6826,"ĠEach":6827,"Ġplate":6828,"ĠAlice":6829,"Ġ1974":6830,"ĠSocial":6831,"38":6832,"MA":6833,"gie":6834,"Ġhel":6835,"Ġ1968":6836,"Ġexamples":6837,"iro":6838,"entially":6839,"iffe":6840,"Ġsole":6841,"ĠKong":6842,"ĠChair":6843,"Ġrecognized":6844,"Ġdrove":6845,"\"),":6846,"Last":6847,"Pres":6848,"ef":6849,"Ġmuseum":6850,"sters":6851,"irk":6852,"ĠEst":6853,"Ġunus":6854,"Ġtransform":6855,"Ġrevolution":6856,"awn":6857,"owned":6858,"Ġbackground":6859,"hmm":6860,"ĠWilliams":6861,"Care":6862,"Ġdust":6863,"Ġsevere":6864,"their":6865,"Ġvalues":6866,"Ġperman":6867,"Ġscript":6868,"Ġcute":6869,"ĠMonday":6870,"Ġanalysis":6871,"ulpt":6872,"Ġtheme":6873,"Ġhundreds":6874,"Ġtemple":6875,"Ġwaited":6876,"ĠLabour":6877,"Ġagreement":6878,"',":6879,"Ġpartners":6880,"arks":6881,"gment":6882,"Ġtower":6883,"Ġtrains":6884,"Ġrecording":6885,"Ġlaunched":6886,"Ġexistence":6887,"miss":6888,"unte":6889,"ntil":6890,"Ġapple":6891,"ĠDef":6892,"ĠLib":6893,"Ġ1971":6894,"Ġsigns":6895,"Ġsilent":6896,"KE":6897,"ooth":6898,"erg":6899,"Ġcritical":6900,"oof":6901,"andom":6902,"Ġcommitted":6903,"Ġrecognize":6904,"Ġfolks":6905,"ĠKen":6906,"Ġ1972":6907,"Ġoperations":6908,"Ġdemocr":6909,"Ġcommonly":6910,"Ġchallenge":6911,"ĠWork":6912,"chestra":6913,"Ġestablish":6914,"based":6915,"apa":6916,"inking":6917,"Ġproperly":6918,"Ġseventy":6919,"Ġlone":6920,"ricane":6921,"Ġsales":6922,"aro":6923,"ĠJr":6924,"Ġcandidate":6925,"met":6926,"Ġwise":6927,"Ġhorn":6928,"uther":6929,"ĠRaj":6930,"Ġaccomp":6931,"Ġ1967":6932,"ĠBlue":6933,"ondissement":6934,"ao":6935,"fr":6936,"Ġgain":6937,"ĠPL":6938,"ĠDuke":6939,"ĠVan":6940,"Ġcriminal":6941,"39":6942,"arant":6943,"ĠPart":6944,"ĠIntern":6945,"Ġengaged":6946,"Ġridic":6947,"Ġbuddy":6948,"Ġborrow":6949,"Ġgoals":6950,"Ġdecor":6951,"ĠAsh":6952,"ĠCross":6953,"ourse":6954,"Ġchampion":6955,"Ġcommittee":6956,"inging":6957,"earch":6958,"Ġidiot":6959,"Ġskills":6960,"alog":6961,"ĠHung":6962,"ifying":6963,"Ġremaining":6964,"ito":6965,"ĠAv":6966,"ĠTai":6967,"Ġgoodness":6968,"Ġcarbon":6969,"ĠBoard":6970,"Ġhom":6971,"asp":6972,"ĠScience":6973,"Ġadvert":6974,"ĠBrother":6975,"ealous":6976,"ĠThanks":6977,"raham":6978,"Ġsomewhat":6979,"Ġdistinct":6980,"Ġprotest":6981,"wait":6982,"ĠNether":6983,"ultural":6984,"Ġboyfriend":6985,"Ġsurvive":6986,"Ġrot":6987,"ĠLE":6988,"Ġsheep":6989,"Ġprepar":6990,"Ġgods":6991,"Ġmyth":6992,"ERS":6993,"burgh":6994,"ĠSub":6995,"Ġsentence":6996,"ĠColumbia":6997,"34":6998,"cr":6999,"iments":7000,"Ġclever":7001,"ĠStephen":7002,"Ġ184":7003,"ĠMarg":7004,"Ġframe":7005,"Ġhoping":7006,"Ġdistribution":7007,"Ġnominated":7008,"Ġnumerous":7009,"Ġequipment":7010,"IE":7011,"dad":7012,"Ġ1940":7013,"Ġdread":7014,"Ġpink":7015,"ĠAbout":7016,"ĠJersey":7017,"Four":7018,"Ġwrest":7019,"Ġvent":7020,"Ġtruly":7021,"should":7022,"gle":7023,"ĠIowa":7024,"ĠSH":7025,"Ġcomposed":7026,"Ġdescribe":7027,"Ġdepends":7028,"Ġpump":7029,"ĠHome":7030,"...\"":7031,"Ġproced":7032,"Ġswitch":7033,"ĠHarry":7034,"Ġspending":7035,"ĠRecords":7036,"Jesus":7037,"Pre":7038,"iat":7039,"mo":7040,"sk":7041,"ĠViet":7042,"Ġmoves":7043,"Ġelev":7044,"Ġsym":7045,"Ġhorrible":7046,"Ġinnocent":7047,"Ġok":7048,"Ġnut":7049,"anging":7050,"ometimes":7051,"Ġprogramme":7052,"izations":7053,"Ġjuice":7054,"Ġweb":7055,"Ġstruct":7056,"fle":7057,"Ġtools":7058,"othy":7059,"Ġplot":7060,"Ġapply":7061,"ĠAlthough":7062,"Ġgeneration":7063,"ĠElizabeth":7064,"Ġvolume":7065,"ĠOffice":7066,"Â°":7067,"Ġfancy":7068,"organ":7069,"Ġmeal":7070,"Ġembarrass":7071,"quarters":7072,"ĠAp":7073,"ĠDaniel":7074,"IL":7075,"gly":7076,"gues":7077,"lers":7078,"Ġshock":7079,"Ġbreast":7080,"ĠJohnson":7081,"Ġwebsite":7082,"Ġfate":7083,"Ġfriendly":7084,"Ġalcohol":7085,"pass":7086,"Ġlin":7087,"Ġagric":7088,"Ġdesper":7089,"box":7090,"ĠDet":7091,"Ġexcellent":7092,"Ġbrings":7093,"Ġphotograph":7094,"Mad":7095,"Ġmail":7096,"Ġrac":7097,"Ġspin":7098,"Ġ36":7099,"Shall":7100,"Ġconcer":7101,"Ġannual":7102,"Ġhunting":7103,"ĠBefore":7104,"Ġelections":7105,"ederation":7106,"Ġgraduated":7107,"Ã±":7108,"ĠMid":7109,"ĠOver":7110,"poration":7111,"riz":7112,"ĠGall":7113,"Ġlegend":7114,"Ġthrown":7115,"Ġadministrative":7116,"Ġgained":7117,"Ġproved":7118,"Ġlabel":7119,"Ġbaseball":7120,"UM":7121,"fits":7122,"etch":7123,"Ġsubsequ":7124,"Five":7125,"give":7126,"Ġwitch":7127,"Ġancest":7128,"Ġlimit":7129,"Ġapplied":7130,"Father":7131,"inity":7132,"Ġsalt":7133,"Ġshared":7134,"ĠLincoln":7135,"iece":7136,"BS":7137,"athy":7138,"Ġow":7139,"Ġconsists":7140,"Ġeighty":7141,"Ġcreating":7142,"ĠFour":7143,"Ġallows":7144,"Ġprincess":7145,"Ġsuspic":7146,"iy":7147,"ĠSant":7148,"ĠHealth":7149,"ĠUk":7150,"aws":7151,"ĠSteve":7152,"Ġadopted":7153,"Ġcas":7154,"aya":7155,"Ġexact":7156,"Ġdiscover":7157,"Ġpainted":7158,"Ġorganized":7159,"Gl":7160,"ni":7161,"abel":7162,"Ġcharm":7163,"Ġimportance":7164,"Ġtouched":7165,"ĠScottish":7166,"Em":7167,"UL":7168,"ĠSong":7169,"ĠHong":7170,"oked":7171,"Ġ1969":7172,"Ġ1945":7173,"Ġrepeated":7174,"ague":7175,"Ġconsult":7176,"adesh":7177,"Ġindustrial":7178,"Ġemergency":7179,"ĠWater":7180,"ova":7181,"Ġdram":7182,"unning":7183,"Ġenemies":7184,"Ġcrisis":7185,"Ġacid":7186,"Ġconnect":7187,"Ġexecutive":7188,"Ġbastard":7189,"comp":7190,"Ġbeer":7191,"usted":7192,"uba":7193,"Ġobvious":7194,"ĠTHIS":7195,"ĠÂ£":7196,"Ġinvestigation":7197,"ĠPakistan":7198,"99":7199,"lah":7200,"Ġmarked":7201,"Ġobjects":7202,"anz":7203,"Ġgrav":7204,"owing":7205,"pered":7206,"Ġactions":7207,"door":7208,"Ġbelongs":7209,"Comm":7210,"Ġcurious":7211,"idae":7212,"opp":7213,"Ġcovers":7214,"Ġfalls":7215,"Ġappreciate":7216,"irit":7217,"ONE":7218,"ĠPoland":7219,"Ġmaterials":7220,"pool":7221,"Ġfolk":7222,"Ġpow":7223,"iley":7224,"Ġ1977":7225,"CT":7226,"omach":7227,"Ġdescend":7228,"Ġclosely":7229,"Mus":7230,"Åį":7231,"Ġalarm":7232,"ivered":7233,"ĠUh":7234,"hess":7235,"ĠBrook":7236,"ĠNetherlands":7237,"Sl":7238,"occ":7239,"geon":7240,"Ġefforts":7241,"ĠKorean":7242,"Time":7243,"bu":7244,"Ġevolution":7245,"Frank":7246,"iser":7247,"Ġmile":7248,"Ġ1964":7249,"looking":7250,"ĠCharlie":7251,"Ġdish":7252,"ĠId":7253,"Ġoverall":7254,"195":7255,"Ġfactory":7256,"Ġcomplicated":7257,"yp":7258,"31":7259,"Ġtort":7260,"Ġcock":7261,"Ġvia":7262,"Ġregions":7263,"going":7264,"Ġissued":7265,"Ġmerch":7266,"Ġ1966":7267,"Ġinsp":7268,"Ġsteel":7269,"Ġslept":7270,"32":7271,"Mark":7272,"onent":7273,"Ġgotten":7274,"Ġclubs":7275,"Ġdisappear":7276,"akers":7277,"orney":7278,"Ġsets":7279,"Ġnegoti":7280,"Ġobserved":7281,"cos":7282,"turn":7283,"eping":7284,"Ġestate":7285,"Ġviews":7286,"Ã³n":7287,"ĠRevolution":7288,"aria":7289,"Ġconce":7290,"ĠJon":7291,"Ġsculpt":7292,"Ġcolors":7293,"ĠHAVE":7294,"Aye":7295,"Turn":7296,"ban":7297,"bal":7298,"erest":7299,"irmed":7300,"Char":7301,"Ġexplained":7302,"ĠOrder":7303,"Again":7304,"nce":7305,"omy":7306,"chief":7307,"olen":7308,"odd":7309,"Ġoperating":7310,"Big":7311,"IV":7312,"Ġlift":7313,"olt":7314,"umph":7315,"ĠOffic":7316,"Ġshel":7317,"ĠArts":7318,"Ġcheer":7319,"ĠBroad":7320,"Ġspiritual":7321,"Im":7322,"Their":7323,"ĠHind":7324,"unts":7325,"Ġdefin":7326,"Exactly":7327,"ĠDisney":7328,"Life":7329,"Michael":7330,"Ġbatter":7331,"Ġrefe":7332,"ĠSup":7333,"ĠLeg":7334,"emon":7335,"apore":7336,"ĠVer":7337,"Ġowners":7338,"Ġwidely":7339,"Ġvotes":7340,"NO":7341,"could":7342,"Ġnest":7343,"ĠAunt":7344,"ĠCO":7345,"izz":7346,"ĠMaria":7347,"ĠConstitution":7348,"Too":7349,"ensity":7350,"ĠPolish":7351,"dney":7352,"Ġtropical":7353,"Ġriding":7354,"ĠNic":7355,"Ġmyster":7356,"Ġcourage":7357,"ĠPhilipp":7358,"Ġholiday":7359,"Ġattitude":7360,"ĠBridge":7361,"Ġexplos":7362,"ennes":7363,"anny":7364,"ĠNorm":7365,"Ġconcl":7366,"ĠOcean":7367,"Ġliterature":7368,"Ġexercise":7369,"lahoma":7370,"ĠHea":7371,"ĠNet":7372,"arring":7373,"Ġburning":7374,"Ġsucceeded":7375,"Ġcorrespond":7376,"Mon":7377,"SC":7378,"Ġscientists":7379,"ras":7380,"Ġowe":7381,"Ġmood":7382,"Ġho":7383,"Ġpushed":7384,"Ġholds":7385,"cription":7386,"mouth":7387,"Ġbite":7388,"ĠTra":7389,"ĠFel":7390,"ACK":7391,"Ġcommunities":7392,"osl":7393,"Ġcreation":7394,"Ġaid":7395,"cha":7396,"Ġ1961":7397,"engers":7398,"Ġben":7399,"Ġbutton":7400,"ĠEle":7401,"ollowing":7402,"Ġclaimed":7403,"Ġwaters":7404,"Ġbathroom":7405,"jan":7406,"made":7407,"otic":7408,"ĠPope":7409,"Ġrhy":7410,"Ġeaten":7411,"mma":7412,"aska":7413,"Ġmerged":7414,"TO":7415,"Whe":7416,"iÄĩ":7417,"sit":7418,"Ġinse":7419,"ĠAk":7420,"Ġstress":7421,"unting":7422,"ĠEducation":7423,"Ġbadly":7424,".--":7425,"Ġsust":7426,"ingly":7427,"ĠSanta":7428,"three":7429,"inces":7430,"ĠLieutenant":7431,"ĠKhan":7432,"Fin":7433,"Ġmental":7434,"Ġglobal":7435,"ESS":7436,"Ġfrightened":7437,"Jim":7438,"four":7439,"iture":7440,"omer":7441,"ĠAny":7442,"ĠCorn":7443,"ĠPrem":7444,"intend":7445,"Us":7446,"Ġstole":7447,"Ġtalks":7448,"Ġsyn":7449,"Ġdevil":7450,"glas":7451,"Illustration":7452,"Ġapproximately":7453,"yard":7454,"ĠSon":7455,"ĠEs":7456,"Ġrelations":7457,"Ġcheap":7458,"Ġsimpl":7459,"Ġdealing":7460,"ĠAdam":7461,"Ġindividuals":7462,"Ġinitial":7463,"TA":7464,"wow":7465,"ym":7466,"ompl":7467,"Ġnick":7468,"Ġcenturies":7469,"Ġsitu":7470,"Ġconcert":7471,"ĠAustria":7472,"Ġnorthwest":7473,"Ġtracks":7474,"heme":7475,"Ġnort":7476,"uties":7477,"ĠRh":7478,"Ġ32":7479,"Ġsorts":7480,"ĠOnly":7481,"Ġballs":7482,"ygen":7483,"Ġsale":7484,"Ġinqu":7485,"Ġseats":7486,"ĠTay":7487,"ĠĠĠĠĠĠĠĠĠĠĠĠĠĠĠĠĠĠĠĠĠĠĠĠ":7488,"Ġatmosphere":7489,"bi":7490,"Ġfuel":7491,"sex":7492,"Ġalleg":7493,"ieve":7494,"Ġvalley":7495,"Ġdesk":7496,"Ġregret":7497,"Ġmonster":7498,"Ġsquared":7499,"Ġcultural":7500,"Ġswimming":7501,"Ġneighborhood":7502,"ands":7503,"elph":7504,"ilding":7505,"Ġbrilliant":7506,"ummer":7507,"Ġvision":7508,"OULD":7509,"Ġsixth":7510,"Anything":7511,"ĠMoh":7512,"ĠHoly":7513,"Ġours":7514,"CHAPTER":7515,"Ġidentity":7516,"ĠOklahoma":7517,"GO":7518,"umes":7519,"Ġarmed":7520,"Ġsuppl":7521,"ĠIndiana":7522,"Ġbullet":7523,"ĠTop":7524,"Ġrandom":7525,"ĠFair":7526,"case":7527,"ti":7528,"rend":7529,"aman":7530,"rose":7531,"Ġaside":7532,"ĠPers":7533,"Ġedition":7534,"Ġburned":7535,"ĠPen":7536,"amps":7537,"Ġroot":7538,"Ġunable":7539,"Ġbuying":7540,"Ġairport":7541,"Ġexpert":7542,"Ġeffective":7543,"Ġpresidential":7544,"ĠEnter":7545,"Ġcomposer":7546,"Boy":7547,"Ġhired":7548,"Ġstomach":7549,"Ġrug":7550,"Ġparish":7551,"coming":7552,"ĠAtlantic":7553,"every":7554,"Ġdarkness":7555,"Ġcommit":7556,"ĠAlso":7557,"ori":7558,"Ġdiet":7559,"rib":7560,"Ġslave":7561,"Ġ1965":7562,"equ":7563,"rets":7564,"Ġkeys":7565,"Also":7566,"adu":7567,"Ġdistingu":7568,"Ġcheek":7569,"Ġsurely":7570,"ureau":7571,"Ġaccompl":7572,"Ġsurgery":7573,"Ġwoods":7574,"Ġadministration":7575,"Ġrevealed":7576,"ĠArkansas":7577,"Bill":7578,"gian":7579,"Ġreign":7580,"Ġconduct":7581,"greg":7582,"vi":7583,"Ġconver":7584,"Ġspo":7585,"mann":7586,"Ġdiagn":7587,"Jo":7588,"lock":7589,"Ġ1947":7590,"Ġdetail":7591,"Ġprofession":7592,"Ġroads":7593,"ropolitan":7594,"Yep":7595,"bet":7596,"Ġwing":7597,"kel":7598,"ĠPost":7599,"ĠPlease":7600,"Ġinterests":7601,"Ġconstitution":7602,"Ġarchitect":7603,"sen":7604,"Ġtear":7605,"ĠDi":7606,"Ġrum":7607,"Ġsoci":7608,"ĠVictoria":7609,"Captain":7610,"Both":7611,"outheast":7612,"Ġguarant":7613,"Ġ300":7614,"Ġexplan":7615,"atics":7616,"Ġanger":7617,"ĠPop":7618,"Ġris":7619,"Ġdeck":7620,"ĠLight":7621,"Ġsuicide":7622,"ika":7623,"Ġmillions":7624,"ILL":7625,"fish":7626,"eness":7627,"Ġconclud":7628,"Ġpointed":7629,"Ġvisited":7630,"Ġinvestment":7631,"Ġdistributed":7632,"Ġpregnant":7633,"Ġpuzz":7634,"ĠBra":7635,"Ġsecure":7636,"ĠBrad":7637,"Ġsuffer":7638,"Ġnuclear":7639,"ĠAmb":7640,"ĠCab":7641,"ĠKNOW":7642,"Ġcrash":7643,"Ġhandsome":7644,"ĠSystem":7645,"Ġsurrounded":7646,"Ġridiculous":7647,"PS":7648,"Ġtip":7649,"Ġwaves":7650,"ĠNap":7651,"perial":7652,"orders":7653,"Ġunh":7654,"Ġexped":7655,"Ġprize":7656,"Ġmerely":7657,"Ġwished":7658,"encies":7659,"Ġreference":7660,"Ġjealous":7661,"ĠMayor":7662,"ĠCoast":7663,"Ġunusual":7664,"Brit":7665,"Ġta":7666,"Ġfishing":7667,"Ġbutt":7668,"akh":7669,"Ġwhenever":7670,"Ġlecture":7671,"Ġdiscip":7672,"Ġadvanced":7673,"Ġhealthy":7674,"Bring":7675,"Ġpir":7676,"ĠSel":7677,"rix":7678,"Ġ37":7679,"has":7680,"Ġdoctors":7681,"Ġinstant":7682,"Ġescaped":7683,"Ġlung":7684,"outs":7685,"apped":7686,"Atl":7687,"Ġdefeat":7688,"Ġaffected":7689,"Ġaunt":7690,"reck":7691,"Ġsisters":7692,"ĠFound":7693,"Ġsuck":7694,"Ġeleph":7695,"Ġphr":7696,"isms":7697,"Ġextended":7698,"Ġcombined":7699,"Six":7700,"rane":7701,"Ġdelay":7702,"otton":7703,"ĠSE":7704,"ĠWy":7705,"ĠRoll":7706,"Ġcompar":7707,"thew":7708,"Ġacad":7709,"ĠWalter":7710,"Little":7711,"RY":7712,"ĠSk":7713,"allel":7714,"Ġera":7715,"Ġpassage":7716,"ĠProt":7717,"Ġreduced":7718,"ĠSingapore":7719,"abs":7720,"ĠChris":7721,"Ġfuneral":7722,"Ġcrossed":7723,"ĠRadio":7724,"Ġbalance":7725,"Ġcapacity":7726,"ĠHay":7727,"ĠHead":7728,"ĠVill":7729,"gging":7730,"Ġleads":7731,"Ġsources":7732,"Ġchalleng":7733,"Ġalternative":7734,"inem":7735,"Ġfra":7736,"ĠMot":7737,"Ġsymp":7738,"Ġcreature":7739,"Ġenjoyed":7740,"Ġrecommend":7741,"BO":7742,"bird":7743,"little":7744,"Ġ1962":7745,"Ġauthorities":7746,"Ġsweetie":7747,"Ġloan":7748,"Ġdebt":7749,"AH":7750,"Ġdipl":7751,"onsense":7752,"Ġharder":7753,"Ġcollea":7754,"Ġruled":7755,"Ġbanks":7756,"Int":7757,"dis":7758,"Ġwore":7759,"Ġhast":7760,"Ġpale":7761,"lend":7762,"Ġbeneath":7763,"Ġceremony":7764,"dÃ©":7765,"ĠPublic":7766,"Ġphoto":7767,"AF":7768,"uer":7769,"Ġwire":7770,"Ġtoys":7771,"arts":7772,"ĠNight":7773,"Ġcontem":7774,"ĠMcC":7775,"Ġromantic":7776,"ropriate":7777,"called":7778,"Ã§":7779,"ĠWed":7780,"Ġsoil":7781,"ĠUr":7782,"Ġregional":7783,"Ġdraft":7784,"utation":7785,"ĠHam":7786,"ĠNob":7787,"Ġcollabor":7788,"Ġdriven":7789,"Ġseparated":7790,"ĠSav":7791,"ĠNews":7792,"_.":7793,"Å¡":7794,"Ġreward":7795,"state":7796,"enses":7797,"Ġending":7798,"ierce":7799,"Ġlonely":7800,"itage":7801,"Ġbones":7802,"ĠMY":7803,"Ġrings":7804,"Ġalph":7805,"ĠVice":7806,"Ġcycl":7807,"ĠWITH":7808,"tell":7809,"Ġwounded":7810,"ĠIra":7811,"ĠHoll":7812,"Ġcapable":7813,"ĠSupreme":7814,"hew":7815,"Ġwand":7816,"Ġdeserve":7817,"Ġ1963":7818,"Ġsquad":7819,"Ġconfidence":7820,"Ġvictims":7821,"orporated":7822,"Geography":7823,"Eh":7824,"Ġawards":7825,"Ġsan":7826,"Ġindu":7827,"ĠDun":7828,"igr":7829,"William":7830,"Ġdemonstr":7831,"Cont":7832,"ii":7833,"Ġpupp":7834,"ĠLew":7835,"ĠNations":7836,"Ġreturning":7837,"Ġstronger":7838,"Ġapplication":7839,"ĠDav":7840,"ĠDave":7841,"never":7842,"Ġpermission":7843,"Ten":7844,"mom":7845,"char":7846,"ffici":7847,"Ġlaunch":7848,"ĠSeries":7849,"aa":7850,"acon":7851,"ĠDNA":7852,"Ġassume":7853,"ĠHoward":7854,"Ġcutting":7855,"Ġsending":7856,"Ġcooking":7857,"ĠJews":7858,"Ġelectricity":7859,"Ġmurdered":7860,"cus":7861,"iri":7862,"Ġyo":7863,"asters":7864,"onto":7865,"Ġburst":7866,"ĠForest":7867,"ĠKentucky":7868,"pite":7869,"Ġbatt":7870,"Ġfans":7871,"Ġdump":7872,"ĠBC":7873,"ĠTurn":7874,"Ġjury":7875,"Ġspare":7876,"into":7877,"Ġhearts":7878,"Ġcommunication":7879,"athered":7880,"Ġfo":7881,"imb":7882,"Ġshadow":7883,"ĠRod":7884,"ĠOb":7885,"Ġbride":7886,"ĠAsian":7887,"Ġcampus":7888,"Grand":7889,"Bel":7890,"obe":7891,"Ġhi":7892,"Ġnurse":7893,"Ġdozen":7894,"Ġscheme":7895,"take":7896,"stal":7897,"ĠBad":7898,"ordon":7899,"Ġwarning":7900,"ĠTeam":7901,"Ġdespite":7902,"ĠTok":7903,"Ġtrained":7904,"ĠChuck":7905,"anches":7906,"ĠAnother":7907,"Ġimpress":7908,"ĠIndians":7909,"Ġtypical":7910,"ĠCastle":7911,"Laughter":7912,"Ġitems":7913,"ĠSa":7914,"ĠHospital":7915,"aints":7916,"umin":7917,"Ġcommander":7918,"Ġprobability":7919,"Ġ1944":7920,"Ġfleet":7921,"Ġenvironmental":7922,"Ġmethods":7923,"rons":7924,"ĠEp":7925,"âĻ«":7926,"Ġmassive":7927,"47":7928,"ĠAD":7929,"ĠPyr":7930,"Ġpride":7931,"Ġcharged":7932,"ART":7933,"ĠAnton":7934,"Ġhousing":7935,"ĠPalace":7936,"ui":7937,"Ġbeating":7938,"osis":7939,"Ġgrade":7940,"Ġdepth":7941,"Ġpersu":7942,"Ġpersons":7943,"ĠInternet":7944,"Ġugly":7945,"Ġvoices":7946,"EST":7947,"Ġcompeted":7948,"Ġmunicipalities":7949,"Ġengineering":7950,"anes":7951,"Ġwhist":7952,"ĠHans":7953,"ĠUs":7954,"ciences":7955,"Ġmoments":7956,"ĠConference":7957,"Ġpositions":7958,"Ġillust":7959,"ĠOlympic":7960,"Ġcou":7961,"Ġreject":7962,"ĠSom":7963,"Ġblocks":7964,"ĠArthur":7965,"Ġbits":7966,"fecture":7967,"maybe":7968,"Ã´":7969,"onents":7970,"Ġfil":7971,"andal":7972,"Ġ1920":7973,"Ġbetray":7974,"Ġinterrupt":7975,"rad":7976,"rete":7977,"Ġattacks":7978,"Ġidentified":7979,"Ġgal":7980,"bsolutely":7981,"ĠYOUR":7982,"Ġintroduce":7983,"Ġliquid":7984,"Mc":7985,"ĠAS":7986,"Ġmarks":7987,"Ġprisoners":7988,"Ġsacrif":7989,"cut":7990,"Ġbul":7991,"Ġbeast":7992,"aze":7993,"Ġmonkey":7994,"ships":7995,"ĠGolden":7996,"epend":7997,"Ġcats":7998,"ĠNever":7999,"Ġaccur":8000,"Ġrelief":8001,"Ġcombination":8002,"ĠJustice":8003,"than":8004,"ĠRoger":8005,"Ġhighway":8006,"ĠIndones":8007,"ĠCarter":8008,"Ä«":8009,"enly":8010,"Ġstolen":8011,"class":8012,"Ġfeather":8013,"otted":8014,"Ġextend":8015,"Ġlesson":8016,"Ġopera":8017,"Ġoperated":8018,"Ġcontrolled":8019,"great":8020,"ooh":8021,"ĠStory":8022,"Ġcharges":8023,"Ġminds":8024,"Ġ1952":8025,"Ġshortly":8026,"Ġprepare":8027,"Ġcruel":8028,"Sim":8029,"nel":8030,"ĠOz":8031,"Ġdecisions":8032,"ĠAtt":8033,"ammad":8034,"Ġoxygen":8035,"Bar":8036,"OH":8037,"ĠSure":8038,"those":8039,"ĠCentre":8040,"Ġpoetry":8041,"Ġscholar":8042,"Ġing":8043,"Ġacts":8044,"Ġstatistics":8045,"Ġchairman":8046,"Super":8047,"pea":8048,"atically":8049,"esome":8050,"ĠBor":8051,"ĠBow":8052,"Ġrode":8053,"ĠAnth":8054,"Ġchecked":8055,"Ġindependence":8056,"ĠSaud":8057,"ĠBBC":8058,"oster":8059,"ĠStation":8060,"Ġreplace":8061,"ĠUSA":8062,"Ġbehavior":8063,"uable":8064,"Â²":8065,"ĠÎ":8066,"Ġbon":8067,"Ġpity":8068,"ĠBos":8069,"Ġarts":8070,"Ġimpression":8071,"Ġcolumn":8072,"HL":8073,"Ġpages":8074,"icing":8075,"velopment":8076,"Ġsolo":8077,"ĠCommon":8078,"Ġhorror":8079,"Ġarranged":8080,"Ġpromoted":8081,"usive":8082,"ogue":8083,"Ġheaded":8084,"azed":8085,"Ġprovides":8086,"Ġalbums":8087,"Ġgenus":8088,"ĠPolice":8089,"Ġaffair":8090,"Ġpleasant":8091,"ĠAlexander":8092,"Ġvehicle":8093,"ĠKennedy":8094,"ĠAff":8095,"Ġanaly":8096,"ĠBru":8097,"ateful":8098,"Ġgranted":8099,"IST":8100,"chers":8101,"Aren":8102,"woman":8103,"Ġsoup":8104,"Ġvir":8105,"Ġvast":8106,"Ġremove":8107,"Ġsteam":8108,"Ġcopies":8109,"ĠSydney":8110,"fly":8111,"Ġtheatre":8112,"Ġlion":8113,"Ġnuts":8114,"icity":8115,"ĠHard":8116,"ĠTour":8117,"Ġguests":8118,"Ġchildhood":8119,"Ġpersonality":8120,"Ġpossibility":8121,"Ġpilot":8122,"rary":8123,"Ġcrop":8124,"anges":8125,"ĠChannel":8126,"Ġinterpret":8127,"Ġalongside":8128,"Ġtrem":8129,"Ġbedroom":8130,"ographer":8131,"Ġtelephone":8132,"want":8133,"inton":8134,"Ġ1942":8135,"ursday":8136,"amental":8137,"Alex":8138,"TV":8139,"Ġdea":8140,"Ġpiss":8141,"prise":8142,"Ġoccas":8143,"Ġfigured":8144,"Ġillness":8145,"ICE":8146,"Ġliterally":8147,"Ġelder":8148,"itter":8149,"Ġment":8150,"Ġyard":8151,"acc":8152,"ĠKat":8153,"Ġ1956":8154,"Ġcontrovers":8155,"Ġdevice":8156,"Ġvolunte":8157,"Brother":8158,"ĠÂ¶":8159,"Ġdomestic":8160,");":8161,"Besides":8162,"Ġhockey":8163,"ĠDie":8164,"Ġrising":8165,"ĠRa":8166,"Ġspite":8167,"Ġanswers":8168,"ĠTechn":8169,"48":8170,"NE":8171,"Ã©nÃ©":8172,"Ġdefined":8173,"Ġdivide":8174,"Ġquietly":8175,"ĠFire":8176,"ĠJam":8177,"ĠBeach":8178,"Ġconfirmed":8179,"Ant":8180,"tical":8181,"Ġtorn":8182,"itled":8183,"Ġtoile":8184,"Ġshift":8185,"iev":8186,"omething":8187,"aved":8188,"Ġpoem":8189,"Ġ75":8190,"Ġprojects":8191,"Ġdocuments":8192,"ĠMexican":8193,"Ġped":8194,"ĠKy":8195,"Ġheadquarters":8196,"Ġnights":8197,"Ġlanded":8198,"Ġvillages":8199,"Ġinjury":8200,"Ġphilosophy":8201,"George":8202,"Ġbike":8203,"ĠMo":8204,"ĠBat":8205,"Ġstranger":8206,"Ġtries":8207,"Ġconfused":8208,"Ġappointment":8209,"ĠChampionships":8210,"ĠHug":8211,"Ġteen":8212,"Ġacted":8213,"Black":8214,"ĠRegion":8215,"Ġreduce":8216,"ĠAlp":8217,"ĠHolly":8218,"igen":8219,"Ġunlike":8220,"ructed":8221,"Ġsites":8222,"Ġequals":8223,"Ġnaturally":8224,"Hen":8225,"fin":8226,"fred":8227,"tan":8228,"Ġassociation":8229,"ifer":8230,"ĠOpen":8231,"ĠInc":8232,"Ġ1941":8233,"ĠReally":8234,"Ġjournalist":8235,"SO":8236,"Ġfestival":8237,"Ġselection":8238,"Ġdesert":8239,"Ġoblig":8240,"Ġlistened":8241,"Ġexciting":8242,"Ġdifficulty":8243,"Ġtaxes":8244,"Ġmachines":8245,"Ġprinciple":8246,"Cor":8247,"Cong":8248,"ifts":8249,"Ġprofit":8250,"Ġuns":8251,"Ġfounder":8252,"aughters":8253,"Ġfortune":8254,"Ġoccupied":8255,"mission":8256,"Ġloyal":8257,"Were":8258,"Ġfacts":8259,"Ġentrance":8260,"Ġmystery":8261,"bie":8262,"arah":8263,"aser":8264,"Ġsemi":8265,"opher":8266,"Ġrice":8267,"Ġopposed":8268,"Ġsumm":8269,"Ġangle":8270,"nesday":8271,"orus":8272,"Ġgor":8273,"uster":8274,"ĠHamp":8275,"ĠBase":8276,"Ġregist":8277,"Ġassigned":8278,"OUT":8279,"ĠAirport":8280,"Ġiniti":8281,"49":8282,"care":8283,"know":8284,"Ġdumb":8285,"omi":8286,"Ġnarr":8287,"ĠCall":8288,"ĠBah":8289,"Ġputs":8290,"Ġinvented":8291,"Ġestimated":8292,"Ġabandoned":8293,"Ġcore":8294,"Ġphen":8295,"alem":8296,"Fe":8297,"ĠFederal":8298,"Ġdedicated":8299,"nat":8300,"Ġsed":8301,"Ġdiscovery":8302,"Ġ1948":8303,"Ġ1959":8304,"Ġtransferred":8305,"Ġintelligence":8306,"icians":8307,"etime":8308,"Ġpersonally":8309,"iki":8310,"zech":8311,"ĠTommy":8312,"Ġviolent":8313,"Ġstruggle":8314,"Ġbabies":8315,"Ġfiction":8316,"esc":8317,"Ġgrey":8318,"agger":8319,"ĠDeath":8320,"Ġboats":8321,"Ġfactor":8322,"Ġreviews":8323,",âĢĻ":8324,"Ġbom":8325,"Ġcert":8326,"ithm":8327,"ĠHim":8328,"ĠRel":8329,"ategy":8330,"orton":8331,"ĠChap":8332,"ĠGuard":8333,"Ġsecretary":8334,"itable":8335,"ĠHappy":8336,"ĠOur":8337,"Ġmusician":8338,"Ġmodels":8339,"Ġprisoner":8340,"Ġmaximum":8341,"46":8342,"Rich":8343,"Sam":8344,"away":8345,"Ġsought":8346,"ĠWalk":8347,"ĠWild":8348,"Ġplastic":8349,"Ġstrategy":8350,"Ġbitter":8351,"ĠAlbert":8352,"Ġmetres":8353,"Ġdrinks":8354,"Ġcausing":8355,"Ġaffairs":8356,"Long":8357,"onoun":8358,"erable":8359,"Ġdating":8360,"Ġstable":8361,"ardens":8362,"Ġmoral":8363,"ĠBible":8364,"oli":8365,"ordinary":8366,"Ġassign":8367,"75":8368,"Ma":8369,"bra":8370,"anting":8371,"ĠGi":8372,"hings":8373,"Ġsympt":8374,"95":8375,"Add":8376,"IA":8377,"Ġhills":8378,"ĠLO":8379,"ĠKl":8380,"Ġmighty":8381,"akespea":8382,"Ġjumped":8383,"Probably":8384,"):":8385,"Mart":8386,"Old":8387,"Ġpants":8388,"ĠRoss":8389,"Ġepisodes":8390,"âĢİ.":8391,"akespeare":8392,"General":8393,"Ġyards":8394,"ĠSher":8395,"ĠCD":8396,"eable":8397,"Ġshake":8398,"Ġshook":8399,"emet":8400,"agers":8401,"uesday":8402,"Ġdeveloping":8403,"Ġbenefits":8404,"ĠGreece":8405,"Ġdragon":8406,"Robert":8407,"Ġfasc":8408,"Ġdude":8409,"Ġeager":8410,"ĠBal":8411,"Ġknees":8412,"ĠRyan":8413,"ĠLes":8414,"ĠEarl":8415,"ĠRailway":8416,"ĠDouglas":8417,"Ġinspired":8418,"ĠWin":8419,"Ġjew":8420,"ĠUP":8421,"Ġgray":8422,"Ġ150":8423,"Somebody":8424,"ĠSweden":8425,"stan":8426,"ĠAli":8427,"ulse":8428,"Ġrush":8429,"ĠFord":8430,"icking":8431,"Ġimages":8432,"Ġfourteen":8433,"pected":8434,"Ġdeeply":8435,"Ġregarded":8436,"Ġpermanent":8437,"press":8438,"Ġwound":8439,"Ġbone":8440,"thm":8441,"Ġattached":8442,"Ġlands":8443,"Ġpractical":8444,"Ġprincipal":8445,"Ġbehavi":8446,"ĠHawai":8447,"ĠIraq":8448,"Aw":8449,"Red":8450,"Ġpup":8451,"Ġgathered":8452,"Ġstab":8453,"Ġstairs":8454,"ĠTell":8455,"ĠRE":8456,"abe":8457,"ARD":8458,"Ġnecessarily":8459,"Ġbegun":8460,"Bob":8461,"Comp":8462,"Down":8463,"last":8464,"Ġtunn":8465,"omed":8466,"ples":8467,"Ġletting":8468,"Ġcrown":8469,"Ġmargin":8470,"Ġdefense":8471,"Ġdiscussion":8472,"ĠRepresentatives":8473,"ennessee":8474,"GR":8475,"atures":8476,"Ġcooper":8477,"Ġdun":8478,"ando":8479,"ĠGer":8480,"Ġnoble":8481,"ubs":8482,"Ġsmooth":8483,"Ġswall":8484,"Ġreflect":8485,"ĠHonor":8486,"idel":8487,"ĠAvenue":8488,"olves":8489,"ĠNOT":8490,"Ġleaf":8491,"Ġ1954":8492,"Ġawake":8493,"Ġtender":8494,"dr":8495,"got":8496,"icit":8497,"ĠTake":8498,"aks":8499,"Ġspons":8500,"Ġinsult":8501,"Ġrear":8502,"section":8503,"urches":8504,"ĠWait":8505,"ĠOper":8506,"Ġwanting":8507,"--\"":8508,"Ġthrone":8509,"Ġcricket":8510,"Ġ48":8511,"ĠNothing":8512,"Ġintellect":8513,"Ġconstitu":8514,"Ġrevenge":8515,"Ġrivers":8516,"onym":8517,"Ġfootballer":8518,"Ġbowl":8519,"rine":8520,"Ġdat":8521,"adelph":8522,"ĠCreek":8523,"ĠStand":8524,"Ġstudying":8525,"Ġvideos":8526,"Ġinitially":8527,"cil":8528,"Ġstir":8529,"been":8530,"hens":8531,"Ġversions":8532,"Ġcycle":8533,"Ġmirror":8534,"Ġthir":8535,"Ġinfect":8536,"Ġrope":8537,"Ġprices":8538,"Ġ1957":8539,"Ġillegal":8540,"Ġinjured":8541,"Ġpaintings":8542,"ĠHolmes":8543,"West":8544,"foot":8545,"ĠGre":8546,"igration":8547,"ugg":8548,"Ġ400":8549,"Ġrescue":8550,"Work":8551,"istol":8552,"ĠRos":8553,"ĠStone":8554,"Ġ1955":8555,"Ġfairy":8556,"bourg":8557,"Ġsubjects":8558,"adelphia":8559,"42":8560,"Rel":8561,"Ġticket":8562,"Ġthrill":8563,"ĠSid":8564,"Ġforb":8565,"Ġenorm":8566,"Ġfunctions":8567,"Ġservant":8568,"Ġappearances":8569,"Ġfrequently":8570,"ĠMargaret":8571,"Ġstones":8572,"ĠDam":8573,"Ġcontext":8574,"asket":8575,"Ġengineer":8576,"Ã©nÃ©es":8577,"BLE":8578,"Mum":8579,"Ġfart":8580,"alia":8581,"ĠHart":8582,"ĠKu":8583,"Ġimplement":8584,"Ġeighteen":8585,"Ġ1939":8586,"Ġtechnical":8587,"Ġkilomet":8588,"Ġurban":8589,"Ġdates":8590,"abet":8591,"Ġoutput":8592,"Ġrecon":8593,"liver":8594,"THAT":8595,"Ġdepos":8596,"Spe":8597,"rip":8598,"Ġproperties":8599,"Ġzone":8600,"Ġexperienced":8601,"Ġnickn":8602,"emetery":8603,"first":8604,"note":8605,"Ġstarring":8606,"ĠCop":8607,"Ġracing":8608,"Ġslaves":8609,"ATE":8610,"ĠSerb":8611,"Ġrelatively":8612,"ĠConfeder":8613,"ĠChairman":8614,"aft":8615,"hh":8616,"âĶ":8617,"ĠCir":8618,"uese":8619,"Death":8620,"ĠFoundation":8621,"dog":8622,"ĠIce":8623,"ĠJos":8624,"asted":8625,"Stand":8626,"Ġlargely":8627,"Ġvisible":8628,"bro":8629,"dist":8630,"dale":8631,"Ġdaughters":8632,"icky":8633,"hedron":8634,"Ġhistoric":8635,"Ġmanufacture":8636,"anchester":8637,"Ġfantastic":8638,"Par":8639,"race":8640,"through":8641,"ĠOUT":8642,"Ġelimin":8643,"Ġsouthwestern":8644,"Ġsnake":8645,"Ġadmitted":8646,"Ġfacilities":8647,"Ġprecise":8648,"Atlant":8649,"ĠHo":8650,"ĠWas":8651,"uled":8652,"ĠGame":8653,"phas":8654,"Mmm":8655,"Ġclaims":8656,"ĠTurkey":8657,"Ġastron":8658,"found":8659,"inced":8660,"Ġoption":8661,"ĠCost":8662,"Ġformal":8663,"ĠMaryland":8664,"Each":8665,"fire":8666,"gas":8667,"je":8668,"Ã¦":8669,"Ġrein":8670,"ĠWeb":8671,"rows":8672,"Ġrestrict":8673,"Ġequation":8674,"Ġannoy":8675,"III":8676,"Without":8677,"Ġportion":8678,"kind":8679,"ĠPot":8680,"ules":8681,"ĠGro":8682,"weight":8683,"Ġcrap":8684,"rett":8685,"Ġparliament":8686,"aughing":8687,"Ġinnit":8688,"Ġbesides":8689,"keeper":8690,"ĠPyrÃ©nÃ©es":8691,"Har":8692,"Ġmama":8693,"Ġfed":8694,"ĠTs":8695,"ĠPete":8696,"Ġexplanation":8697,"jection":8698,"Ġpour":8699,"omic":8700,"ĠCard":8701,"ĠFinn":8702,"ĠNi":8703,"ĠCommun":8704,"ĠColor":8705,"Ġdelivered":8706,"gun":8707,"ĠCro":8708,"Ġaccused":8709,"ĠCorporation":8710,"Foot":8711,"Ġlt":8712,"orted":8713,"Ġnewly":8714,"ddie":8715,"Ġglasses":8716,"Ġscarce":8717,"Find":8718,"erted":8719,"ĠTennessee":8720,"Ġ\"\"":8721,"ĠGil":8722,"ersonal":8723,"Ġworldwide":8724,"Ġformation":8725,"Ġwarri":8726,"Ġsooner":8727,"ĠAustrian":8728,"Ġstarred":8729,"Ġstores":8730,"Ġsurvived":8731,"orage":8732,"celer":8733,"Ġworship":8734,"ĠOnt":8735,"again":8736,"ensions":8737,"Ġcops":8738,"Ġphotos":8739,"dÃ©part":8740,"Ġbid":8741,"ĠSn":8742,"ĠALL":8743,"Ġworn":8744,"Ġsmiled":8745,"upon":8746,"ĠAnna":8747,"Ġ1938":8748,"Ġgrandfather":8749,"ĠResearch":8750,"Ġpunishment":8751,"Sw":8752,"ĠTed":8753,"people":8754,"Ġrepresenting":8755,"Ġconducted":8756,"pol":8757,"Ġcattle":8758,"Ġtrunk":8759,"ordan":8760,"Ġsmiling":8761,"Ġasks":8762,"formation":8763,"Goodbye":8764,"Ġannounce":8765,"Ġshopping":8766,"Ġheavily":8767,"Cr":8768,"Ġwo":8769,"lly":8770,"Ġinner":8771,"utt":8772,"ĠOtt":8773,"Ġvice":8774,"Ġmedium":8775,"Ġ1958":8776,"evin":8777,"Ġvoted":8778,"Ġbond":8779,"ĠMm":8780,"Ġneut":8781,"Ġscenes":8782,"Ġstrip":8783,"King":8784,"UD":8785,"Ġcave":8786,"ĠPict":8787,"unter":8788,"ĠLead":8789,"Ġconfident":8790,"Ġprimarily":8791,"ifferent":8792,"Kill":8793,"ĠFC":8794,"ĠForm":8795,"Ġconven":8796,"derer":8797,"ĠLeon":8798,"asked":8799,"Ġstraw":8800,"bourne":8801,"President":8802,"uy":8803,"Ġhm":8804,"Ġpipe":8805,"Ġlately":8806,"ĠWel":8807,"Ġcann":8808,"Ġnowhere":8809,"Ġbug":8810,"Ġentry":8811,"Ġorganizations":8812,"ippi":8813,"Ġclimb":8814,"oscow":8815,"AV":8816,"Happy":8817,"Son":8818,"orf":8819,"iden":8820,"ĠHad":8821,"usting":8822,"berry":8823,"Ġbranches":8824,"Ġ1946":8825,"Ben":8826,"burn":8827,"Ġbold":8828,"Ġhunt":8829,"ĠAM":8830,"ĠCE":8831,"ĠMir":8832,"tery":8833,"Forget":8834,"ĠDaddy":8835,"Ġleadership":8836,"IFA":8837,"hum":8838,"pan":8839,"pur":8840,"ĠWhe":8841,"ĠOw":8842,"ĠVol":8843,"Ġassault":8844,"ertainly":8845,"ĠBarb":8846,"Ġashamed":8847,"BI":8848,"Want":8849,"Ġbra":8850,"Ġtool":8851,"Ġnotable":8852,"ulgar":8853,"hedral":8854,"Until":8855,"mill":8856,"ĠBalt":8857,"ilda":8858,"bec":8859,"ĠShut":8860,"Ġtests":8861,"Ġabsor":8862,"Ġacquired":8863,"Twenty":8864,"Pat":8865,"Ġtap":8866,"ĠCzech":8867,"ĠPower":8868,"Ġstops":8869,"Ġapologize":8870,"Atlantiques":8871,"ĠBea":8872,"ĠBrian":8873,"ĠRo":8874,"Ġgrace":8875,"Ġdisg":8876,"Ġshoulders":8877,"Ġslide":8878,"Ġdeaths":8879,"Ġjoining":8880,"Ġ1953":8881,"Ġvector":8882,"%.":8883,"dam":8884,"rors":8885,"Ġfulf":8886,"ĠTest":8887,"Ġrates":8888,"ĠFle":8889,"Ġcorpor":8890,"ragon":8891,"Ġsacred":8892,"Rob":8893,"net":8894,"ieur":8895,"Ġintention":8896,"neath":8897,"Doctor":8898,"Ġextent":8899,"Ġofficials":8900,"ĠLawrence":8901,"rison":8902,"onies":8903,"ĠCAN":8904,"ags":8905,"ĠUt":8906,"Ġ38":8907,"arrondissement":8908,"Ġconvinced":8909,"Ġthreatened":8910,"Ġdivorce":8911,"Ġupd":8912,"Ġsingles":8913,"Ġconfirm":8914,"ĠPhilip":8915,"Absolutely":8916,"Ġbeings":8917,"ĠCensus":8918,"ĠHistor":8919,"ĠBall":8920,"ĠGreg":8921,"Ġ1943":8922,"Ġdescription":8923,"Ġexisting":8924,"Ġsurrounding":8925,"--------":8926,"Phil":8927,"Ġathlet":8928,"rm":8929,"Ġbot":8930,"orious":8931,"Ġtow":8932,"Ġtoy":8933,"ĠARE":8934,"acked":8935,"Ġwhoa":8936,"iped":8937,"ints":8938,"Ġguide":8939,"din":8940,"rim":8941,"iner":8942,"Ġsang":8943,"onze":8944,"lete":8945,"irts":8946,"ĠMoo":8947,"Ġknocked":8948,"romise":8949,"Ġrefers":8950,"Ġhurts":8951,"Ġpossession":8952,"Ġresidents":8953,"Ġretirement":8954,"ĠOntario":8955,"MS":8956,"Ġmud":8957,"ĠSC":8958,"Ġalgor":8959,"ĠKer":8960,"Ġ1951":8961,"Ġgenius":8962,"Ġlicense":8963,"Ġempire":8964,"Ġincredible":8965,"pent":8966,"esse":8967,"ĠRus":8968,"osity":8969,"ĠJay":8970,"Ġobtained":8971,"Ġpassengers":8972,"Ġinstructions":8973,"SH":8974,"wind":8975,"Ġmal":8976,"Ġinput":8977,"ĠCe":8978,"ĠDa":8979,"iga":8980,"Ġprecious":8981,"Ġdifferences":8982,"Ġpasses":8983,"Ġsixteen":8984,"Ġhoped":8985,"ĠJacob":8986,"dÃ©partement":8987,"Ġfoss":8988,"Ġnations":8989,"ĠBaby":8990,"ĠLind":8991,"ĠJin":8992,"Ġoffers":8993,"ĠAndy":8994,"Ġtypically":8995,"ĠRobin":8996,"lNG":8997,"hus":8998,"Å«":8999,"Ġ+":9000,"itched":9001,"Ġmamm":9002,"Ġfaint":9003,"Ġnaked":9004,"ĠGa":9005,"agne":9006,"Ġdisturb":9007,"Ġarticles":9008,"Ġopposition":9009,"Ġinvolve":9010,"Ġcapture":9011,"Ġruin":9012,"'?":9013,"Mary":9014,"bach":9015,"Ġselect":9016,"Ġskill":9017,"ĠPlan":9018,"Ġphysics":9019,"ĠPhiladelphia":9020,"DO":9021,"oa":9022,"itals":9023,"Ġpi":9024,"Ġlover":9025,"eters":9026,"rive":9027,"ĠAdd":9028,"Ġdece":9029,"Ġchamber":9030,"Ġages":9031,"theless":9032,"Ġlanding":9033,"Ġhosted":9034,"Ġidentify":9035,"Ġideal":9036,"Ġemotional":9037,"Ġexpedition":9038,"spe":9039,"Ġtherap":9040,"Ġfaced":9041,"Ġincl":9042,"ĠAut":9043,"issippi":9044,"Ġgreatly":9045,"Ġreputation":9046,"Ġallowing":9047,"Ġexpecting":9048,"Ġcritics":9049,"Doesn":9050,"Ġdebate":9051,"Ġcustomers":9052,"ĠSaudi":9053,"RS":9054,"ROM":9055,"oration":9056,"ĠRober":9057,"ĠKr":9058,"Ġstrateg":9059,"Ġconsid":9060,"Ġprayer":9061,"oard":9062,"whe":9063,"Ġwicked":9064,"ĠCape":9065,"eline":9066,"resents":9067,"Ġsmoking":9068,"Ġmeetings":9069,"Ġtesting":9070,"Trans":9071,"ĠSimon":9072,"Ġarchitecture":9073,"IP":9074,"LES":9075,"Run":9076,"rec":9077,"Ġfab":9078,"ĠIV":9079,"Step":9080,"Ġachieved":9081,"ĠPad":9082,"ĠPra":9083,"ĠLA":9084,"ĠNik":9085,"odge":9086,"issa":9087,"Ġcarriage":9088,"Ġevident":9089,"Ġ1936":9090,"Ġ1937":9091,"ĠMinnes":9092,"Ġexisted":9093,"lectric":9094,"ĠMedic":9095,"Ġearliest":9096,"Ġrenamed":9097,"uv":9098,"anwhile":9099,"ĠBilly":9100,"ĠFIFA":9101,"Ġagency":9102,"Ġpurple":9103,"Ġdawn":9104,"Ġjacket":9105,"Ġanxious":9106,"Ġdelicious":9107,"Ġrapidly":9108,"Ġdefinition":9109,"Ġmales":9110,"antry":9111,"Ġassass":9112,"Ġemperor":9113,"ĠCommander":9114,"Ġarrive":9115,"Ġspirits":9116,"Ġlatest":9117,"ĠVietnam":9118,"Norm":9119,"Ġtooth":9120,"ĠBush":9121,"osure":9122,"Ġsheet":9123,"pert":9124,"olley":9125,"Ġflash":9126,"Ġfrank":9127,"Ġgradually":9128,"Ġgarage":9129,"Ġroughly":9130,"Ġexclaimed":9131,"41":9132,"ĠMoon":9133,"ĠField":9134,"Ġadjust":9135,"Ġkinda":9136,"Ġadding":9137,"omot":9138,"Ġstadium":9139,"ĠGET":9140,"Ġclosing":9141,"Show":9142,"Ġsatell":9143,"Ġwooden":9144,"Ġinternal":9145,"ĠToronto":9146,"Ġadventure":9147,"ĠPremier":9148,"Ġdiplom":9149,"Ġneat":9150,"these":9151,"avia":9152,"gines":9153,"Star":9154,"Ġyoungest":9155,"iscons":9156,"Ġcollected":9157,"ĠTurkish":9158,"lar":9159,"raine":9160,"render":9161,"Ġwheels":9162,"udes":9163,"Ġinteract":9164,"Ġpicking":9165,"borough":9166,"Ġfocused":9167,"Ġadults":9168,"Ġreckon":9169,"Ġtoilet":9170,"Ob":9171,"ĠBud":9172,"ĠNO":9173,"Ġgrateful":9174,"Ã¡n":9175,"Ġfemales":9176,"\";":9177,"Lou":9178,"Talk":9179,"Ġthorough":9180,"ĠJoh":9181,"ĠEve":9182,"Ġuseless":9183,"Ġproport":9184,"rait":9185,"Ġcoordin":9186,"Ġobtain":9187,"Ġstrongly":9188,"Ġtemporary":9189,"Ġemployed":9190,"Ġcabin":9191,"Ġsample":9192,"Ġacademic":9193,"isconsin":9194,"Co":9195,"None":9196,"ĠAy":9197,"inder":9198,"lesh":9199,"Ġappropriate":9200,"ĠThursday":9201,"tainment":9202,"pective":9203,"Ġsubt":9204,"Ġprominent":9205,"Ġthrowing":9206,"Ġfarmers":9207,"Ġfoolish":9208,"Ġtalent":9209,"ĠHarris":9210,"ĠMinnesota":9211,"eenth":9212,"Ġfake":9213,"Ġserves":9214,"Ġ33":9215,"Ġlasted":9216,"ĠSpirit":9217,"Ġexpressed":9218,"iverpool":9219,"ĠMountain":9220,"Ġwriters":9221,"Honey":9222,"bage":9223,"Ġtiss":9224,"Ġbend":9225,"Ġseed":9226,"ĠEnd":9227,"ancer":9228,"Ask":9229,"ĠFrancis":9230,"Res":9231,"fa":9232,"Ġsna":9233,"oni":9234,"Ġnap":9235,"ĠMoscow":9236,"Ġseized":9237,"ĠNag":9238,"aba":9239,"ologists":9240,"ĠSpring":9241,"Ġpulling":9242,"ĠSpecial":9243,"ĠPortuguese":9244,"43":9245,"zing":9246,"Ä±":9247,"ĠKings":9248,"ĠShakespeare":9249,"Ġexplore":9250,"Ġearthqu":9251,"Ġfacility":9252,"master":9253,"pers":9254,"six":9255,"Ġisol":9256,"ghan":9257,"unities":9258,"ĠWag":9259,"ĠRem":9260,"Ġven":9261,"ucker":9262,"Ġstrict":9263,"Ġdecre":9264,"Ġstepped":9265,"Ġpolicies":9266,"ĠSarah":9267,"ĠBangl":9268,"âĶĢ":9269,"Ow":9270,"ĠEconom":9271,"onsieur":9272,"ĠShah":9273,"Ġinvasion":9274,"Ġreply":9275,"Ġ1934":9276,"Ġprotected":9277,"ĠMedia":9278,"ĠSenator":9279,"Ġcelebrate":9280,"Ġrepeat":9281,"Ġsatisfied":9282,"ĠHeaven":9283,"British":9284,"Que":9285,"dle":9286,"miral":9287,"world":9288,"ownt":9289,"ĠRu":9290,"Ġsplend":9291,"everal":9292,"Ġopens":9293,"ĠMinistry":9294,"Ġrecognition":9295,"Ġdollar":9296,"cia":9297,"Ġic":9298,"Ġward":9299,"Ġcoc":9300,"Ġfer":9301,"Ġyield":9302,"urrent":9303,"ĠBurn":9304,"Ġfactors":9305,"ĠGrant":9306,"ĠTokyo":9307,"97":9308,"ridge":9309,"Ġtub":9310,"Ġtoast":9311,"acles":9312,"ĠHas":9313,"Ġrural":9314,"Ġprosec":9315,"Ġfled":9316,"Ġparallel":9317,"Better":9318,"really":9319,"Ġgra":9320,"Ġwhale":9321,"iper":9322,"cca":9323,"Ġunderground":9324,"ĠArm":9325,"Ġacceler":9326,"Start":9327,"insula":9328,"Ġreasonable":9329,"Ġexception":9330,"cules":9331,"ĠArea":9332,"ĠTaylor":9333,"Had":9334,"mont":9335,"Ġpension":9336,"ĠAriz":9337,"ĠPo":9338,"opter":9339,"ĠDown":9340,"hesis":9341,"ARR":9342,"Ġ1949":9343,"Ġwondered":9344,"Ġconstantly":9345,"Ġvaluable":9346,"Ġaccounts":9347,"Quick":9348,"ĠSwedish":9349,"Ġsymptoms":9350,"Ġraces":9351,"ĠGib":9352,"ĠGene":9353,"Ġclin":9354,"Ġstandards":9355,"Ġproviding":9356,"ĠSergeant":9357,"Ġclothing":9358,"Play":9359,"spector":9360,"ĠArgentina":9361,"uter":9362,"rying":9363,"Ġoffering":9364,"Ġerror":9365,"iami":9366,"Ġanimated":9367,"Ġabsolute":9368,"ĠOfficer":9369,"!!":9370,"Ev":9371,"Such":9372,"fare":9373,"Ġdign":9374,"ĠSard":9375,"ĠPa":9376,"Ġexha":9377,"Ġmovements":9378,"Ġparticipated":9379,"Ġfond":9380,"ĠTheatre":9381,"Ġpartly":9382,"hoot":9383,"Ġhanded":9384,"Ġminimum":9385,"Ġformat":9386,"Ġairpl":9387,"Ġtitles":9388,"Ġpurposes":9389,"Ġlifted":9390,"Ġslipped":9391,"Music":9392,"Hang":9393,"Ġbars":9394,"ĠBishop":9395,"ĠEric":9396,"ĠArmen":9397,"ĠSwiss":9398,"Ġcleaning":9399,"ĠMuslim":9400,"Ġconsiderable":9401,"Ġbreathing":9402,"Hon":9403,"even":9404,"oria":9405,"lets":9406,"Ġreaching":9407,"ĠBand":9408,"iah":9409,"Ġengines":9410,"Ġextensive":9411,"Ġadvoc":9412,"Ġconstructed":9413,"Ġamongst":9414,"Ġruined":9415,"Ġexperiences":9416,"Career":9417,"ĠNetwork":9418,"44":9419,"Ġfrag":9420,"alph":9421,"Ġshops":9422,"ĠFree":9423,"Ġintent":9424,"ĠStop":9425,"Ġdisag":9426,"Ġobst":9427,"Ġkidna":9428,"Ġpor":9429,"owell":9430,"adi":9431,"adies":9432,"iry":9433,"Its":9434,"Ġtwin":9435,"Ġcontained":9436,"yeh":9437,"ĠEngine":9438,"Ġservants":9439,"Ġspecifically":9440,"jud":9441,"rot":9442,"such":9443,"Ġbay":9444,"Ġinher":9445,"Ġloving":9446,"ilst":9447,"ĠTuesday":9448,"olve":9449,"uma":9450,"shit":9451,"Ġsupper":9452,"Ġsurvey":9453,"ierre":9454,"ĠBeat":9455,"ĠAdminist":9456,"Ġmolec":9457,"Ġnortheast":9458,"Ġsacrifice":9459,"gers":9460,"hal":9461,"walk":9462,"Ġboring":9463,"Ġhits":9464,"ĠHal":9465,"ĠWisconsin":9466,"Ġoffices":9467,"ective":9468,"Ġrepresents":9469,"ĠTrump":9470,"scape":9471,"Ġessentially":9472,"Ġphrase":9473,"Es":9474,"Ġwow":9475,"ĠPitt":9476,"before":9477,"Ġlongest":9478,"Ġcrimes":9479,"Ġemphas":9480,"ĠConne":9481,"Ġrailroad":9482,"ĠMountains":9483,"Ġconclusion":9484,"Sub":9485,"rin":9486,"heastern":9487,"Ġtheater":9488,"Ġbass":9489,"Ġpushing":9490,"ĠMu":9491,"Ġtrap":9492,"Ġdistant":9493,"Ġ65":9494,"lon":9495,"atoes":9496,"ĠToday":9497,"istical":9498,"Ġgrant":9499,"ĠThus":9500,"shot":9501,"Ġresign":9502,"ĠGermans":9503,"Ġcomputers":9504,"Ġinfluenced":9505,"65":9506,"Ġurg":9507,"Ġnonsense":9508,"ĠDON":9509,"assador":9510,"Ġbelt":9511,"Charl":9512,"Ġdamaged":9513,"ĠMatthew":9514,"ratulations":9515,"Ġaccompan":9516,"Must":9517,"Mike":9518,"new":9519,"uct":9520,"Ġaired":9521,"Ġbacter":9522,"ĠHor":9523,"ĠLI":9524,"bery":9525,"endment":9526,"avan":9527,"Ġphase":9528,"ĠSteven":9529,"Check":9530,"Ġholy":9531,"ĠDak":9532,"Ġrabbit":9533,"ĠRun":9534,"Ġpros":9535,"soft":9536,"izard":9537,"shine":9538,"Ġclassic":9539,"Ġapproved":9540,"Ġpenal":9541,"Ġbeaten":9542,"Ġvariable":9543,"ĠHollywood":9544,"Ġenormous":9545,"Dear":9546,"Sch":9547,"Ġooh":9548,"Ġmath":9549,"ingle":9550,"Ġlap":9551,"ĠCON":9552,"Ġgosh":9553,"ĠWars":9554,"Ġeveryday":9555,"INE":9556,"Ġbusinessman":9557,"former":9558,"Ġmurderer":9559,"Ġinnov":9560,"Ġgraduate":9561,"Ġnewspapers":9562,"erick":9563,"enz":9564,"Ġhated":9565,"ĠBol":9566,"Ġchurches":9567,"Ġtribe":9568,"ĠClark":9569,"Ġboxes":9570,"Ġextraordinary":9571,"ĠWednesday":9572,"DP":9573,"FF":9574,"run":9575,"Ġvel":9576,"utiful":9577,"ĠSO":9578,"ĠPoint":9579,"igs":9580,"ungle":9581,"Ġbands":9582,"ĠMorgan":9583,"hard":9584,"Ġhug":9585,"wealth":9586,"ternal":9587,"ĠIndepend":9588,"Ġresear":9589,"Ġbreathe":9590,"Bad":9591,"includ":9592,"aned":9593,"ĠMain":9594,"uration":9595,"urther":9596,"ĠBan":9597,"Ġknee":9598,"ĠGoo":9599,"Ġcha":9600,"Ġsla":9601,"retty":9602,"Ġproducing":9603,"Ġequival":9604,"THER":9605,"uddenly":9606,"ĠTaiwan":9607,"di":9608,"oons":9609,"ĠÅ":9610,"ĠMatt":9611,"ĠHit":9612,"Ġunderneath":9613,"Ġ55":9614,"anguage":9615,"Daddy":9616,"Ġmobile":9617,"Ġdesperate":9618,"ĠColorado":9619,"star":9620,"ĠManchester":9621,"ĠHorn":9622,"ĠWolf":9623,"Ġagents":9624,"ĠStat":9625,"Ġreprodu":9626,"Ġvolcan":9627,"Ġprinted":9628,"Ġaltogether":9629,"music":9630,"Ġunhappy":9631,"Rep":9632,"vation":9633,"Ġtale":9634,"inus":9635,"Ġwra":9636,"ĠGulf":9637,"ĠFa":9638,"ĠFederation":9639,"eling":9640,"ĠEX":9641,"Ġvoc":9642,"Ġflows":9643,"ibilities":9644,"Ġ64":9645,"Ġ1933":9646,"Ġduties":9647,"Ġlob":9648,"ruits":9649,"ATION":9650,"Ġwinds":9651,"ĠDanny":9652,"AKE":9653,"Ġemotion":9654,"ĠWHAT":9655,"ĠArizona":9656,"Bi":9657,"Yo":9658,"acement":9659,"Ġsolar":9660,"Aha":9661,"Ġdetermine":9662,"Ġvacation":9663,"ĠCharlotte":9664,"ELL":9665,"Ġske":9666,"Ġbang":9667,"chair":9668,"ĠKelly":9669,"Ġintend":9670,"Ġadapt":9671,"Ġwherever":9672,"Ġshower":9673,"ĠMars":9674,"Ġwarn":9675,"Ġ1935":9676,"Ġawesome":9677,"Ġarrival":9678,"Ġbags":9679,"Ġseventh":9680,"ĠAffairs":9681,"Ġslavery":9682,"mitted":9683,"Ġbearing":9684,"ĠFame":9685,"ateur":9686,"Ġsufficient":9687,"ogan":9688,"Ã©s":9689,"Ġvessels":9690,"hu":9691,"stream":9692,"ĠAth":9693,"ĠMP":9694,"umble":9695,"ĠNev":9696,"Ġvoy":9697,"Ġsailed":9698,"Ġheading":9699,"Ġentitled":9700,"ĠSquare":9701,"Ġvehicles":9702,"PEAK":9703,"ĠProtest":9704,"gil":9705,"Ġmouse":9706,"Ġvisual":9707,"ĠMiller":9708,"Ġcategory":9709,"wall":9710,"Ã£":9711,"Ġwins":9712,"Ġsorrow":9713,"ĠHockey":9714,"ĠGive":9715,"Ġsaving":9716,"Ġworker":9717,"ĠMississippi":9718,"Ġremarkable":9719,"Ġsatisfact":9720,"ĠDorothy":9721,"Ġbehaviour":9722,"Ġthirteen":9723,"BUT":9724,"die":9725,"vol":9726,"ĠMember":9727,"ĠMaz":9728,"Ġrequires":9729,"Ġimagination":9730,"Ġmysterious":9731,"Fort":9732,"power":9733,"otion":9734,"Ġshoe":9735,"Ġdismiss":9736,"Ġdecent":9737,"ĠCommunity":9738,"Ġsupporting":9739,"Ġvacc":9740,"ĠEgyptian":9741,"WHAT":9742,"UCK":9743,"ds":9744,"ĠâĢĻ":9745,"esh":9746,"Ġthread":9747,"sea":9748,"Ġseeds":9749,"Ġraid":9750,"ĠLim":9751,"Ġgrounds":9752,"List":9753,"gon":9754,"lay":9755,"Ġdwell":9756,"Ġanch":9757,"geous":9758,"Ġcloth":9759,"Ġassess":9760,"Ġpassenger":9761,"Ġswift":9762,"Ġprinciples":9763,"ĠBuddh":9764,"Aah":9765,"nor":9766,"song":9767,"vor":9768,"Ġwolf":9769,"Ġbent":9770,"Ġbump":9771,"Ġmos":9772,"Ġgreet":9773,"leton":9774,"ĠBi":9775,"ĠLuther":9776,"Ġconvent":9777,"aho":9778,"ĠFrances":9779,"Ġcreatures":9780,"Ġchapter":9781,"FC":9782,"LO":9783,"ÅŁ":9784,"acking":9785,"Ġtreasure":9786,"Ġmessages":9787,"Ġetern":9788,"Ġdemanded":9789,"rade":9790,"ww":9791,"ĠAB":9792,"hattan":9793,"IND":9794,"Ġfarmer":9795,"THING":9796,"ĠQueens":9797,"Ġmistakes":9798,"Ġfacing":9799,"Ġattempted":9800,"Tomorrow":9801,"Ġethnic":9802,"Sy":9803,"attered":9804,"itement":9805,"Ġpitch":9806,"ĠID":9807,"alling":9808,"Ġmemories":9809,"Ġassumed":9810,"ĠTemple":9811,"Ġwishes":9812,"ĠAz":9813,"ĠWend":9814,"ulating":9815,"ĠGot":9816,"Ġexists":9817,"ĠBrand":9818,"Ġfriendship":9819,"Ġexposed":9820,"ĠOnce":9821,"Ġprogramming":9822,"Art":9823,"Ġimmediate":9824,"Ġregarding":9825,"Ġunex":9826,"Ġbarely":9827,"Second":9828,"sighs":9829,"anne":9830,"isy":9831,"Ġdirt":9832,"ĠHur":9833,"olas":9834,"ĠGh":9835,"Ġuser":9836,"teenth":9837,"ĠDevelopment":9838,"ĠAdams":9839,"Ġcompete":9840,"Ġholes":9841,"ĠLouisiana":9842,"iveness":9843,"Ġnearer":9844,"ĠLewis":9845,"lie":9846,"mail":9847,"nold":9848,"Ġgross":9849,"alu":9850,"ados":9851,"ĠSab":9852,"ĠSometimes":9853,"ĠBureau":9854,"ĠPass":9855,"Ġmode":9856,"Ġbusinesses":9857,"Ġreceiving":9858,"Ġ1932":9859,"Ġperforming":9860,"Ġdevices":9861,"Ġdigital":9862,"Enough":9863,"ked":9864,"rings":9865,"inations":9866,"Ġwars":9867,"Ġmask":9868,"idency":9869,"ĠGR":9870,"ĠGordon":9871,"ĠLiverpool":9872,"quis":9873,"ĠStadium":9874,"Ġ1929":9875,"Ġemotions":9876,"Ġobey":9877,"Ġlied":9878,"Ġshares":9879,"ĠRoy":9880,"estion":9881,"ĠLo":9882,"ĠJordan":9883,"Ġpreced":9884,"Ġdrill":9885,"Ġoperate":9886,"Ġtitled":9887,"].":9888,"aters":9889,"Ġinch":9890,"unction":9891,"ĠDomin":9892,"iva":9893,"Ġgrows":9894,"Ġresigned":9895,"Ġkeen":9896,"Ġbehalf":9897,"Ġdepression":9898,"Ġdynam":9899,"86":9900,"Pardon":9901,"Sighs":9902,"Ġtomb":9903,"arat":9904,"Ġwhoever":9905,"agu":9906,"Ġscary":9907,"Ġcircuit":9908,"ĠCorps":9909,"ĠCrown":9910,"Ġliterary":9911,"Ġrelationships":9912,"Ġqualified":9913,"Ġfurniture":9914,"kward":9915,"Ġstim":9916,"ĠRy":9917,"ĠList":9918,"Ġtrace":9919,"ĠVeg":9920,"Ġcourses":9921,"ĠSpace":9922,"unicipality":9923,"Jul":9924,"Ġwashing":9925,"ĠNative":9926,"Ġusers":9927,"ĠAllen":9928,"Ġrepresentative":9929,"ĠDonald":9930,"LAUGH":9931,"Ġsequence":9932,"ribute":9933,"cers":9934,"pat":9935,"Ġbishop":9936,"Ġcraft":9937,"Ġmic":9938,"ĠSem":9939,"alle":9940,"ĠLyn":9941,"ĠNAS":9942,"Ġinstruments":9943,"Ġinstitution":9944,"ĠCass":9945,"Ġsector":9946,"Ġbrush":9947,"Ġbuff":9948,"Ġsynt":9949,"Ġdepending":9950,"Ġgoddess":9951,"Carl":9952,"Poor":9953,"div":9954,"ĠSix":9955,"ĠCart":9956,"Ġouter":9957,"ups":9958,"Ġinches":9959,"lessly":9960,"Ġvisitors":9961,"Ġopportunities":9962,"Ġrenew":9963,"rum":9964,"isdom":9965,"oty":9966,"ĠHuman":9967,"ĠRO":9968,"inks":9969,"Ġpronoun":9970,"ĠGray":9971,"Ġoccurs":9972,"ĠDeputy":9973,"07":9974,"bors":9975,"via":9976,"Ġstroke":9977,"chi":9978,"ĠWANT":9979,"ĠVery":9980,"Always":9981,"Ġperformances":9982,"Ġhopes":9983,"culiar":9984,"break":9985,"Ġmeasures":9986,"lause":9987,"watch":9988,"atical":9989,"icate":9990,"opes":9991,"Ġvic":9992,"Ġrefuge":9993,"Ġdrives":9994,"Ġrival":9995,"pring":9996,"Ġemployees":9997,"Ġelephant":9998,"Later":9999,"mates":10000,"usalem":10001,"Ġwashed":10002,"eller":10003,"ĠDu":10004,"Ġdisaster":10005,"Ġfoundation":10006,"Ġcleared":10007,"Ġcolony":10008,"Ġladder":10009,"Ġfunding":10010,"ĠTownship":10011,"hello":10012,"ĠEntertainment":10013,"==":10014,"bus":10015,"ture":10016,"inction":10017,"Ġthief":10018,"Ġnic":10019,"Ġhelic":10020,"Ġstages":10021,"ifest":10022,"Ġfinishing":10023,"ussy":10024,"Ġbarrel":10025,"Ġtickets":10026,"?'":10027,"Med":10028,"PP":10029,"Sal":10030,"low":10031,"Ġaston":10032,"Ġbore":10033,"Ġaboard":10034,"Ġscare":10035,"Ġremote":10036,"ĠWhit":10037,"RT":10038,"tw":10039,"ouston":10040,"Ġthunder":10041,"ĠSax":10042,"ĠAuthor":10043,"Ġric":10044,"elson":10045,"iko":10046,"ĠSpeak":10047,"Ġrefuse":10048,"Ġbreaks":10049,"ĠPeace":10050,"Ġutter":10051,"Ġpremie":10052,"Ġprocedure":10053,"98":10054,"SS":10055,"ser":10056,"Ġbark":10057,"acious":10058,"ĠCarr":10059,"tha":10060,"Ġperce":10061,"ĠDean":10062,"Ġequally":10063,"Ġdestruction":10064,"Ġconcerns":10065,"Ġessential":10066,"Ġclouds":10067,"Ġwithdraw":10068,"Footnote":10069,"ĠMoore":10070,"owntown":10071,"Äį":10072,"Ġwreck":10073,"orters":10074,"Ġec":10075,"ĠHistory":10076,"ĠLeb":10077,"ĠFace":10078,"Ġdownstairs":10079,"Ġwhereas":10080,"Ġflour":10081,"gger":10082,"Ġinstinct":10083,"Ġclassical":10084,"century":10085,"Ġmercy":10086,"Ġproposal":10087,"Ã¼r":10088,"Fire":10089,"count":10090,"pop":10091,"tes":10092,"allas":10093,"ĠTel":10094,"ainted":10095,"ĠYug":10096,"Ġsurrender":10097,"otta":10098,"Ġhoriz":10099,"Ġsouthwest":10100,"Ġabsence":10101,"Cut":10102,"Rec":10103,"rient":10104,"ĠMi":10105,"Ġassh":10106,"ĠDog":10107,"Ġabst":10108,"ĠJess":10109,"aga":10110,"Ġslip":10111,"Ġinspir":10112,"North":10113,"Ġmoth":10114,"imore":10115,"ĠRural":10116,"ĠFive":10117,"Ġcounties":10118,"Ġreturns":10119,"Ġlimits":10120,"Ġkissed":10121,"Ġinstitutions":10122,"Ġexpanded":10123,"lad":10124,"town":10125,"ĠCooper":10126,"herry":10127,"Ġfee":10128,"Ġscrap":10129,"Ġrecovered":10130,"Ġinternet":10131,"ĠBusiness":10132,"zed":10133,"Ġcares":10134,"Ġvon":10135,"Ġflav":10136,"Ġelsewhere":10137,"Ġmilit":10138,"Ġcovering":10139,"Ġresistance":10140,"Ġentertainment":10141,"Ġdynasty":10142,"ĠSusan":10143,"Ġsubsequently":10144,"Sil":10145,"log":10146,"stop":10147,"ĠCroat":10148,"iang":10149,"Ġsurf":10150,"ggy":10151,"ĠYorkshire":10152,"comfort":10153,"Ġmidnight":10154,"Ġcustomer":10155,"Ġdocumentary":10156,"\"...":10157,"Ġtact":10158,"Ġdensity":10159,"Ġitem":10160,"Ġabroad":10161,"employ":10162,"ĠStill":10163,"ugs":10164,"Ġlessons":10165,"Ġkicked":10166,"Ġdramatic":10167,"56":10168,"gro":10169,"rome":10170,"Ġkitt":10171,"ifted":10172,"ĠPress":10173,"Ġshar":10174,"Ġshark":10175,"ĠShel":10176,"Ġstopping":10177,"ĠTrust":10178,"umbling":10179,"Ġtempt":10180,"Ġsuperior":10181,"Ġtechnique":10182,"Ġcounsel":10183,"ĠStanley":10184,"isible":10185,"Ġtoler":10186,"Ġseas":10187,"Ġimpressed":10188,"Ġinsist":10189,"Ġresulted":10190,"regon":10191,"Ġringing":10192,"Ġmaiden":10193,"South":10194,"ĠJerry":10195,"Ġfever":10196,"Ġtribes":10197,"arrator":10198,"ORE":10199,"Ġdefence":10200,"ĠHampshire":10201,"CC":10202,"Girl":10203,"Ġfiles":10204,"Ġhal":10205,"ication":10206,"riel":10207,"Ġshield":10208,"ĠLanc":10209,"Ġchances":10210,"Ġdirections":10211,"Ġtriumph":10212,"Ġinformed":10213,"Ġfundamental":10214,"Charles":10215,"ĠAntonio":10216,"Baby":10217,"Eight":10218,"inated":10219,"Ġcraw":10220,"oral":10221,"Ġpardon":10222,"ĠAthe":10223,"ĠBuck":10224,"udge":10225,"ĠUnivers":10226,"aza":10227,"Ġsecondary":10228,"cribed":10229,"Ġ1927":10230,"Ġsearching":10231,"Ġmummy":10232,"Ġvirus":10233,"Ġtremend":10234,"Master":10235,"Ġflesh":10236,"ĠSOME":10237,"roit":10238,"Ġjazz":10239,"ĠMarsh":10240,"egro":10241,"Ġfunds":10242,"Henry":10243,"ĠDakota":10244,"Coll":10245,"gate":10246,"making":10247,"orous":10248,"alie":10249,"Ġstamp":10250,"Ġkings":10251,"Ġangel":10252,"cho":10253,"ĠBh":10254,"iao":10255,"ansion":10256,"Ġbelieves":10257,"Ready":10258,"chell":10259,"Ġfavourite":10260,"ĠHotel":10261,"MY":10262,"please":10263,"Ġsoutheast":10264,"iti":10265,"lem":10266,"ĠCas":10267,"ĠMun":10268,"ĠBack":10269,"ĠRain":10270,"Ġcomed":10271,"ccer":10272,"oca":10273,"Ġactors":10274,"ĠChristians":10275,"Ġparad":10276,"Ġfaithful":10277,"66":10278,"CR":10279,"ĠAL":10280,"ardo":10281,"Ġswing":10282,"Ġgrandmother":10283,"avalry":10284,"Ġencourage":10285,"Ġscreaming":10286,"ĠVenice":10287,"Ġtube":10288,"iversary":10289,"Ġrib":10290,"Ġadvis":10291,"Ġsweetheart":10292,"Ġcrossing":10293,"Ġrebu":10294,"UE":10295,"lims":10296,"rik":10297,"ĠTar":10298,"ĠDE":10299,"Ġorchestra":10300,"icken":10301,"ĠStew":10302,"Ġroots":10303,"ĠThose":10304,"Unless":10305,"Uncle":10306,"Ġoptions":10307,"ĠJudge":10308,"Mic":10309,"TING":10310,"Things":10311,"Ġcam":10312,"ĠSP":10313,"ĠSuch":10314,"ĠMiami":10315,"abled":10316,"emed":10317,"Ġcounting":10318,"riends":10319,"ĠAnderson":10320,"ouncill":10321,"Ġamounts":10322,"Ġpoliceman":10323,"Ġcandy":10324,"Ġdisappointed":10325,"Ġcotton":10326,"ĠSA":10327,"ĠMO":10328,"Ġdeleg":10329,"ĠOak":10330,"Ġargue":10331,"onscious":10332,"Ġrecover":10333,"Ġfounding":10334,"Ġbelonged":10335,"Ġcompanion":10336,"ographic":10337,"Ġimproved":10338,"ĠArabia":10339,"Ġjunior":10340,"Ġconsciousness":10341,"Ġdreadful":10342,"55":10343,"word":10344,"Ġtons":10345,"Ġfence":10346,"keys":10347,"hers":10348,"ĠTa":10349,"ĠWes":10350,"ĠRhod":10351,"ĠNa":10352,"emen":10353,"ĠOt":10354,"avig":10355,"Ġprompt":10356,"Ġhurried":10357,"Ġdescribes":10358,"ĠNorway":10359,"Ġcontrast":10360,"Ġborders":10361,"orph":10362,"ete":10363,"Ġintense":10364,"Ġ34":10365,"Ġdecades":10366,"Ġinsane":10367,"Ġhurricane":10368,"Ġparam":10369,"Ġforests":10370,"ĠAlexand":10371,"Ã¨re":10372,"Ġcandidates":10373,"Ġexhibition":10374,"Luc":10375,"rac":10376,"uits":10377,"Ġtin":10378,"onight":10379,"Ġ120":10380,"elf":10381,"ferences":10382,"Ġwrites":10383,"Ġglance":10384,"ĠSecurity":10385,"Blood":10386,"Ġrolled":10387,"Ġblowing":10388,"Ġdivorced":10389,"cticut":10390,"English":10391,"Ġdemocracy":10392,"Ġsupplies":10393,"CL":10394,"Men":10395,"Mind":10396,"Saint":10397,"Sweet":10398,"Ġtune":10399,"Ġchase":10400,"Ġvary":10401,"ountain":10402,"izer":10403,"ruption":10404,"obile":10405,"ATOR":10406,"Ġelectrical":10407,"Ġsounded":10408,"Ġraising":10409,"Ġeducational":10410,"Ġsensitive":10411,"achelor":10412,"Ġscratch":10413,"Ġmerchant":10414,"Yet":10415,"Ġfert":10416,"Ġconcrete":10417,"ĠOrgan":10418,"related":10419,"Ġassistance":10420,"Ġdiamond":10421,"Richard":10422,"Ġpenalty":10423,"yep":10424,"anas":10425,"ĠWould":10426,"ĠDer":10427,"ĠGen":10428,"Ġseeking":10429,"Ġ42":10430,"Ġ47":10431,"Ġexcitement":10432,"Ġmiserable":10433,"Ġbleeding":10434,"Ġfrequency":10435,"Ġtables":10436,"Ġsession":10437,"ĠJose":10438,"Ġsecrets":10439,"iolet":10440,"Ġpresents":10441,"incent":10442,"Ġ1931":10443,"Ġ1926":10444,"Ġattempts":10445,"ĠPatrick":10446,"Ġcelebrated":10447,"Ġranked":10448,"Ġultimately":10449,"CO":10450,"War":10451,"make":10452,"Ġcodes":10453,"verty":10454,"Ġspaces":10455,"ĠServices":10456,"ĠSilver":10457,"Ġstructures":10458,"Ġgravity":10459,"Ġfarther":10460,"96":10461,"AA":10462,"kh":10463,"laughs":10464,"might":10465,"isle":10466,"Ġlyr":10467,"illing":10468,"Ġspark":10469,"Ġorganic":10470,"Ġrarely":10471,"Ġwhispered":10472,"Ġcontemporary":10473,"Ġcuri":10474,"otes":10475,"struction":10476,"think":10477,"ĠGary":10478,"ĠFamily":10479,"Ġconsec":10480,"ements":10481,"Ġensure":10482,"Ġbrid":10483,"eek":10484,"Ġentering":10485,"Ġinvite":10486,"eges":10487,"OUGH":10488,"Ġcurve":10489,"Ġtechniques":10490,"Wr":10491,"mat":10492,"level":10493,"ĠSay":10494,"ĠAle":10495,"ĠAst":10496,"ĠTower":10497,"ĠRen":10498,"ĠNar":10499,"Ġchrist":10500,"ĠKal":10501,"Ġbronze":10502,"Ġ1928":10503,"Ġdiseases":10504,"ĠAnthony":10505,"person":10506,"sky":10507,"Ġwoke":10508,"adows":10509,"utor":10510,"ĠBear":10511,"abl":10512,"cknow":10513,"agle":10514,"Ġattorney":10515,"Ġpayment":10516,"raction":10517,"Ġprivile":10518,"ĠEmily":10519,"Ġactivist":10520,"Ġcombat":10521,"Ġviolin":10522,"Ġdiscussed":10523,"ĠBelg":10524,"Ġfox":10525,"Ġtox":10526,"Ġlux":10527,"Ġnep":10528,"ĠStaff":10529,"HEN":10530,"Ġsweat":10531,"ĠForeign":10532,"ĠCambridge":10533,"Ġcolleagues":10534,"olleyball":10535,"girl":10536,"len":10537,"mate":10538,"ĠÄ":10539,"ĠÐ":10540,"nda":10541,"ashes":10542,"Ġlamp":10543,"Ġstorage":10544,"ĠHold":10545,"ĠRea":10546,"ĠLarry":10547,"Ġsoap":10548,"Ġabuse":10549,"ĠJUST":10550,"Ġpeculiar":10551,"Ġpoverty":10552,"Ã©e":10553,"archy":10554,"Ġformerly":10555,"Ġsuspend":10556,"Ġparking":10557,"Ġquarters":10558,"Ġblew":10559,"Ġshouted":10560,"Ġsustain":10561,"Ġbunny":10562,"ĠKnight":10563,"Soon":10564,"ĠChile":10565,"Ġboom":10566,"ifications":10567,"ĠConservative":10568,"ĠCommonwealth":10569,"Ġequivalent":10570,"ĠMand":10571,"ĠMove":10572,"ĠHope":10573,"ĠJu":10574,"Ġadj":10575,"ounce":10576,"Ġenthus":10577,"Ġlocomot":10578,"Ġmeets":10579,"Ġspeaks":10580,"Ġcuts":10581,"ĠIslamic":10582,"ĠLibrary":10583,"Ġtunnel":10584,"morrow":10585,"round":10586,"vard":10587,"zes":10588,"ĠAR":10589,"Ġjerk":10590,"Ġsauce":10591,"Ġsuccessfully":10592,"Ġlayer":10593,"ĠPeters":10594,"Ġpromotion":10595,"Ġtroubles":10596,"ĠNobel":10597,"Hope":10598,"IVE":10599,"present":10600,"Ġgear":10601,"ushes":10602,"ĠGOT":10603,"Ġcomic":10604,"ĠOregon":10605,"ĠKn":10606,"ampton":10607,"oyd":10608,"Str":10609,"Ġwarned":10610,"Ġgovernments":10611,"Ġprovinces":10612,"ĠMedical":10613,"Ġdeliber":10614,"Ġcriticism":10615,"ĠDavis":10616,"Cal":10617,"cas":10618,"Ġfict":10619,"ĠBye":10620,"ĠPur":10621,"Ġsharing":10622,"estly":10623,"ighed":10624,"uda":10625,"ĠKoh":10626,"anks":10627,"beh":10628,"ften":10629,"Ġcolours":10630,"Ġ1925":10631,"Ġlabour":10632,"Ġnovels":10633,"Ġinsects":10634,"Ġsections":10635,"ĠPhill":10636,"Ġeducated":10637,"Ġrolling":10638,"Ġscientist":10639,"Hy":10640,"mind":10641,"Ġna":10642,"ĠTol":10643,"abilities":10644,"Ġcompass":10645,"Ġgoodbye":10646,"Ġrelatives":10647,"Ġcharity":10648,"ĠProdu":10649,"ronic":10650,"Ġsafely":10651,"Ġintroduction":10652,"Ġadopt":10653,"EFA":10654,"Ġelectronic":10655,"89":10656,"Ãº":10657,"ĠBour":10658,"ĠPR":10659,"ĠWOR":10660,"Ġshed":10661,"Ġcreative":10662,"Ġlifetime":10663,"Ġshouting":10664,"Ġpowder":10665,"iel":10666,"Ġbears":10667,"ĠSports":10668,"opy":10669,"Ġshining":10670,"ĠLl":10671,"Ġyourselves":10672,"ocated":10673,"Ġ46":10674,"Ġincorporated":10675,"Ġchecking":10676,"Ġverte":10677,"Ġlinked":10678,"Ġoccasionally":10679,"ĠTerrit":10680,"Ġdunno":10681,".&":10682,"AG":10683,"Personal":10684,"Ġcinem":10685,"Ġtoss":10686,"Ġpunk":10687,"Ġgest":10688,"ĠCL":10689,"ĠStock":10690,"Ġgrain":10691,"ixon":10692,"Ġdrank":10693,"ĠChristopher":10694,"Ġsuggests":10695,"Ġunconscious":10696,"Ġconcentration":10697,"Ġschedule":10698,"ĠIndonesia":10699,"ĠWendy":10700,"inea":10701,"rected":10702,"Ġcure":10703,"lee":10704,"ĠCamer":10705,"ĠMas":10706,"ĠDyn":10707,"rak":10708,"ouses":10709,"Ġlets":10710,"Ġstays":10711,"Ġdrift":10712,"Ġgenetic":10713,"Ġpackage":10714,"ĠChristianity":10715,"Ġbubble":10716,"BY":10717,"onne":10718,"Ġhid":10719,"Young":10720,"Ġrude":10721,"Ġvain":10722,"ckets":10723,"Ġspy":10724,"Thomas":10725,"ARS":10726,"ĠAmong":10727,"Ġhunter":10728,"Ġcabinet":10729,"Ġattractive":10730,"ĠConnecticut":10731,"produ":10732,"Ġtack":10733,"itis":10734,"ĠPic":10735,"thod":10736,"ells":10737,"Ġcurren":10738,"gedy":10739,"Ġperspective":10740,"Ġnephew":10741,"85":10742,"nia":10743,"pher":10744,"Ġauth":10745,"ril":10746,"Ġshy":10747,"Ġcomments":10748,"aund":10749,"works":10750,"ĠReport":10751,"Ġmounted":10752,"Ġjumping":10753,"Ġtravelling":10754,"Finally":10755,"ĠRoberts":10756,"LS":10757,"bits":10758,"Ġtiger":10759,"Ġmild":10760,"Ġfare":10761,"otal":10762,"Ġhesit":10763,"ĠHERE":10764,"apse":10765,"udible":10766,"urname":10767,"Ġsubstance":10768,"Ġrepair":10769,"ĠZe":10770,"ĠAbd":10771,"ĠFinland":10772,"Queen":10773,"ĠYugosl":10774,"vals":10775,"Ġâ":10776,"Ġtheore":10777,"nds":10778,"imm":10779,"ĠLane":10780,"Ġhers":10781,"endar":10782,"Ġguards":10783,"ONG":10784,"Ġtremb":10785,"Except":10786,"Ġpurchased":10787,"Ġconsidering":10788,"bound":10789,"free":10790,"something":10791,"Ġloop":10792,"Ġsty":10793,"Ġbrick":10794,"Ġ39":10795,"Ġregister":10796,"Ġfollowers":10797,"OUND":10798,"Ġeighth":10799,"ĠPlat":10800,"scar":10801,"ACE":10802,"ĠONE":10803,"Ġhonestly":10804,"rigade":10805,"smith":10806,"Ġdetective":10807,"Ġbench":10808,"Congratulations":10809,"Ġsatellite":10810,"Ass":10811,"Bea":10812,"DS":10813,"oi":10814,"ÅĤ":10815,"Ġacknow":10816,"Ġpunch":10817,"ĠHop":10818,"ĠHunter":10819,"ĠOliver":10820,"Though":10821,"Ġreserve":10822,"uhammad":10823,"ANS":10824,"Ġmusicians":10825,"Ġinspect":10826,"ĠProgram":10827,"ĠMalays":10828,"Ġhydrogen":10829,"ĠBuddha":10830,"ĠNazi":10831,"Ġguarantee":10832,"ĠHawaii":10833,"fy":10834,"oust":10835,"Ġgently":10836,"Ġease":10837,"rific":10838,"Ġstaring":10839,"ĠMicro":10840,"Ġplates":10841,"Ġspeaker":10842,"Ġruler":10843,"Ġmeasured":10844,"Ġnearest":10845,"Part":10846,"Ġbored":10847,"Ġcub":10848,"Ġhire":10849,"veland":10850,"ĠSorry":10851,"Ġchuck":10852,"ĠVar":10853,"Ġdishes":10854,"rophy":10855,"ĠCommand":10856,"Ġgrandma":10857,"Ġuniversities":10858,"Ġaspects":10859,"Ġfraud":10860,"Ġgalax":10861,"ĠBaseball":10862,"Da":10863,"iary":10864,"uart":10865,"ĠMaine":10866,"Ġshots":10867,"Ġexceed":10868,"Ġinstall":10869,"ĠIndust":10870,"ĠManhattan":10871,"OWN":10872,"Ġschol":10873,"ĠMelbourne":10874,"Ġapplications":10875,"Ġdatab":10876,"Ã£o":10877,"ront":10878,"Ġfierce":10879,"ammed":10880,"utter":10881,"ĠLag":10882,"Ġclay":10883,"aux":10884,"Ġsuburb":10885,"Ġimprison":10886,"Ġfranch":10887,"ĠMaybe":10888,"Ġcookie":10889,"Ġjudgment":10890,"Ġignor":10891,"Ġpatterns":10892,"August":10893,"VD":10894,"anor":10895,"ĠTang":10896,"Ġgolf":10897,"ppers":10898,"izza":10899,"Ġhopefully":10900,"Ġsoftly":10901,"Ġromance":10902,"Ġpurchase":10903,"Ġcasual":10904,"Ġalgorithm":10905,"Ġsplendid":10906,"Pop":10907,"Ġdull":10908,"Ġgrief":10909,"Ġrele":10910,"ĠSciences":10911,"ĠCru":10912,"ĠMess":10913,"Ġseated":10914,"ĠNature":10915,"Ġcomposition":10916,"ĠYet":10917,"ocking":10918,"Ġrecall":10919,"Ġdifferently":10920,"Att":10921,"Ġelectro":10922,"Ġdenied":10923,"success":10924,"ALLY":10925,"Ġrugby":10926,"Sur":10927,"sch":10928,"Ġnit":10929,"icip":10930,"Ġuna":10931,"Ġseal":10932,"agan":10933,"Ġadap":10934,"Ġcourts":10935,"Ġsmallest":10936,"Ġwalks":10937,"Ġawkward":10938,"levant":10939,"Ġ1923":10940,"Ġrespectively":10941,"ĠPalest":10942,"Ġpredict":10943,"Ġdespair":10944,"Martin":10945,"05":10946,"ĠAld":10947,"ifty":10948,"Ġje":10949,"Ġsup":10950,"early":10951,"ĠUEFA":10952,"Ġblast":10953,"Ġcontaining":10954,"Ġ44":10955,"ĠProject":10956,"Ġvalid":10957,"Ġapproaching":10958,"ienna":10959,"Ġneighbors":10960,"Ġobserv":10961,"Ġpercentage":10962,"Bre":10963,"iate":10964,"top":10965,"ĠCuba":10966,"ĠWarwick":10967,"Ġdesignated":10968,"boat":10969,"Ġparticipate":10970,"ĠJerusalem":10971,"Ġbriefly":10972,"Ġhydro":10973,"Ġbattery":10974,"Sounds":10975,"mil":10976,"Ġtennis":10977,"inia":10978,"Ġcord":10979,"ede":10980,"ĠDC":10981,"ĠGrey":10982,"ĠFu":10983,"Ġlect":10984,"irect":10985,"Ġunfortunately":10986,"Ġcurtain":10987,"Ġperiods":10988,"Ġexecuted":10989,"ranean":10990,"Know":10991,"San":10992,"icular":10993,"Ġbegged":10994,"ĠMong":10995,"Ġrit":10996,"Ġexcess":10997,"Ġrifle":10998,"Ġpainter":10999,"Ġapproval":11000,"Ġcontrols":11001,"uki":11002,"Ġhistorian":11003,"ĠAgain":11004,"Ġregularly":11005,"ĠContin":11006,"ĠJunior":11007,"Ġblanket":11008,"Ġdeaf":11009,"CAR":11010,"vo":11011,"Ġhosp":11012,"ĠRoc":11013,"Ġ1919":11014,"awl":11015,"INK":11016,"mmet":11017,"Ġconsequences":11018,"Ġshelter":11019,"intendo":11020,"Ġoccasions":11021,"Ġearthquake":11022,"Id":11023,"LRB":11024,"Ġwisdom":11025,"Ġpond":11026,"idays":11027,"Ġ1000":11028,"illes":11029,"ĠDoc":11030,"ĠGy":11031,"Ġconvention":11032,"Ġorbit":11033,"ĠChildren":11034,"ĠYu":11035,"Ġevac":11036,"Ġmarkets":11037,"Ġdesigns":11038,"Ġlieutenant":11039,"mommy":11040,"Lord":11041,"RRB":11042,"ught":11043,"Ġgy":11044,"ilight":11045,"istinct":11046,"being":11047,"ailing":11048,"Ġindex":11049,"Shh":11050,"Ġartific":11051,"Ġapproached":11052,"Ġsilk":11053,"remember":11054,"irmingham":11055,"Ġtouching":11056,"Ġboots":11057,"rez":11058,"Ġmast":11059,"Ġorn":11060,"Ġvital":11061,"ggie":11062,"Ġcamps":11063,"Ġmulti":11064,"Ġconvince":11065,"Ġdeny":11066,"Ġcontrary":11067,"ĠHolland":11068,"Ġtissue":11069,"Ġairplane":11070,"ĠVegas":11071,"300":11072,"March":11073,"cap":11074,"fight":11075,"wear":11076,"Ġga":11077,"ĠRIGHT":11078,"arma":11079,"ounter":11080,"Ġsubstant":11081,"asha":11082,"ommod":11083,"Ġestimate":11084,"AST":11085,"ipper":11086,"Ġsteady":11087,"Ġincreases":11088,"OMAN":11089,"ĠTransport":11090,"ĠPortugal":11091,"ĠHindu":11092,"uerto":11093,"57":11094,"High":11095,"jamin":11096,"enh":11097,"ĠLang":11098,"Ġ1917":11099,"ideo":11100,"Ġmarch":11101,"ĠCountry":11102,"Ġmaintained":11103,"def":11104,"Ġradiation":11105,"Ġmotiv":11106,"gressive":11107,"Ġsuitable":11108,"Ġtranslated":11109,"ĠBetty":11110,"Ġfluid":11111,"ĠWindows":11112,"Ġrejected":11113,"ĠGoogle":11114,"comfortable":11115,"\":":11116,"aver":11117,"rection":11118,"Ġpip":11119,"ĠSah":11120,"ĠBav":11121,"Ġapples":11122,"âĻªâĻª":11123,"racted":11124,"Ġchemistry":11125,"ĠPhilippines":11126,"Ġmr":11127,"Ġinfection":11128,"oute":11129,"ĠBulgar":11130,"ĠPut":11131,"ĠTen":11132,"ĠNan":11133,"Ġabol":11134,"Ġcongress":11135,"Ġvig":11136,"pering":11137,"ecutive":11138,"Ġmonitor":11139,"Ġstatements":11140,"ikh":11141,"plete":11142,"ĠReal":11143,"ĠAdmiral":11144,"natural":11145,"Ġvoyage":11146,"Ġbills":11147,"Ġmac":11148,"Ġfame":11149,"Ġlos":11150,"rob":11151,"ctrine":11152,"ĠWr":11153,"ĠLin":11154,"ĠOd":11155,"ĠHend":11156,"Ġcoinc":11157,"ĠShin":11158,"2010":11159,"Ġpromote":11160,"ARK":11161,"Ġelectrons":11162,"Ġdevoted":11163,"ĠMuslims":11164,"ĠLaure":11165,"Ġgeomet":11166,"arette":11167,"amilton":11168,"ĠBangladesh":11169,"Ġaccompanied":11170,"Mur":11171,"Tube":11172,"nest":11173,"uine":11174,"Ġaye":11175,"ĠCOM":11176,"raig":11177,"ĠKevin":11178,"ebr":11179,"Ġparticles":11180,"Ġcameras":11181,"Guys":11182,"Ġlyrics":11183,"87":11184,"oqu":11185,"sub":11186,"tic":11187,"Ġaer":11188,"nding":11189,"orig":11190,"usc":11191,"ĠSin":11192,"Ġclick":11193,"cio":11194,"ĠChip":11195,"necess":11196,"Ann":11197,"Ġmerry":11198,"ICK":11199,"Ġjudges":11200,"APP":11201,"Quite":11202,"Ġargued":11203,"ĠRobinson":11204,"Ġintelligent":11205,"Ġdelighted":11206,"ĠIdaho":11207,"Far":11208,"lan":11209,"ĠPap":11210,"Ġrushed":11211,"Ġprospect":11212,"raph":11213,"Ġmoder":11214,"Ġengagement":11215,"Ġveter":11216,"Ġfaculty":11217,"Ġvoting":11218,"Ġsandwich":11219,"helle":11220,"ĠMemorial":11221,"Ġintellectual":11222,"Mil":11223,"Ġtide":11224,"Ġhip":11225,"ĠHills":11226,"ĠBurg":11227,"ante":11228,"ulner":11229,"ĠLow":11230,"Ġvocal":11231,"ructure":11232,"umbled":11233,"Ġdifficulties":11234,"Ġcitizen":11235,"Ġagricultural":11236,"Mat":11237,"Nor":11238,"Number":11239,"SP":11240,"Water":11241,"cu":11242,"Ġgre":11243,"Ġefficient":11244,"Ġwhilst":11245,"ĠTan":11246,"ĠWoman":11247,"ista":11248,"Ġorph":11249,"Ġcompound":11250,"Ġaccommod":11251,"Ġkills":11252,"Ġmuscle":11253,"Ġglory":11254,"ĠTHEY":11255,"Ġanniversary":11256,"ĠSupp":11257,"Ġhammer":11258,"ĠTechnology":11259,"Reg":11260,"cat":11261,"mund":11262,"Ġdated":11263,"Ġthumb":11264,"ĠCare":11265,"ourt":11266,"Ġrating":11267,"anga":11268,"ogne":11269,"sels":11270,"Ġbuzz":11271,"shop":11272,"Ġlocations":11273,"annah":11274,"Ġclassified":11275,"Ġworthy":11276,"Ġconsideration":11277,"Ġdelivery":11278,"Ġfrozen":11279,"Ġregistered":11280,"Ġunexpected":11281,"course":11282,"Ġcod":11283,"llor":11284,"Ġdict":11285,"eties":11286,"amas":11287,"ĠAge":11288,"ĠBry":11289,"ĠPho":11290,"olo":11291,"thought":11292,"ĠFBI":11293,"Ġ49":11294,"Ġinterior":11295,"Ġresulting":11296,"rella":11297,"daddy":11298,"ĠCommunist":11299,"ĠPictures":11300,"400":11301,"dec":11302,"rous":11303,"Ġturb":11304,"rek":11305,"oug":11306,"Ġsink":11307,"arse":11308,"ĠCrow":11309,"ĠHouston":11310,"Ġalien":11311,"ĠFern":11312,"igma":11313,"Ġ1918":11314,"Ġtract":11315,"Ġaccord":11316,"reams":11317,"icester":11318,"Ġdemands":11319,"ĠBuilding":11320,"Ġconverted":11321,"83":11322,"ded":11323,"hol":11324,"rehens":11325,"Ġhitting":11326,"Ġlaughter":11327,"eta":11328,"ĠPas":11329,"ibi":11330,"grat":11331,"Ġconsisted":11332,"Ġlists":11333,"ennifer":11334,"Ġcultiv":11335,"Ġsurprising":11336,"urtis":11337,"Ġmiracle":11338,"Ġoptim":11339,"Ġsuspected":11340,"Ġscarcely":11341,"tra":11342,"onial":11343,"ĠAmy":11344,"ĠNation":11345,"Ġvib":11346,"Ġpresum":11347,"ĠSoon":11348,"Ġvisiting":11349,"ĠMetropolitan":11350,"Ġdialect":11351,"Ġpartnership":11352,"Ġrhythm":11353,"ĠCEO":11354,"BR":11355,"Same":11356,"parent":11357,"piece":11358,"Ġfisher":11359,"usions":11360,"Ġbeans":11361,"Ġeffici":11362,"iders":11363,"ĠDallas":11364,"ĠNHL":11365,"ĠEddie":11366,"asses":11367,"Ġgrat":11368,"ĠInspector":11369,"Ġpersonnel":11370,"Ġ85":11371,"Ġpresentation":11372,"ĠAbb":11373,"ĠTelevision":11374,"Ġinjuries":11375,"Ġoccupation":11376,"Ġderived":11377,"Ġconstituency":11378,"67":11379,"BER":11380,"Morning":11381,"Nat":11382,"cor":11383,"vision":11384,"whel":11385,"ref":11386,"Ġporn":11387,"Ġlane":11388,"Ġretain":11389,"ilation":11390,"agen":11391,"iane":11392,"Ġflies":11393,"Ġcargo":11394,"Ġstrings":11395,"Whoo":11396,"Ġ1924":11397,"Seven":11398,"IME":11399,"Ġaccurate":11400,"ĠBelgium":11401,"aton":11402,"ĠCow":11403,"ulu":11404,"ificent":11405,"Ġtriangle":11406,"Ġpenny":11407,"Ġtrusted":11408,"Ġfemin":11409,"Ġpeaceful":11410,"Ġattracted":11411,"Ġarrangement":11412,"Ġquantity":11413,"Ġhypot":11414,"Ġexplosion":11415,"ĠPitts":11416,"uary":11417,"Ġgates":11418,"Ġbeard":11419,"imens":11420,"ĠSky":11421,"ĠWinter":11422,"ĠLor":11423,"quet":11424,"Ġsometime":11425,"azy":11426,"Ġpainful":11427,"headed":11428,"ammar":11429,"Ġresemb":11430,"Ġterribly":11431,"Ġanxiety":11432,"Ġagriculture":11433,"Japan":11434,"MP":11435,"wanna":11436,"ycl":11437,"Ġsurname":11438,"nded":11439,"ĠChat":11440,"ĠBasket":11441,"iler":11442,"oline":11443,"ieval":11444,"Ġfeast":11445,"Going":11446,"Ġdesigner":11447,"ĠAngel":11448,"Cheers":11449,"Ġremarked":11450,"fortunate":11451,"ĠImperial":11452,"ĠObama":11453,"ARRATOR":11454,"ĠReagan":11455,"Bu":11456,"July":11457,"ahedron":11458,"nut":11459,"too":11460,"inating":11461,"ader":11462,"ĠSweet":11463,"ĠNintendo":11464,"Ġvit":11465,"ĠUpper":11466,"Ġspoon":11467,"ocese":11468,"Ġrestored":11469,"Govern":11470,"Ġceased":11471,"Ġfrogs":11472,"ĠBrazilian":11473,"Ġdiagnosed":11474,"Ġbattles":11475,"ĠAthlet":11476,"zi":11477,"Ġcared":11478,"Ġshaking":11479,"Ġrust":11480,"ĠLive":11481,"Ġfoods":11482,"entlemen":11483,"Ġportray":11484,"Ġarguments":11485,"ĠHelen":11486,"Ġdick":11487,"ĠBeng":11488,"ĠPear":11489,"unted":11490,"Ġclients":11491,"active":11492,"Ġbackwards":11493,"Ġenzy":11494,"Instead":11495,"hole":11496,"Ġexpansion":11497,"Ġtrapped":11498,"ATH":11499,"Ġrig":11500,"Ġmurm":11501,"Ġ1922":11502,"Ġmadam":11503,"VERY":11504,"Ġvegetables":11505,"ĠFreud":11506,"ĠDetroit":11507,"Ġconcluded":11508,"ĠHughes":11509,"Sn":11510,"Ter":11511,"hour":11512,"Ġborough":11513,"acco":11514,"rily":11515,"ĠDal":11516,"ĠLt":11517,"ĠOrigin":11518,"ivia":11519,"ĠInstead":11520,"tingham":11521,"Ġpreserved":11522,"Ġdrum":11523,"Ġhumanity":11524,"Ġdeputy":11525,"Ġnomination":11526,"Ġdistinguished":11527,"Ġalphabet":11528,"88":11529,"MO":11530,"Mer":11531,"eight":11532,"sw":11533,"Ġstiff":11534,"oper":11535,"Ġrage":11536,"ĠGab":11537,"ĠJoy":11538,"ĠKan":11539,"Ġtransition":11540,"Ġpublication":11541,"ĠTHERE":11542,"Ġmerc":11543,"Ġemployment":11544,"Ġfortun":11545,"ĠAgency":11546,"Joseph":11547,"NER":11548,"Narrator":11549,"xide":11550,"Ãł":11551,"entin":11552,"ĠSU":11553,"ĠSud":11554,"ĠMAN":11555,"Ġkm":11556,"Ġ1914":11557,"Ġdescent":11558,"ologies":11559,"offe":11560,"Ġ1921":11561,"Ġdinosaur":11562,"Ġcreates":11563,"ĠSquad":11564,"June":11565,"Rock":11566,"hot":11567,"Ġfruits":11568,"Ġpile":11569,"ĠCold":11570,"Ġliver":11571,"ĠĠĠĊ":11572,"ulance":11573,"ĠGra":11574,"estyle":11575,"ampagne":11576,"Chuckles":11577,"ĠStewart":11578,"600":11579,"Best":11580,"Ell":11581,"SR":11582,"Wal":11583,"hester":11584,"Ġbin":11585,"rock":11586,"ĠMit":11587,"nergy":11588,"nothing":11589,"ompson":11590,"White":11591,"Ġconfusion":11592,"Ġdepartments":11593,"ĠBarry":11594,"Ġtrading":11595,"Ġfeaturing":11596,"ĠProtestant":11597,"=\"":11598,"Certainly":11599,"Ele":11600,"pres":11601,"Ġtid":11602,"Ġbind":11603,"adays":11604,"ĠBuff":11605,"ĠTae":11606,"Ġchop":11607,"ovak":11608,"Ġmothers":11609,"Ġdefine":11610,"Ġcommanded":11611,"Ġmechanical":11612,"Ġmicrophone":11613,"ĠDenmark":11614,"Ġbeliefs":11615,"Ġwrestling":11616,"ĠUkraine":11617,"ĠNapole":11618,"ĠWelsh":11619,"LING":11620,"Off":11621,"Supp":11622,"incial":11623,"org":11624,"ĠBO":11625,"ĠTamil":11626,"ĠRio":11627,"Ġque":11628,"ĠVI":11629,"Ġundert":11630,"velope":11631,"Ġretreat":11632,"Ġdecade":11633,"Ġdragged":11634,"iterranean":11635,"Ġmemorial":11636,"Ġsalary":11637,"Ġfeeding":11638,"Ġpuzzle":11639,"Del":11640,"Joe":11641,"Ladies":11642,"Mont":11643,"mod":11644,"Ġwage":11645,"another":11646,"Ġfest":11647,"Ġfib":11648,"Ġthirst":11649,"Ġnasty":11650,"Ġatoms":11651,"ĠLuke":11652,"Ġpolite":11653,"grade":11654,"Ġdivine":11655,"ĠSeven":11656,"Ġpossessed":11657,"ĠWayne":11658,"ĠConfederate":11659,"Ġasshole":11660,"Ġtremendous":11661,"Ġfictional":11662,"rations":11663,"san":11664,"inburgh":11665,"Ġwives":11666,"Ġfires":11667,"ĠNelson":11668,"iza":11669,"ĠInf":11670,"Ġpolar":11671,"Ġmatrix":11672,"REAM":11673,"Ġeffectively":11674,"Ġlowest":11675,"Ġharvest":11676,"THEY":11677,"Ġtravelled":11678,"ĠWalker":11679,"Ġdignity":11680,"!'":11681,"Ġtent":11682,"Ġhollow":11683,"Ġdoo":11684,"leans":11685,"ĠSri":11686,"ĠChel":11687,"ĠBR":11688,"ĠBirmingham":11689,"Ġjungle":11690,"Ġsovere":11691,"ods":11692,"Ġtwist":11693,"Ġmistress":11694,"Ġverse":11695,"ĠCleveland":11696,"Ġliberal":11697,"06":11698,"Aust":11699,"Hit":11700,"orable":11701,"Ġstake":11702,"Ġknight":11703,"ĠChand":11704,"Ġbrains":11705,"Ġresolution":11706,"Ġconfront":11707,"Ġtested":11708,"Ġmembership":11709,"Ġversus":11710,"Ġexecution":11711,"Ġweakness":11712,"ĠCampbell":11713,"Seriously":11714,"Ġfeathers":11715,",[":11716,"Gold":11717,"laughter":11718,"rating":11719,"zard":11720,"held":11721,"Ġfeared":11722,"Ġgig":11723,"Ġgene":11724,"roid":11725,"ĠAaron":11726,"uru":11727,"Ġgoin":11728,"ths":11729,"rawn":11730,"Ġmanifest":11731,"bean":11732,"Ġprev":11733,"ĠYe":11734,"ĠYan":11735,"Ġsurve":11736,"Ġbeds":11737,"Ġselfish":11738,"ĠLouise":11739,"Ġloaded":11740,"ĠApple":11741,"77":11742,"Mal":11743,"onom":11744,"Ġnaught":11745,"acre":11746,"ĠHell":11747,"ĠRick":11748,"ĠLisa":11749,"ĠEP":11750,"ĠKarl":11751,"Ġuncomfortable":11752,"pless":11753,"ucks":11754,"rolled":11755,"Ġmolecules":11756,"Ġuniversal":11757,"ĠBruce":11758,"ĠLIKE":11759,"anim":11760,"Ġdiver":11761,"oples":11762,"ĠLast":11763,"ĠChild":11764,"Ġcomponents":11765,"ĠMarie":11766,"Ġconscience":11767,"ambling":11768,"Ġmistaken":11769,"USE":11770,"Ġstretch":11771,"Ġstretched":11772,"Ġgoddamn":11773,"Ġsituations":11774,"ĠDiego":11775,"Cons":11776,"cod":11777,"half":11778,"phy":11779,"Ġles":11780,"Ġchairs":11781,"aping":11782,"Ġdownload":11783,"ĠThrough":11784,"Ġmustn":11785,"Ġinvisible":11786,"reaming":11787,"Ġclassroom":11788,"ĠAustin":11789,"speaking":11790,"ĠDespite":11791,"Ġpanel":11792,"Ġmathematics":11793,"ĠBroadway":11794,"igrants":11795,"09":11796,"Mag":11797,"arus":11798,"ĠSi":11799,"ĠPuerto":11800,"ĠLam":11801,"Ġ(),":11802,"neur":11803,"Chief":11804,"Ġskull":11805,"ĠWarren":11806,"Ġcondem":11807,"market":11808,"Ġwidow":11809,"ĠBrooklyn":11810,"Ac":11811,"ALE":11812,"Born":11813,"Kim":11814,"Use":11815,"uis":11816,"à¥":11817,"edge":11818,"Ġlaura":11819,"rium":11820,"iration":11821,"Ġlip":11822,"ĠNich":11823,"ortion":11824,"Ġsailing":11825,"Ġleather":11826,"ĠVienna":11827,"Ġscoring":11828,"Ġhelpful":11829,"Ġchef":11830,"Ġsquee":11831,"Ġgenuine":11832,"Ġtreaty":11833,"Ġconvicted":11834,"Ġstealing":11835,"Ġfloating":11836,"Ever":11837,"Mel":11838,"Pretty":11839,"Ugh":11840,"hou":11841,"iop":11842,"Ġ{":11843,"Ġcows":11844,"Ġhint":11845,"Ġdot":11846,"urbed":11847,"Ġsear":11848,"olia":11849,"Ġabe":11850,"ovie":11851,"Ġthrust":11852,"obs":11853,"Ġsynd":11854,"Ġtopic":11855,"Ġpractices":11856,"ÃŃa":11857,"track":11858,"ĠPersian":11859,"Pri":11860,"Roger":11861,"pack":11862,"rator":11863,"atum":11864,"Ġcable":11865,"ĠMuhammad":11866,"term":11867,"ĠDaw":11868,"Ġ1900":11869,"Through":11870,"ĠAlb":11871,"ĠAlfred":11872,"Ġconspir":11873,"Ġproduces":11874,"Ġprovision":11875,"Ġstriking":11876,"Ġfranchise":11877,"mic":11878,"tit":11879,"oning":11880,"Ġcouch":11881,"Ġmaps":11882,"Ġfiring":11883,"aration":11884,"Ġrevenue":11885,"amous":11886,"Ġstead":11887,"ĠRights":11888,"ĠFil":11889,"ĠFine":11890,"Ġvulner":11891,"ĠMarshall":11892,"Ġcaps":11893,"Ġartistic":11894,"annels":11895,"ĠConvention":11896,"white":11897,"Ġcopper":11898,"Ġinvolves":11899,"Ġprocesses":11900,"Ġobser":11901,"Trust":11902,"Ġtraveling":11903,"guard":11904,"Ġroutine":11905,"Ġnetworks":11906,"Ġclimbed":11907,"Indeed":11908,"Ġdiscipline":11909,"ĠTurner":11910,"thodox":11911,"Boss":11912,"inch":11913,"ouver":11914,"Ġlamb":11915,"ĠDragon":11916,"Ġjoking":11917,"ĠEnt":11918,"ocation":11919,"azines":11920,"Ġcircles":11921,"ĠMcG":11922,"ĠNext":11923,"Ġpollution":11924,"Ġsolemn":11925,"Ġcrops":11926,"ĠAuthority":11927,"Won":11928,"vet":11929,"ĠCre":11930,"ĠYouTube":11931,"Ġ43":11932,"ĠClinton":11933,"ussian":11934,"Ġlandscape":11935,"Ġsuggestion":11936,"Ġzoo":11937,"ĠRomanized":11938,"Ġsurviv":11939,"Ġconcerning":11940,"igenous":11941,"Half":11942,"Holy":11943,"NARRATOR":11944,"disc":11945,"Ġsits":11946,"ania":11947,"river":11948,"illery":11949,"Ġtram":11950,"Ġpee":11951,"wegian":11952,"Ġpoems":11953,"Ġ57":11954,"ANG":11955,"Ġcontinuous":11956,"ĠAfghan":11957,"Ġburnt":11958,"Ġuncertain":11959,"Ġresource":11960,"Otherwise":11961,"Ġsprang":11962,"Ġprosper":11963,"bul":11964,"Ġtherm":11965,"Ġwounds":11966,"itated":11967,"Ġcough":11968,"ĠTob":11969,"elli":11970,"Ġjer":11971,"ĠRow":11972,"ĠFollowing":11973,"Ġarc":11974,"oga":11975,"Ġhighlight":11976,"Ġsentenced":11977,"Ġfellows":11978,"ĠBaron":11979,"Ġpencil":11980,"reedom":11981,"ĠMilitary":11982,"ĠNorman":11983,"Especially":11984,"ĠHitler":11985,"uyeh":11986,"Ġdowntown":11987,"ettle":11988,"uscript":11989,"ĠCob":11990,"oland":11991,"ĠLower":11992,"ĠKang":11993,"Ġoverwhel":11994,"ĠVO":11995,"issance":11996,"Ġscen":11997,"Ġprey":11998,"Ġowns":11999,"Ġaddressed":12000,"Ġtaxi":12001,"Ġbacteria":12002,"ĠABOUT":12003,"Ġhelicopter":12004,"59":12005,"nal":12006,"Ġcul":12007,"Ġmart":12008,"ingo":12009,"Ġbeef":12010,"ione":12011,"Ġreception":12012,"seen":12013,"ĠCur":12014,"Ġanth":12015,"ĠBak":12016,"anth":12017,"ĠGU":12018,"Ġcanal":12019,"ĠRachel":12020,"shaped":12021,"ĠSprings":12022,"Ġpractically":12023,"Ġdeeper":12024,"Ġcookies":12025,"Ġroutes":12026,"Ġlinks":12027,"Ġmammals":12028,"Mac":12029,"mph":12030,"Ġfetch":12031,"ĠMaur":12032,"Ġrounds":12033,"ĠGarden":12034,"ĠRah":12035,"ĠFri":12036,"ĠEth":12037,"Ġpeas":12038,"Ġserial":12039,"Ġindicated":12040,"Ġconservative":12041,"Ġmedals":12042,"ĠXX":12043,"Ġharsh":12044,"Ġpalm":12045,"iffs":12046,"Ġcoward":12047,"08":12048,"Free":12049,"inate":12050,"oro":12051,"Ġnaval":12052,"acent":12053,"Ġassembly":12054,"ĠPun":12055,"ĠRap":12056,"earing":12057,"feld":12058,"Ġcompare":12059,"ARE":12060,"Ġexplains":12061,"Ġposted":12062,"without":12063,"offs":12064,"Ġburden":12065,"ĠMetro":12066,"ĠSanders":12067,"Ġbubbles":12068,"Ġalleged":12069,"Tim":12070,"Woman":12071,"del":12072,"lord":12073,"vas":12074,"Ġairl":12075,"rea":12076,"atis":12077,"Ġol":12078,"outing":12079,"Ġclar":12080,"ensed":12081,"ĠThird":12082,"Ġpublisher":12083,"ikes":12084,"astery":12085,"Ġpoliticians":12086,"ĠOrange":12087,"Ġsneak":12088,"Ġbelonging":12089,"Ġmechanism":12090,"ĠDarwin":12091,"Count":12092,"wright":12093,"anium":12094,"itical":12095,"...!":12096,"ĠRud":12097,"Ġvs":12098,"Ġexternal":12099,"Ġclown":12100,"Ġcompens":12101,"Ġcompounds":12102,"Ġrecip":12103,"ebast":12104,"Ġdreaming":12105,"Anyone":12106,"ĠPerhaps":12107,"ĠRomans":12108,"Ġimpressive":12109,"ĠCosta":12110,"\"'":12111,"Cent":12112,"bish":12113,"Ġgender":12114,"ĠCole":12115,"ĠHand":12116,"ĠBou":12117,"ĠDin":12118,"abi":12119,"ĠJenny":12120,"Ġunemploy":12121,"Ġamateur":12122,"Ġblown":12123,"Ġblows":12124,"Ġbeloved":12125,"ĠĠĠĠĠĠĠĠĠ":12126,"Ġfinance":12127,"eneration":12128,"Ġinstantly":12129,"ega":12130,"Ġfucked":12131,"ambers":12132,"Ġharbour":12133,"ĠHarrison":12134,"Ġnegotiations":12135,"Kn":12136,"SA":12137,"Val":12138,"list":12139,"lines":12140,"yers":12141,"Ġsung":12142,"Ġbum":12143,"ĠAud":12144,"ĠMerc":12145,"ĠBart":12146,"ĠPed":12147,"Ġraw":12148,"ĠFA":12149,"Ġchim":12150,"ĠKa":12151,"ĠChamber":12152,"Ġscattered":12153,"Ġbucks":12154,"ultan":12155,"ĠBeck":12156,"ĠOrleans":12157,"Ġavo":12158,"ĠNottingham":12159,"ĠHighway":12160,"Ġninth":12161,"Whether":12162,"**":12163,"went":12164,"Ġtu":12165,"Ġtheories":12166,"Ġwax":12167,"Ġmand":12168,"steps":12169,"ĠCook":12170,"ĠTak":12171,"ĠDID":12172,"igious":12173,"ĠOp":12174,"uckland":12175,"Ġcreep":12176,"ĠGrace":12177,"Ġdivisions":12178,"Ġstatue":12179,"Ġenjoying":12180,"ĠFranklin":12181,"Ġscheduled":12182,"Police":12183,"Ġnom":12184,"Ġnavig":12185,"ĠMust":12186,"ellig":12187,"Ġscandal":12188,"Ġdisorder":12189,"Ġinstalled":12190,"Ġwarrant":12191,"Ġcolleges":12192,"ONNA":12193,"ĠAllah":12194,"Ġbarn":12195,"Ġsteep":12196,"Ġdining":12197,"Ġmeantime":12198,"Ġseventeen":12199,"Ġgarbage":12200,"Guess":12201,"ĠLegisl":12202,"Ġlun":12203,"ayer":12204,"amo":12205,"ĠHIS":12206,"ĠHamilton":12207,"Ġnotion":12208,"Ġshapes":12209,"Ġcarries":12210,"ĠSha":12211,"Ġfewer":12212,"ĠMediterranean":12213,"uela":12214,"ĠMadrid":12215,"Ġsailors":12216,"Ġeldest":12217,"Ġhouseholds":12218,"ĠBrothers":12219,"Ġlinear":12220,"Bas":12221,"Might":12222,"green":12223,"ayan":12224,"Ġrehe":12225,"irrel":12226,"ĠDale":12227,"Ġcongrat":12228,"Ġclue":12229,"oval":12230,"ĠYouth":12231,"Ġregiment":12232,"Ġpresently":12233,"Ġedges":12234,"Ġmagazines":12235,"Ġderiv":12236,"Ġcurrency":12237,"Lady":12238,"hill":12239,"hang":12240,"ju":12241,"sn":12242,"asures":12243,"Ġgifts":12244,"ĠSnow":12245,"ĠChen":12246,"ĠBond":12247,"ĠBird":12248,"ĠLion":12249,"ĠFat":12250,"Ġspots":12251,"Ġgrim":12252,"Ġadam":12253,"ocity":12254,"Donald":12255,"Ġconsent":12256,"Ġgloom":12257,"Being":12258,"ĠEdwin":12259,"ĠEdinburgh":12260,"Ġcalendar":12261,"ĠRomania":12262,"Def":12263,"ĠGirls":12264,"Ġphotographs":12265,"Ġneutral":12266,"ebraska":12267,"01":12268,"02":12269,"54":12270,"high":12271,"Ġbri":12272,"Ġbicy":12273,"Ġinaug":12274,"ĠBey":12275,"lier":12276,"Ġ41":12277,"Ġextension":12278,"Ġwinners":12279,"Ġbasement":12280,"END":12281,"Ġmisunder":12282,"ĠDemocrats":12283,"Ġholidays":12284,"Ġartificial":12285,"lace":12286,"Ġbust":12287,"ĠHIM":12288,"ĠLas":12289,"Ġ1916":12290,"Ġunfortunate":12291,"Ġ800":12292,"Ġtribut":12293,"Ġlighting":12294,"Ġbehave":12295,"Ġcontinuing":12296,"ĠHarvard":12297,"Johnny":12298,"Ġrebell":12299,"ĠLeader":12300,"ĠAdministration":12301,"Pull":12302,"both":12303,"gic":12304,"ãĥ":12305,"itudes":12306,"icia":12307,"amma":12308,"Ġcancell":12309,"Ġalike":12310,"ĠJournal":12311,"ĠJuan":12312,"Ġprocl":12313,"Ġkindly":12314,"Ġpointing":12315,"arson":12316,"Ġassure":12317,"ieth":12318,"Ġexperiments":12319,"ĠOrchestra":12320,"ĠExecutive":12321,"Ġbutterfly":12322,"ĠCommissioner":12323,"Af":12324,"Laughs":12325,"lings":12326,"must":12327,"Ã¸":12328,"Ġ%":12329,"itate":12330,"ĠTal":12331,"ĠEmer":12332,"ĠChance":12333,"Almost":12334,"Ġarchae":12335,"Ġinfinite":12336,"ĠMadame":12337,"ĠFrederick":12338,"ĠLucy":12339,"Ġadapted":12340,"ĠBasketball":12341,"76":12342,"92":12343,"isn":12344,"Ġoath":12345,"Ġey":12346,"Ġrect":12347,"amation":12348,"ĠMes":12349,"ĠFarm":12350,"ĠNancy":12351,"ĠJi":12352,"âĢľâĢĺ":12353,"ĠShort":12354,"Ġinterfe":12355,"Ġrecorder":12356,"sterdam":12357,"Ġpropos":12358,"ographical":12359,"ĠSamuel":12360,"Billboard":12361,"October":12362,"PH":12363,"ige":12364,"maker":12365,"pse":12366,"Ġwelf":12367,"ĠMs":12368,"children":12369,"ĠBox":12370,"ĠTit":12371,"ĠWard":12372,"ĠDennis":12373,"Ġalter":12374,"Ġchoo":12375,"Ġdisgr":12376,"Ġlegit":12377,"ĠFlore":12378,"Ġsticks":12379,"Ġsenses":12380,"Ġencouraged":12381,"04":12382,"800":12383,"Tonight":12384,"bai":12385,"mble":12386,"once":12387,"charge":12388,"Ġjur":12389,"ĠRalph":12390,"Ġtricks":12391,"ĠIng":12392,"Ġassets":12393,"Ġassured":12394,"OUR":12395,"Ġsentiment":12396,"Ġrequirements":12397,"rainian":12398,"Ġassignment":12399,"Ġwelfare":12400,"gi":12401,"uum":12402,"yth":12403,"Ġwipe":12404,"Ġbury":12405,"Ġcott":12406,"ĠDVD":12407,"ĠRog":12408,"ĠNiger":12409,"agine":12410,"onde":12411,"Ġrealise":12412,"Ġbush":12413,"Ġcollapse":12414,"Ġinsisted":12415,"whoops":12416,"Ġdemol":12417,"Ġpurse":12418,"Ġruling":12419,"Ġcompanions":12420,"Ġtourist":12421,"Ġprotein":12422,"Ġratio":12423,"ĠSardinia":12424,"ĠAthens":12425,"Ġsuspended":12426,"East":12427,"Having":12428,"crow":12429,"ifies":12430,"Ġchlor":12431,"ĠEli":12432,"Ġintr":12433,"anka":12434,"Ġdesired":12435,"Ġforming":12436,"ĠCalv":12437,"Club":12438,"Ġdropping":12439,"ĠMedal":12440,"Ġsettlers":12441,"Between":12442,"ĠFarmer":12443,"Ġindicate":12444,"Ġwhistle":12445,"Ġbombs":12446,"Ġinspiration":12447,"Fred":12448,"Ġarose":12449,"isons":12450,"Ġreun":12451,"Ġreverse":12452,"Ġstern":12453,"ĠDarling":12454,"Ġshorter":12455,"ĠNed":12456,"beat":12457,"Ġ66":12458,"Ġevolved":12459,"Ġaffili":12460,"supp":12461,"Ġheroes":12462,"Ġtranslation":12463,"communes":12464,"Ġadvertising":12465,"April":12466,"Port":12467,"á¹":12468,"Ġwagon":12469,"Ġsoph":12470,"Ġmister":12471,"Ġflex":12472,"Ġpoo":12473,"Ġnerves":12474,"Ġrend":12475,"Ġrejo":12476,"ĠTR":12477,"ieved":12478,"ĠKaz":12479,"Ġbuck":12480,"Ġresidence":12481,"Ġmarsh":12482,"Ġbanana":12483,"ĠPLAY":12484,"Ġsympathy":12485,"?!":12486,"Bro":12487,"Euro":12488,"PR":12489,"aired":12490,"mers":12491,"ĠHum":12492,"ĠBund":12493,"ĠRangers":12494,"Ġarray":12495,"Ġapparent":12496,"venth":12497,"yeong":12498,"Ġswept":12499,"Ġtragedy":12500,"Ġdefensive":12501,"Ġaffection":12502,"Ġphotographer":12503,"ĠEnvironment":12504,"guing":12505,"Ġhunger":12506,"Ġbells":12507,"Ġchapel":12508,"Ġpigs":12509,"ĠStudies":12510,"Ġcharts":12511,"Ġresidential":12512,"Ġguitarist":12513,"Ġliberty":12514,"Ġsubsid":12515,"Ġgorgeous":12516,"Max":12517,"November":12518,"sa":12519,"help":12520,"Ġfits":12521,"Ġpressed":12522,"ĠImp":12523,"kee":12524,"ĠToad":12525,"Ġgoat":12526,"ĠLabor":12527,"ĠLaura":12528,"Ġabund":12529,"Ġchannels":12530,"orne":12531,"Ġ56":12532,"Ġdestiny":12533,"Ġescort":12534,"Ġsaddle":12535,"Ġclimbing":12536,"Ġcommunicate":12537,"ĠBetween":12538,"Jean":12539,"Dem":12540,"ski":12541,"Ġcents":12542,"immer":12543,"ĠSara":12544,"ĠPie":12545,"ĠDark":12546,"estone":12547,"ĠLen":12548,"Ġsod":12549,"ĠJosh":12550,"Ġmanip":12551,"Ġcompr":12552,"Ġrecovery":12553,"Ġ72":12554,"Ġ88":12555,"Ġsleepy":12556,"Ġlaying":12557,"Ġplanted":12558,"Ġsouls":12559,"ĠJoel":12560,"Ġpunish":12561,"oj":12562,"Ġpaus":12563,"Ġreli":12564,"imony":12565,"ĠAuckland":12566,"ĠBri":12567,"ĠBach":12568,"ĠBenn":12569,"Ġconj":12570,"fulness":12571,"ĠMarine":12572,"Ġformally":12573,"ashi":12574,"enez":12575,"Ġexplo":12576,"Ġcompetitive":12577,"ĠDelhi":12578,"Ġcigarette":12579,"iors":12580,"kov":12581,"pot":12582,"ĠSeveral":12583,"ĠHER":12584,"ĠGor":12585,"Ġalert":12586,"Ġmanuscript":12587,"agram":12588,"rup":12589,"Ġpole":12590,"ĠFront":12591,"Ġentre":12592,"Ġdecides":12593,"Ġfathers":12594,"Ġorganisation":12595,"ĠAbraham":12596,"Ġsunshine":12597,"Ġmixture":12598,"Ġlogic":12599,"believ":12600,"Ġadventures":12601,"Ġplatforms":12602,"ĠLiberal":12603,"Ġprecisely":12604,"ĠRussell":12605,"Ġfossil":12606,"Bon":12607,"Dude":12608,"bishop":12609,"mare":12610,"oan":12611,"rice":12612,"Ġtob":12613,"aran":12614,"Ġpant":12615,"Ġlod":12616,"omon":12617,"ĠSof":12618,"ĠSoph":12619,"Ġdeals":12620,"ĠRena":12621,"essa":12622,"Ġsuits":12623,"Ġ(_":12624,"ĠEld":12625,"ĠVincent":12626,"Ġcollaps":12627,"Ġengage":12628,"ĠPlace":12629,"Ġdrops":12630,"Ġreveal":12631,"Ġpursue":12632,"Ã¢t":12633,"Ġtroubled":12634,"front":12635,"Ġproportion":12636,"Calm":12637,"Min":12638,"September":12639,"Ġbonds":12640,"Ġpatch":12641,"Ġnerve":12642,"Ġweigh":12643,"ĠCarm":12644,"ĠPhys":12645,"ĠHeart":12646,"Ġoverse":12647,"shi":12648,"Ġclassification":12649,"Ġconstruct":12650,"Ġpatri":12651,"ĠLeo":12652,"Ġtraveled":12653,"Professor":12654,"ÃŃn":12655,"Ġutil":12656,"Ġpanic":12657,"Ġnickname":12658,"Ġdisgusting":12659,"94":12660,"Cast":12661,"GA":12662,"MI":12663,"Ġtast":12664,"Ġtang":12665,"Ġhind":12666,"changed":12667,"ĠBab":12668,"ĠTrent":12669,"oped":12670,"Ġchin":12671,"ĠThompson":12672,"Ġhappily":12673,"Ġpockets":12674,"ĠYang":12675,"Station":12676,"2017":12677,"Ġgenerous":12678,"Ġawait":12679,"Ġappearing":12680,"Ġcostume":12681,"Ġfreak":12682,"Ġeconomics":12683,"castle":12684,"Ġobservation":12685,"Ġpacked":12686,"Ġcivilization":12687,"ĠMurray":12688,"ondissements":12689,"Ġsequel":12690,"Ġcategories":12691,"ĠPeninsula":12692,"Obviously":12693,"ĠTerritory":12694,"Ġauthors":12695,"58":12696,"Ca":12697,"EAH":12698,"Sing":12699,"Tony":12700,"cried":12701,"squ":12702,"Ġtum":12703,"Ġsulf":12704,"Ġpills":12705,"adv":12706,"ĠGONNA":12707,"elia":12708,"ĠNice":12709,"odore":12710,"cily":12711,"ovich":12712,"Ġattribut":12713,"ĠDead":12714,"ĠAlaska":12715,"ĠClar":12716,"Ġmedieval":12717,"Ġdeadly":12718,"Ġfreely":12719,"Ġdealt":12720,"ĠWhich":12721,"ĠCentury":12722,"Ġrecognised":12723,"ĠHighness":12724,"Ġwaist":12725,"Ġcriticized":12726,"Ġpraise":12727,"Ġestablishment":12728,"Ġdatabase":12729,"#_":12730,"Easy":12731,"FOR":12732,"Haven":12733,"Law":12734,"Rad":12735,"bone":12736,"gans":12737,"Ġsore":12738,"atar":12739,"Ġcemetery":12740,"enne":12741,"Ġhence":12742,"Ġassemb":12743,"ĠBed":12744,"ĠBeth":12745,"ĠPit":12746,"ĠFitz":12747,"acket":12748,"azon":12749,"Ġrocket":12750,"ĠBenjamin":12751,"Ġranks":12752,"Ġconsumption":12753,"Ġdiesel":12754,"ĠBaltimore":12755,"Ġmolecule":12756,"giluyeh":12757,"ĠKohgiluyeh":12758,"PER":12759,"Ret":12760,"gage":12761,"lu":12762,"vate":12763,"xual":12764,"Ġpier":12765,"Ġheir":12766,"olph":12767,"ĠLis":12768,"ĠLot":12769,"ĠNBA":12770,"Ġexit":12771,"ĠStuart":12772,"Ġquad":12773,"Ġenvelope":12774,"avi":12775,"ĠAdv":12776,"ĠSeattle":12777,"Ġgenes":12778,"Ġbullets":12779,"Ġslee":12780,"ĠAtlanta":12781,"Ġsymbols":12782,"ĠUtah":12783,"Met":12784,"National":12785,"Save":12786,"Shoot":12787,"mal":12788,"post":12789,"Ġber":12790,"ĠProp":12791,"ĠWrest":12792,"Ġdeer":12793,"ĠFall":12794,"Ġ1910":12795,"Ġbund":12796,"ecil":12797,"Ġ51":12798,"tenance":12799,"ĠPradesh":12800,"ĠClay":12801,"Ġ96":12802,"Ġcontinent":12803,"Ġopponent":12804,"Ġpopularity":12805,"strong":12806,"alymp":12807,"ĠNorwegian":12808,"Ġconductor":12809,"ĠStudios":12810,"ĠDevil":12811,"Ġgathering":12812,"Ġobliged":12813,"Det":12814,"EX":12815,"Hard":12816,"PA":12817,"bian":12818,"ĠâĻ«":12819,"reb":12820,"ĠRand":12821,"arted":12822,"Ġchoices":12823,"athaniel":12824,"ĠYale":12825,"Ġdiff":12826,"ctoral":12827,"aneously":12828,"ĠPrice":12829,"Ġvisits":12830,"Ġrepresentation":12831,"Ġphysician":12832,"Ġanticip":12833,"Ġrobot":12834,"Ġrobbery":12835,"handed":12836,"marine":12837,"Ġambulance":12838,"Ġtransportation":12839,"boys":12840,"Ġsituated":12841,"aduate":12842,"ĠHistoric":12843,"Ġbothered":12844,"Ron":12845,"asa":12846,"ĠBaker":12847,"Ġrang":12848,"istant":12849,"Ġoutta":12850,"Ġnoon":12851,"ĠKeep":12852,"flies":12853,"Ġfights":12854,"Neither":12855,"Ġprayers":12856,"Ġrubber":12857,"himself":12858,"Ġarrangements":12859,"ĠANY":12860,"Ġexhausted":12861,"ĠPittsburgh":12862,"Sun":12863,"love":12864,"nik":12865,"Ġtag":12866,"onge":12867,"Ġdared":12868,"Ġtoes":12869,"ĠIvan":12870,"ayne":12871,"roc":12872,"Ġchips":12873,"Ġvague":12874,"Ġpeasant":12875,"acht":12876,"ruck":12877,"ailand":12878,"Ġkindness":12879,"armed":12880,"aji":12881,"Ġgenerations":12882,"Ġcurs":12883,"Ġthreatening":12884,"Ġbelly":12885,"Ġassociate":12886,"Ġapplause":12887,"Ġignore":12888,"Ġwealthy":12889,"Ġscholars":12890,"03":12891,"Coming":12892,"Imp":12893,"January":12894,"uction":12895,"Ġcust":12896,"Ġdough":12897,"Ġpairs":12898,"ĠMabel":12899,"chuckles":12900,"ĠLux":12901,"Ġchoir":12902,"ĠEmma":12903,"Ġvo":12904,"inkie":12905,"ĠKey":12906,"ĠKitty":12907,"achi":12908,"closed":12909,"Ġdispl":12910,"Ġ77":12911,"inaudible":12912,"Ġsignals":12913,"Ġexposure":12914,"Ġbarg":12915,"zerbai":12916,"Ġabsurd":12917,"Ġidentical":12918,"ĠGreeks":12919,"Ġopinions":12920,"Ġcontributed":12921,"Ġpreferred":12922,"Charlie":12923,"Kat":12924,"giving":12925,"ptions":12926,"Ġsergeant":12927,"atively":12928,"Ġpriests":12929,"Ġharass":12930,"Ġdecline":12931,"Applause":12932,"Ġcharming":12933,"Ġtorture":12934,"Ġwrapped":12935,"French":12936,"HA":12937,"Home":12938,"spring":12939,"Ġchess":12940,"Ġdub":12941,"Ġpanc":12942,"ĠTerry":12943,"ĠWonder":12944,"Ġheritage":12945,"Ġtrash":12946,"Ġspray":12947,"ĠInn":12948,"ĠThor":12949,"ancouver":12950,"Ġinvitation":12951,"Ġ87":12952,"Ġlighter":12953,"Forgive":12954,"Ġsupports":12955,"Anybody":12956,"ĠParker":12957,"Ġpermit":12958,"Ġmidst":12959,"Ġsurvival":12960,"Ġpraised":12961,"ĠNapoleon":12962,"Ġpace":12963,"idance":12964,"Ġreaches":12965,"stable":12966,"ĠLamb":12967,"Ġchip":12968,"Ġcarpet":12969,"gins":12970,"Door":12971,"Ã©t":12972,"Ġnicely":12973,"engu":12974,"cover":12975,"ĠHeritage":12976,"Ġdirectors":12977,"ĠPrefecture":12978,"Ġsuspicious":12979,"million":12980,"?âĢĻ":12981,"Mor":12982,"iable":12983,"offic":12984,"Ġtheat":12985,"Ġhem":12986,"aments":12987,"ĠSound":12988,"ĠCurtis":12989,"umns":12990,"ĠOcc":12991,"Ġcounts":12992,"Ġ52":12993,"ĠAncient":12994,"Ġ83":12995,"Ġ89":12996,"ĠTherefore":12997,"Ġattacking":12998,"ITT":12999,"Ġhopeless":13000,"ĠMonte":13001,"ĠMontreal":13002,"Ġblessed":13003,"ĠWILL":13004,"heimer":13005,"Ġsubsequent":13006,"Ġcheeks":13007,"Ġsocieties":13008,"ĠSidney":13009,"Ġfabric":13010,"Ġsatisfaction":13011,"ĠBavaria":13012,"ĠCalvados":13013,"Ġtobacco":13014,",.":13015,"51":13016,"German":13017,"Harry":13018,"Mine":13019,"Wonder":13020,"instein":13021,"Ġpudd":13022,"ĠHig":13023,"ĠFund":13024,"Ġvine":13025,"ĠKon":13026,"issions":13027,"Ġcounted":13028,"Ġmini":13029,"ĠMario":13030,"ierra":13031,"Ġtrib":13032,"Ġforehead":13033,"comes":13034,"Ġ250":13035,"osaurus":13036,"ĠHungarian":13037,"Addons":13038,"Ġthoroughly":13039,"VEN":13040,"later":13041,"wering":13042,"Ġoven":13043,"arc":13044,"Ġpistol":13045,"anded":13046,"ĠFal":13047,"Ġsocks":13048,"ĠJill":13049,"ĠJake":13050,"Ġsecured":13051,"Ġ54":13052,"Ġ86":13053,"ĠGrammy":13054,"ĠParalymp":13055,"comune":13056,"Ġrevol":13057,"ĠQuebec":13058,"Ġtravels":13059,"Ġcredits":13060,"ĠJefferson":13061,"52":13062,"Gas":13063,"ML":13064,"Mah":13065,"Nick":13066,"Roll":13067,"uity":13068,"usa":13069,"ĠBoss":13070,"ĠOR":13071,"Ġvolleyball":13072,"rah":13073,"Ġqueer":13074,"Ġperpet":13075,"ials":13076,"ibbean":13077,"Ġ99":13078,"Ġballoon":13079,"Ġdeparture":13080,"Ġceiling":13081,"ĠAmsterdam":13082,"ĠExcuse":13083,"Ġbullshit":13084,"Ġreduction":13085,"Ġcontracts":13086,"Ġboundary":13087,"Ġmanufacturing":13088,"Ang":13089,"Green":13090,"WOMAN":13091,"Ãª":13092,"atra":13093,"Ġpic":13094,"Ġpine":13095,"ĠIron":13096,"ĠMans":13097,"opal":13098,"things":13099,"Ġrape":13100,"emale":13101,"Ġgran":13102,"Ġquote":13103,"neum":13104,"Ġunre":13105,"Ġsolved":13106,"ĠManip":13107,"ĠSyria":13108,"ĠFelicity":13109,"ĠVillage":13110,"Follow":13111,"sometimes":13112,"Î±":13113,"eded":13114,"Ġgreed":13115,"stock":13116,"ĠAhm":13117,"Ġjam":13118,"ĠEarly":13119,"Ġ1912":13120,"Ġhomework":13121,"ublin":13122,"Ġlightning":13123,"Ġtransmit":13124,"ĠDoes":13125,"Ġcultures":13126,"ĠDefense":13127,"Ġembarrassing":13128,"Ġancestors":13129,"Ber":13130,"Bur":13131,"VID":13132,"pit":13133,"remy":13134,"Ġfet":13135,"Ġpian":13136,"Ġgrie":13137,"ĠScient":13138,"Ġstove":13139,"ĠCatherine":13140,"Ġumb":13141,"olis":13142,"ĠWol":13143,"Ġshocked":13144,"ĠJar":13145,"resa":13146,"ĠKam":13147,"Ġmakeup":13148,"ĠAlber":13149,"lessness":13150,"ĠColomb":13151,"Ġradical":13152,"Ġcooked":13153,"Ġadmire":13154,"Ġobserve":13155,"Drink":13156,"Ġtherapy":13157,"Send":13158,"Ġsank":13159,"rians":13160,"Ġange":13161,"ĠFalls":13162,"Ġsoccer":13163,"respect":13164,"ĠKirk":13165,"Ġtramp":13166,"ĠVik":13167,"hyl":13168,"ĠThough":13169,"Ġpreserve":13170,"annon":13171,"Ġarmies":13172,"Ġautumn":13173,"ĠMagazine":13174,"Ġoxid":13175,"Alp":13176,"Lee":13177,"Ray":13178,"Win":13179,"brew":13180,"won":13181,"Ġtenth":13182,"ĠCR":13183,"ĠMorning":13184,"ĠFuck":13185,"Ġconvert":13186,"Ġchasing":13187,"ĠKaren":13188,"ANK":13189,"Ġdetailed":13190,"Ġreporting":13191,"Ġinvolving":13192,"Ġlawn":13193,"Unfortunately":13194,"Ġpermitted":13195,"Ġpriority":13196,"osaurs":13197,"Ġconsequence":13198,"ĠSpeaker":13199,"tree":13200,"Ġware":13201,"Ġdio":13202,"Ġpub":13203,"rost":13204,"ĠMoz":13205,"Ġexclud":13206,"ĠKate":13207,"ivals":13208,"Ġunited":13209,"hyd":13210,"ĠArd":13211,"Ġbreed":13212,"Ġevalu":13213,"Ġanswering":13214,"ĠMarket":13215,"Ġclosest":13216,"Ġtemperatures":13217,"Ġloads":13218,"Ġrequested":13219,"ĠMahar":13220,"Ġlungs":13221,"ĠBarbara":13222,"Ġcorporate":13223,"Ġpremiered":13224,"World":13225,"mount":13226,"Ġtel":13227,"irable":13228,"illo":13229,"ĠRound":13230,"ĠNam":13231,"Ġpeoples":13232,"Ġens":13233,"ĠVic":13234,"show":13235,"Ġmuscles":13236,"brid":13237,"cycle":13238,"Ġ95":13239,"Ġhurting":13240,"ĠForces":13241,"Ġprotests":13242,"REE":13243,"Ġprotecting":13244,"blood":13245,"Ġreactions":13246,"Ġpunished":13247,"ĠIsraeli":13248,"hearted":13249,"birds":13250,"Air":13251,"Fair":13252,"IX":13253,"Ir":13254,"uf":13255,"uana":13256,"Ġsack":13257,"ĠHem":13258,"umed":13259,"osoph":13260,"ĠJen":13261,"ĠEnergy":13262,"ovel":13263,"Ġenh":13264,"Ġstrangers":13265,"Stud":13266,"USIC":13267,"Ġdependent":13268,"Ġdefending":13269,"warf":13270,"Ġaccompany":13271,"Ġbetrayed":13272,"Ġingred":13273,"ĠJosÃ©":13274,".!":13275,"Bo":13276,"Pass":13277,"Walk":13278,"big":13279,"cond":13280,"wed":13281,"Ġtales":13282,"Ġhen":13283,"ĠSoo":13284,"ĠCry":13285,"ĠMind":13286,"oping":13287,"ĠGraham":13288,"ĠRet":13289,"ĠEver":13290,"oded":13291,"ĠLev":13292,"ĠTele":13293,"Ġbottles":13294,"Ġcrystal":13295,"Ġfears":13296,"ĠRegional":13297,"Ġdressing":13298,"Fucking":13299,"Ġmurders":13300,"Ġannouncement":13301,"Ġhospitals":13302,"February":13303,"haw":13304,"wife":13305,"Ġeats":13306,"acea":13307,"riet":13308,"ĠAP":13309,"ĠMack":13310,"iller":13311,"ĠBL":13312,"ĠDJ":13313,"Ġratt":13314,"ĠGun":13315,"ested":13316,"Ġupside":13317,"Ġchir":13318,"ichi":13319,"Ġoffensive":13320,"Ġquid":13321,"Ġbrows":13322,"International":13323,"velt":13324,"Ġmines":13325,"oots":13326,"Ġfinest":13327,"apper":13328,"Ġlearnt":13329,"ĠLeicester":13330,"ALK":13331,"Ġlads":13332,"December":13333,"Ġdispute":13334,"Ġcontribution":13335,"Ġpillow":13336,"GRUN":13337,"Ġconsecutive":13338,"ĠMicrosoft":13339,"Following":13340,"SPEAK":13341,"pow":13342,"Ġwider":13343,"Ġpizza":13344,"still":13345,"roph":13346,"ĠPir":13347,"thy":13348,"Ġcomponent":13349,"ĠVis":13350,"interest":13351,"Ġcolumns":13352,"Ġ92":13353,"Ġcharacteristic":13354,"Ġportrait":13355,"Ġvolt":13356,"Meanwhile":13357,"Ġsticking":13358,"Ġfatal":13359,"ĠLiu":13360,"otype":13361,"ĠAfghanistan":13362,"believable":13363,"81":13364,"Les":13365,"Sister":13366,"length":13367,"much":13368,"rand":13369,"á½":13370,"Ġfitted":13371,"Ġlemon":13372,"ĠSuff":13373,"ĠCraig":13374,"ĠWWE":13375,"ĠJason":13376,"ĠJesse":13377,"ĠEN":13378,"Ġplug":13379,"ĠKnow":13380,"Ġcoins":13381,"Ġcurse":13382,"ĠCaribbean":13383,"ĠFlight":13384,"ITY":13385,"Ġimagined":13386,"Ġinvestigate":13387,"Ġprecip":13388,"Apparently":13389,"Jeff":13390,"ĠGeoff":13391,"Ġjunction":13392,"Ġhelpless":13393,"Ġcontroversial":13394,"Ġcomedian":13395,"lia":13396,"mag":13397,"Ġwolves":13398,"Ġsunk":13399,"Ġhipp":13400,"arter":13401,"ĠPeak":13402,"olid":13403,"ĠLore":13404,"Ġarrow":13405,"Ġagencies":13406,"ahn":13407,"ĠAlger":13408,"Ġreader":13409,"ÂłÂł":13410,"Alice":13411,"Ġspeakers":13412,"ĠTrade":13413,"Ġsends":13414,"rers":13415,"ĠMilan":13416,"Ġpsychiat":13417,"Ġexclusive":13418,"Steve":13419,"Ġlegislation":13420,"Ġdismissed":13421,"Ms":13422,"Wake":13423,"orship":13424,"encer":13425,"Ġinev":13426,"ĠSuz":13427,"rov":13428,"ĠMach":13429,"ieu":13430,"Ġlend":13431,"orns":13432,"Ġ59":13433,"Ġobsc":13434,"Ġreflected":13435,"Ġsuggesting":13436,"Ġobjective":13437,"ĠPerry":13438,"Ġfarming":13439,"Ġfirms":13440,"Ġpsychology":13441,"WELL":13442,"Ġsignificance":13443,"Ġstruggling":13444,"Ġturtle":13445,"Jimmy":13446,"Ġcontroversy":13447,"Ġvelocity":13448,"including":13449,"ĠPhoen":13450,"Est":13451,"Sus":13452,"WAY":13453,"isure":13454,"itness":13455,"Ġdent":13456,"ĠMason":13457,"ĠRub":13458,"ĠRabbit":13459,"ĠVancouver":13460,"Ġcrashed":13461,"gric":13462,"Ġsurgeon":13463,"Ġproducers":13464,"Ġtriple":13465,"Ġnatives":13466,"oosevelt":13467,"Ġcleaned":13468,"Ġantib":13469,"ĠRichmond":13470,"Wouldn":13471,"ttes":13472,"ĠBoys":13473,"Ġfrequent":13474,"Ġpreparing":13475,"ĠUkrainian":13476,"Ġaccomplished":13477,"Ġcinema":13478,"pherd":13479,"Ġlectures":13480,"Tur":13481,"norm":13482,"Ġwag":13483,"Ġmaj":13484,"eda":13485,"ĠSac":13486,"ĠBoe":13487,"ĠElect":13488,"Ġdonkey":13489,"oused":13490,"Ġtrump":13491,"Ġcray":13492,"Ġswitched":13493,"Ġ600":13494,"ĠPrim":13495,"Ġfilmed":13496,"Ġhonored":13497,"ĠGuy":13498,"ĠPeru":13499,"Ġsurviving":13500,"Ġ1890":13501,"ĠMagic":13502,"Ġmagnificent":13503,"Ġdelicate":13504,"Ġcomparison":13505,"ĠMedicine":13506,"necessary":13507,"Hell":13508,"Jan":13509,"Jac":13510,"Mummy":13511,"PL":13512,"__":13513,"ere":13514,"num":13515,"oux":13516,"Ġpad":13517,"Ġpul":13518,"Ġlou":13519,"Ġstro":13520,"ĠPil":13521,"ĠRoute":13522,"Ġbrut":13523,"Ġbloke":13524,"Ġappet":13525,"grand":13526,"Ġski":13527,"ĠXV":13528,"Ġcandle":13529,"Ġemployee":13530,"ĠAgent":13531,"Ġblessing":13532,"Colonel":13533,"ĠArgentine":13534,"Ġborrowed":13535,"Ġwarrior":13536,"ĠMovement":13537,"Cool":13538,"Ġdried":13539,"eton":13540,"Ġwasted":13541,"Ġdock":13542,"ĠTreat":13543,"ĠRidge":13544,"Ġ1913":13545,"inkle":13546,"ĠKil":13547,"Ġaccum":13548,"Ġslope":13549,"Ġcheaper":13550,"Ġmeter":13551,"Ġ62":13552,"Ġhardware":13553,"Ġweekly":13554,"Ġdestro":13555,"uka":13556,"Ġengineers":13557,"Ġimmort":13558,"Ġtrucks":13559,"Ġminority":13560,"liga":13561,"Ġcomplications":13562,"Ġpretending":13563,"Ġmarginal":13564,"ĠDerby":13565,"ĠMalaysia":13566,"Dis":13567,"Women":13568,"],":13569,"aude":13570,"east":13571,"Ġbisc":13572,"ĠIan":13573,"usk":13574,"ĠAw":13575,"ĠMend":13576,"cht":13577,"ĠTun":13578,"ĠLoc":13579,"ĠStorm":13580,"ressing":13581,"Ġsymmet":13582,"Ġhumor":13583,"Ġ91":13584,"Ġtempor":13585,"Ġcatching":13586,"Ġdenomin":13587,"Ġchemicals":13588,"53":13589,"End":13590,"Eric":13591,"Ġtire":13592,"Ġbanned":13593,"Ġfog":13594,"Ġpod":13595,"Ġlump":13596,"Ġwasting":13597,"ĠAzerbai":13598,"Ġaspir":13599,"ĠPE":13600,"ĠGardens":13601,"iege":13602,"Ġ1915":13603,"Ġvamp":13604,"ishna":13605,"Ġenforce":13606,"Ġunp":13607,"âĢĻ.":13608,"lington":13609,"Ġ81":13610,"Ġ93":13611,"Ġdrawer":13612,"Ġoperates":13613,"Ġcharacteristics":13614,"Ġmultiply":13615,"trans":13616,"Ġterritories":13617,"Ġaxis":13618,"Ġnursery":13619,"odded":13620,"ouncillor":13621,"Europe":13622,"SON":13623,"Suddenly":13624,"URE":13625,"municipality":13626,"school":13627,"Ġcries":13628,"Ġpear":13629,"Ġgle":13630,"Ġrevers":13631,"ĠCamb":13632,"ifully":13633,"Ġsegment":13634,"ĠPav":13635,"ĠRey":13636,"ĠNFL":13637,"essed":13638,"assy":13639,"Ġscores":13640,"eez":13641,"Ġpublishing":13642,"arrison":13643,"Ġmunicipal":13644,"Ġboundaries":13645,"iggler":13646,"Ġwitnesses":13647,"Ġdiameter":13648,"Ġconvenient":13649,"Ġkittie":13650,"Ġluxury":13651,"ebastian":13652,"93":13653,"Eat":13654,"GB":13655,"Ke":13656,"moon":13657,"wi":13658,"aru":13659,"ĠABC":13660,"Ġstared":13661,"Ġstored":13662,"ĠTu":13663,"Ġliar":13664,"ĠFriends":13665,"ĠNep":13666,"ĠNebraska":13667,"Ġresort":13668,"Ġmonarch":13669,"Ġbuses":13670,"Ġsigning":13671,"Ġsignature":13672,"Ġmainland":13673,"Ġmaintenance":13674,"amba":13675,"ĠTHINK":13676,"Ġpropose":13677,"Ġcollecting":13678,"Ġcloses":13679,"Plus":13680,"Ġcelebration":13681,"ĠSingh":13682,"colm":13683,"ĠBernard":13684,"Ġconsisting":13685,"Ġsavage":13686,"Ġprocedures":13687,"Ġconcerts":13688,"Ġpirate":13689,"Ġphenomen":13690,"Ġefficiency":13691,"Ay":13692,"Hot":13693,"corn":13694,"election":13695,"iens":13696,"ctive":13697,"chy":13698,"ĠChampion":13699,"ĠVaud":13700,"ileen":13701,"âĢĻ,":13702,"atha":13703,"itionally":13704,"Ġendea":13705,"Ġleap":13706,"ĠNewton":13707,"Ġdrown":13708,"Ã©r":13709,"Ġ67":13710,"Ġextinct":13711,"plex":13712,"ĠWarner":13713,"Ġworrying":13714,"Ġconnections":13715,"AME":13716,"Ġinfluential":13717,"Ġimmense":13718,"Ġinterrupted":13719,"64":13720,"IES":13721,"Mem":13722,"Sat":13723,"swer":13724,"Ġq":13725,"ussels":13726,"ĠHAD":13727,"terior":13728,"ĠDur":13729,"ĠOm":13730,"ĠOber":13731,"Ġvirgin":13732,"Ġguidance":13733,"ĠThailand":13734,"Ġbelieving":13735,"Ġdrain":13736,"Ġphones":13737,"Looking":13738,"Ġdestination":13739,"ĠLords":13740,"Ġsusp":13741,"Ġcoverage":13742,"United":13743,"Ġreferring":13744,"Ġirrit":13745,"Ġsmells":13746,"Ġvanished":13747,"Ġcrowded":13748,"arence":13749,"Ġprofound":13750,"conscious":13751,"Ġinstrumental":13752,"ĠModern":13753,"Ġbuttons":13754,"onymous":13755,"Ġrehears":13756,"Ġdioxide":13757,"/&":13758,"overs":13759,"Ġshat":13760,"ĠIl":13761,"ĠBoo":13762,"ĠWa":13763,"ĠGard":13764,"ĠNegro":13765,"hoe":13766,"ĠShadow":13767,"Ġlawyers":13768,"ĠPrix":13769,"written":13770,"Ġautomatically":13771,"Ġultimate":13772,"Ġsculpture":13773,"hon":13774,"names":13775,"inals":13776,"Ġrelevant":13777,"ĠMeth":13778,"Ġmeals":13779,"ĠBorough":13780,"ĠTournament":13781,"ĠDance":13782,"ĠGill":13783,"igion":13784,"ĠVerm":13785,"forest":13786,"obi":13787,"Ġsorted":13788,"Ġpromises":13789,"ĠAlliance":13790,"Ġfilling":13791,"Perfect":13792,"Ġlosses":13793,"itarian":13794,"Ġsurround":13795,"Ġcontributions":13796,"Ġprofile":13797,"ĠSEE":13798,"Ġpuppy":13799,"Ġeternal":13800,"Either":13801,"Tra":13802,"à¸":13803,"Ġtension":13804,"heard":13805,"Ġgap":13806,"Ġheels":13807,"Ġwears":13808,"ĠBY":13809,"Ġjet":13810,"ĠRug":13811,"Ġalliance":13812,"Ġwheat":13813,"ĠStra":13814,"Ġhandling":13815,"Ġgloves":13816,"2011":13817,"Ġfract":13818,"aneous":13819,"Ġ84":13820,"Ġagenda":13821,"unications":13822,"Ġprocessing":13823,"ĠJonathan":13824,"ĠAttorney":13825,"Ġevidently":13826,"ĠJohann":13827,"Ġurgent":13828,"ĠMitchell":13829,"Ġentrepre":13830,"Dan":13831,"Siden":13832,"fan":13833,"human":13834,"talk":13835,"zo":13836,"itches":13837,"Ġbail":13838,"Ġhed":13839,"storm":13840,"ĠMum":13841,"ĠMarty":13842,"Ġsob":13843,"Ġorche":13844,"uddy":13845,"ĠUniverse":13846,"âĢĿ.":13847,"ixed":13848,"ĠShir":13849,"ggs":13850,"ĠAnim":13851,"Ġwarfare":13852,"Ġtransmission":13853,"Ġsongwriter":13854,"ravo":13855,"Ġpersist":13856,"Ġcivilian":13857,"Ġreducing":13858,"Ġrubbish":13859,"Ġbabe":13860,"Ġconcentrate":13861,"Ġfantasy":13862,"Ġneighbourhood":13863,"Ġventure":13864,"ĠFinnish":13865,"Ġisolated":13866,"Ġsharply":13867,"ĠDynasty":13868,"Sidenote":13869,"Jane":13870,"Ġsins":13871,"itus":13872,"Ġcage":13873,"Ġhay":13874,"Ġhut":13875,"ĠAcc":13876,"Ġstall":13877,"ĠPage":13878,"ĠWizard":13879,"ĠDOWN":13880,"Ġworries":13881,"Ġaggreg":13882,"ĠChang":13883,"Ġaccent":13884,"Ġpopulations":13885,"Ġsolic":13886,"Ġtraditions":13887,"ĠCollins":13888,"writing":13889,"suit":13890,"Ġcomposers":13891,"kerchief":13892,"ĠPanama":13893,"Ġscrewed":13894,"Ġpreparation":13895,"ĠFacebook":13896,"ME":13897,"Sa":13898,"iqu":13899,"sun":13900,"à¦":13901,"isne":13902,"Ġpneum":13903,"asmus":13904,"Ġnodded":13905,"ĠCant":13906,"ĠBunny":13907,"open":13908,"Ġrational":13909,"ĠFinal":13910,"Ġexport":13911,"Ġpresidency":13912,"Alan":13913,"Ġsnap":13914,"Ġindustries":13915,"aisy":13916,"ĠMickey":13917,"ĠHungary":13918,"ĠLAUGH":13919,"Ġcuriosity":13920,"Ġgesture":13921,"Ġorphan":13922,"ele":13923,"mama":13924,"Ð°":13925,"reated":13926,"Ġlazy":13927,"omo":13928,"ĠCub":13929,"ĠHerm":13930,"ĠWERE":13931,"ulum":13932,"ĠDig":13933,"ĠRoom":13934,"ĠLar":13935,"ĠNOW":13936,"Ġorgans":13937,"Ġamid":13938,"Therefore":13939,"ecess":13940,"ĠĠĠĠĠĠĠĠĠĠ":13941,"Ġmotherf":13942,"Ġresting":13943,"ĠOrthodox":13944,"ĠBarcel":13945,"Ġpenet":13946,"Ġprimitive":13947,"ĠWHO":13948,"Ġjewel":13949,"Ġswallow":13950,"Ġresignation":13951,"ĠLtd":13952,"62":13953,"Jon":13954,"wyn":13955,"Ġdip":13956,"aco":13957,"season":13958,"ĠMead":13959,"ĠTIME":13960,"ĠDong":13961,"ĠNine":13962,"Ġovercome":13963,"Ġ1800":13964,"ventually":13965,"Ġenters":13966,"ATTER":13967,"fessional":13968,"ĠCanal":13969,"Ġcompetitions":13970,"Ġreligions":13971,"ĠGlen":13972,"ĠNeil":13973,"Ġtexts":13974,"Ġsettlements":13975,"Ġcomplain":13976,"iasm":13977,"ĠAssy":13978,"Ġrecommended":13979,"Ġlaboratory":13980,"ĠCOVID":13981,"Ġkilometers":13982,"91":13983,"Ġoct":13984,"Ġbats":13985,"Ġgum":13986,"enton":13987,"uting":13988,"ĠMos":13989,"ĠMonsieur":13990,"ĠLinda":13991,"ĠFROM":13992,"ĠJama":13993,"qual":13994,"Ġchrom":13995,"Ġprohib":13996,"Ġmanaging":13997,"ĠUm":13998,"sole":13999,"Thus":14000,"Ġimper":14001,"Ġcivilians":14002,"ĠReserve":14003,"Ġcolonies":14004,"Ġmathematical":14005,"Ġresponded":14006,"Din":14007,"Hu":14008,"cm":14009,"var":14010,"Ġbegging":14011,"Ġatom":14012,"ĠPRO":14013,"udson":14014,"formed":14015,"ĠShiv":14016,"Ġemail":14017,"ikki":14018,"cycl":14019,"ĠGran":14020,"Ġplanes":14021,"Ġsummon":14022,"Arthur":14023,"Ġvolumes":14024,"True":14025,"ĠCatal":14026,"Ġdeposit":14027,"ĠNevada":14028,".-":14029,"UC":14030,"Wil":14031,"tin":14032,"Ġties":14033,"inian":14034,"asi":14035,"Ġgardens":14036,"Ġweary":14037,"ĠMama":14038,"Ġanalog":14039,"ĠBapt":14040,"Ġshadows":14041,"oda":14042,"Ġbacks":14043,"Ġunions":14044,"Ġinstruction":14045,"ĠCommons":14046,"Ġreplacing":14047,"ĠGreater":14048,"rawford":14049,"Ġreminded":14050,"Ġathlete":14051,"intendent":14052,"ĠCecily":14053,"cular":14054,"mid":14055,"nine":14056,"uously":14057,"Ġpause":14058,"Ġnail":14059,"alion":14060,"Ġbegg":14061,"Ġstub":14062,"ĠMann":14063,"Ġdoin":14064,"ĠPoly":14065,"Ġrises":14066,"Ġjunk":14067,"ĠRead":14068,"ĠNav":14069,"arded":14070,"ĠEaster":14071,"amples":14072,"Ġreserv":14073,"Ġrecycl":14074,"Ġglanced":14075,"Ġ82":14076,"Ġtragic":14077,"Ġguessed":14078,"Ġstere":14079,"Ġposts":14080,"Ġpropag":14081,"Ġphysically":14082,"Ġfarms":14083,"Ġacquaint":14084,"Ġrestaurants":14085,"Ġfloors":14086,"Ġdemocratic":14087,"ĠEleanor":14088,"Ġpissed":14089,"Relax":14090,"dem":14091,"hind":14092,"rast":14093,"onian":14094,"around":14095,"othe":14096,"Ġrely":14097,"ĠCBS":14098,"ĠHob":14099,"ĠBert":14100,"ĠWatch":14101,"umer":14102,"iaz":14103,"ĠVenez":14104,"Ġdistinction":14105,"retched":14106,"ĠIsle":14107,"eyed":14108,"Ġpays":14109,"Ġbases":14110,"Ġcoron":14111,"Ġviewers":14112,"ĠHarold":14113,"whoa":14114,"Ġvertical":14115,"Ġparks":14116,"black":14117,"Ġlovers":14118,"Ġinvention":14119,"ĠVictorian":14120,"Ġmoist":14121,"omeday":14122,"ĠKuwait":14123,"Ġwarriors":14124,"Ol":14125,"Read":14126,"Ġlakes":14127,"ĠIF":14128,"antine":14129,"Ġgoss":14130,"Ġdefect":14131,"Ġdisgu":14132,"Ġfrust":14133,"OUS":14134,"uffs":14135,"ussia":14136,"Ġ94":14137,"Ġfighter":14138,"Ġsuccessor":14139,"ĠGuinea":14140,"lavery":14141,"ĠChester":14142,"Ġbiological":14143,"Ġemerged":14144,"ĠJulie":14145,"Ġexamination":14146,"Ġconquered":14147,"Ġinterpretation":14148,"ĠEngineering":14149,"Ġoverseas":14150,"Pal":14151,"kar":14152,"Ãī":14153,"ãĤ":14154,"Ġpent":14155,"Ġecho":14156,"seven":14157,"ĠPel":14158,"ĠWon":14159,"ĠDublin":14160,"Ġrats":14161,"Ġcancel":14162,"Ġspider":14163,"Thought":14164,"Ġwrap":14165,"ĠBron":14166,"Ġretail":14167,"Ġrestore":14168,"ĠZiggler":14169,"flu":14170,"OND":14171,"Ġpublicly":14172,"Ġreplacement":14173,"Ġrepresentatives":14174,"Ġtraded":14175,"Ġhyper":14176,"Ġstarving":14177,"IDE":14178,"ĠRepublicans":14179,"IGHS":14180,"ĠHugh":14181,"ĠOttoman":14182,"ĠGeneva":14183,"82":14184,"IO":14185,"baby":14186,"folk":14187,"liness":14188,"Ġcad":14189,"Ġoutfit":14190,"Ġaggressive":14191,"Ġregulations":14192,"Ġrealised":14193,"Ġsolutions":14194,"Ġsuccession":14195,"untary":14196,"Ġsexy":14197,"Ġflee":14198,"ĠArabic":14199,"Ġtimber":14200,"Ġimprovement":14201,"Ġcolonial":14202,"Ġfrost":14203,"Ġquantum":14204,"Ġcommissioned":14205,"Despite":14206,"Ġsuspicion":14207,"ĠLeban":14208,"Ġtrembling":14209,"Ġvulnerable":14210,"%,":14211,"fold":14212,"ê¯":14213,"Ġcra":14214,"Ġfiled":14215,"Ġdancer":14216,"imen":14217,"ĠManu":14218,"Ġatomic":14219,"Ġshaped":14220,"Ġmankind":14221,"ĠKir":14222,"arettes":14223,"onda":14224,"Ġgrin":14225,"ĠChan":14226,"oviÄĩ":14227,"Ġdisturbed":14228,"Ġ79":14229,"Ġopenly":14230,"Ġcorners":14231,"Ġhosts":14232,"ĠBobby":14233,"Ġcorrectly":14234,"Ġdomain":14235,"Ġtanks":14236,"ĠSaxony":14237,"Ġbree":14238,"ĠSign":14239,"ĠAC":14240,"Ġstew":14241,"ĠCave":14242,"ĠMD":14243,"ĠTro":14244,"ĠWalt":14245,"ĠDanish":14246,"ĠRuth":14247,"Ġshelf":14248,"Ġclo":14249,"Thirty":14250,"Ġcarn":14251,"Ġcrimin":14252,"Ġregime":14253,"ĠAlt":14254,"Ġdrummer":14255,"Ġreads":14256,"Ġmagician":14257,"Ġtreating":14258,"Speak":14259,"Ġcoastal":14260,"Adam":14261,"Ġstreams":14262,"Ġincreasingly":14263,"Ġembarrassed":14264,"Ġcompassion":14265,"2000":14266,"Jenny":14267,"London":14268,"Much":14269,"Roman":14270,"came":14271,"sil":14272,"ĠSS":14273,"seud":14274,"Ġshaft":14275,"Ġrh":14276,"ĠRat":14277,"Ġchains":14278,"iren":14279,"Ġministers":14280,"Ġmonop":14281,"Ġ61":14282,"exp":14283,"Ġtrials":14284,"airo":14285,"cribe":14286,"Ġterminal":14287,"umbai":14288,"Ġdigging":14289,"Ġ1880":14290,"Ġruins":14291,"Ã¨s":14292,"Ġirre":14293,"Ġmicrosc":14294,"Ġwandering":14295,"Ġelderly":14296,"Ġeliminated":14297,"offee":14298,"72":14299,"Ġcavalry":14300,"stration":14301,"ulus":14302,"Ġrabb":14303,"ĠRot":14304,"Ġtwent":14305,"Ġnowadays":14306,"nex":14307,"Ġdaylight":14308,"Ġresolved":14309,"Ġearning":14310,"Ġmarine":14311,"Ġmonastery":14312,"Ġ76":14313,"Ġorganisms":14314,"THIS":14315,"Ġtestimony":14316,"ĠJackie":14317,"Ġphysic":14318,"ĠEmmy":14319,"ĠAntar":14320,"Ġsalad":14321,"Ġdiamonds":14322,"Ġchampionships":14323,"ĠUpon":14324,"Ġpirates":14325,"ĠFlorence":14326,"Aunt":14327,"pes":14328,"oris":14329,"Ġheal":14330,"stick":14331,"ĠMammy":14332,"ĠHO":14333,"ĠHook":14334,"ĠFig":14335,"ĠFood":14336,"Ohh":14337,"ĠVas":14338,"Ġblade":14339,"Ġneedle":14340,"herent":14341,"Ġrecru":14342,"Ġmining":14343,"Ġsupporters":14344,"Ġeleg":14345,"Ġ53":14346,"Ġarrives":14347,"Ġloans":14348,"Ġsailor":14349,"Ġphilosopher":14350,"Christian":14351,"ĠNEW":14352,"Ġforbidden":14353,"ĠPrague":14354,"Ġvaccine":14355,"Hur":14356,"Lieutenant":14357,"certain":14358,"hall":14359,"sim":14360,"Ġwages":14361,"ente":14362,"ĠChem":14363,"ĠPant":14364,"Ġjaw":14365,"ĠRoosevelt":14366,"ĠNord":14367,"Ġintu":14368,"Ġamendment":14369,"Ġscope":14370,"Ġflame":14371,"Ġflights":14372,"Ġmonument":14373,"ĠShan":14374,"Ġtownship":14375,"borne":14376,"Ġanimation":14377,"Ġdreamed":14378,"Ġinfluences":14379,"Ġdeclare":14380,"Ġvoters":14381,"second":14382,"Ġessay":14383,"Ġvariables":14384,"Ġownership":14385,"Ġstrategic":14386,"ĠVOICE":14387,"Bus":14388,"Gentlemen":14389,"bea":14390,"gre":14391,"Ġinfer":14392,"Ġstating":14393,"ĠMolly":14394,"ĠWOULD":14395,"ĠDash":14396,"ĠLance":14397,"ĠLiter":14398,"berries":14399,"Ġwilliam":14400,"Ġtrous":14401,"ĠChart":14402,"Ġcriter":14403,"ĠShip":14404,"Ġmush":14405,"Ġpatron":14406,"Ġdealer":14407,"forced":14408,"minute":14409,"minster":14410,"ĠManagement":14411,"Ġabsent":14412,"Ġsunlight":14413,"Ã¼n":14414,"ĠCricket":14415,"Ġfirmly":14416,"ĠEverything":14417,"Ġchatter":14418,"Ġterrorist":14419,"Ġfrankly":14420,"onomous":14421,"71":14422,"Dead":14423,"Hand":14424,"iago":14425,"uj":14426,"hent":14427,"send":14428,"Ġster":14429,"ĠMaced":14430,"ĠHaut":14431,"ifford":14432,"Ġrag":14433,"Ġplacing":14434,"Ġ1911":14435,"anking":14436,"Ġunsuccess":14437,"Ġhappier":14438,"ĠZone":14439,"Ġstrongest":14440,"Ġposter":14441,"Ġdepressed":14442,"Ġlaughs":14443,"Ġcloset":14444,"Ġtailor":14445,"ĠJulia":14446,"Ġexamined":14447,"Ġsamples":14448,"Ġcommitment":14449,"ĠIceland":14450,"Ġanchor":14451,"Ġhorizont":14452,"Ġnaughty":14453,"Ġsearched":14454,"ĠBarcelona":14455,"Origin":14456,"table":14457,"tail":14458,"yre":14459,"zheimer":14460,"esy":14461,"aye":14462,"roe":14463,"ĠMake":14464,"ĠTW":14465,"ĠFellow":14466,"agar":14467,"Ġcontents":14468,"Ġbucket":14469,"oba":14470,"Ġcoin":14471,"arms":14472,"aja":14473,"Ġ78":14474,"Ġ98":14475,"Ġadvise":14476,"Ġpatience":14477,"ĠMission":14478,"ASE":14479,"looked":14480,"ĠExpress":14481,"Ġquarrel":14482,"Surely":14483,"Ġattraction":14484,"Ġsignificantly":14485,"ĠErnest":14486,"Ġlegislature":14487,"Ġresearchers":14488,"aac":14489,"daughter":14490,"lain":14491,"enos":14492,"Ġhob":14493,"ĠSoul":14494,"riek":14495,"Ġhabits":14496,"Ġdoctrine":14497,"ĠPA":14498,"ĠDec":14499,"Ġrated":14500,
[...]
